<pad>	0
<s>	0
</s>	0
<unk>	0
▁།_།	-3.05748
▁འི་	-3.11582
▁ར་	-3.314
▁དང་	-3.51578
▁།_	-3.56881
▁ས་	-3.91574
▁ནི་	-3.9246
▁ལ་	-4.09104
▁།	-4.28011
▁ཀྱི་	-4.44197
▁དུ་	-4.44979
▁ཞེས་	-4.53845
▁འོ	-4.61045
▁ལ	-4.62682
▁དེ་	-4.67721
▁རྣམས་	-4.8966
▁ན་	-4.93794
▁མི་	-4.99161
▁བྱ་བ་	-5.00365
▁མ་	-5.03762
▁ཡིན་	-5.04013
▁དེ	-5.14114
▁ཡང་	-5.14852
▁གྱི་	-5.17156
▁གི་	-5.24129
▁ཕྱིར་	-5.25756
▁ཏེ	-5.27104
▁ནས་	-5.2721
▁ཉིད་	-5.36479
▁ཐམས་ཅད་	-5.40852
▁ཀྱིས་	-5.41598
▁རྣམ་པ	-5.4271
▁བྱ	-5.42917
▁སྟེ	-5.492
▁ཏུ་	-5.4962
▁འདི་	-5.58171
▁སུ་	-5.65284
▁སོ	-5.66774
▁ཀྱང་	-5.67133
▁ཆོས་	-5.6762
▁རོ	-5.71805
▁འགྱུར་	-5.72518
▁ན	-5.75691
▁དག་	-5.80015
▁གང་	-5.82167
▁གྱིས་	-5.84507
▁ནོ	-5.84797
▁བྱ་བ	-5.85247
▁གིས་	-5.86256
▁བྱང་ཆུབ་	-5.8663
▁ལ་སོགས་པ་	-5.86665
▁དོན་	-5.89441
▁དེ་བཞིན་	-5.90156
▁ནི	-5.92867
▁གཞན་	-5.94407
▁མེད་པ	-5.95516
▁དེ་དག་	-5.99494
▁དོ	-6.01009
▁ཡོངས་སུ་	-6.07963
▁ཏེ་	-6.08472
▁སངས་རྒྱས་	-6.14792
▁རྡོ་རྗེ་	-6.15453
▁སེམས་དཔའ་	-6.15556
▁བཅོམ་ལྡན་འདས་	-6.1955
▁གཉིས་	-6.21085
▁མེད་པ་	-6.22697
▁ཞིང་	-6.22859
▁བདག་	-6.25265
▁ཆེན་པོ་	-6.28697
▁ལ་སོགས་པ	-6.31223
▁སེམས་	-6.32069
▁ཀུན་	-6.34033
▁བྱེད་	-6.35363
▁ས	-6.35461
▁རྣམ་པ་	-6.35643
▁བྱེད་པ་	-6.37405
▁མེད་	-6.38639
▁གནས་	-6.38657
▁ཅིང་	-6.40006
▁འདི	-6.40743
▁ཅན་	-6.42795
▁སེམས་ཅན་	-6.44518
▁རབ་ཏུ་	-6.44696
▁བཞིན་	-6.4479
▁_།	-6.45121
▁དེ་ལྟར་	-6.46983
▁དེ་ནས་	-6.49353
▁ཞེས་པ་	-6.49873
▁བྱས་	-6.50884
▁ཏོ	-6.50953
▁ཡང་དག་པ	-6.52034
▁གཅིག་	-6.52874
▁རང་	-6.55194
▁རང་བཞིན་	-6.55616
▁ཤེས་པ་	-6.57266
▁ཚེ་	-6.57737
▁ཕ་རོལ་	-6.58288
▁བྱ་	-6.5852
▁གསུམ་	-6.59542
▁སྟེ་	-6.60609
▁བྱེད་པ	-6.63021
▁ཡིན་པ	-6.63338
▁ལུས་	-6.6455
▁གཟུགས་	-6.65219
▁ནས	-6.6535
▁བར་	-6.66903
▁ཞེ་	-6.66911
▁རྗེས་སུ་	-6.67029
▁ཇི་ལྟར་	-6.67044
▁དགེ་སློང་	-6.67495
▁ཤེས་རབ་	-6.68782
▁མངོན་པར་	-6.69874
▁ཡི་	-6.7484
▁ཤིང་	-6.74967
▁དེ་ཉིད་	-6.74998
▁ཡེ་ཤེས་	-6.75148
▁འཇིག་རྟེན་	-6.77104
▁འོ་	-6.79016
▁ངོ་	-6.80243
▁ཡིད་	-6.80369
▁གྱུར་	-6.82938
▁ཁམས་	-6.83801
▁བུ་	-6.84869
▁དབང་	-6.852
▁རིགས་	-6.86539
▁ལྡན་པ་	-6.87569
▁དཀྱིལ་འཁོར་	-6.8795
▁ཡིན	-6.88151
▁ཤེས་པ	-6.89127
▁ཕྱིན་པ་	-6.89759
▁དངོས་པོ་	-6.90607
▁གྱུར་པ་	-6.91332
▁འགྱུར	-6.91761
▁ཕྱོགས་	-6.92151
▁རྫོགས་པ	-6.93145
▁དུས་	-6.93408
▁གལ་ཏེ་	-6.93897
▁གནས་པ	-6.94183
▁ལྡན་པ	-6.96171
▁རྒྱུ་	-6.9684
▁ཅེས་	-6.97995
▁བདག་ཉིད་	-6.98657
▁གཤེགས་པ་	-6.99379
▁མཚན་ཉིད་	-6.99869
▁ཕྱིར	-7.00415
▁བསྟན་པ	-7.01176
▁ནང་	-7.02537
▁ནོ་	-7.03177
▁ཅི་	-7.04721
▁ངོ་བོ་	-7.05492
▁ཆེན་པོ	-7.05999
▁མཆོག་	-7.06684
▁ཚིག་	-7.06992
▁ལམ་	-7.07178
▁འབྲས་བུ་	-7.07278
▁ཉེ་བར་	-7.08359
▁ཤིན་ཏུ་	-7.0873
▁ལྷ་	-7.09633
▁རོ་	-7.11044
▁སྟོང་པ་ཉིད་	-7.11281
▁བསྟན་པ་	-7.11976
▁གོ	-7.12617
▁འམ	-7.12677
▁འགྱུར་བ་	-7.13147
▁བཞི་	-7.14488
▁སྔགས་	-7.14516
▁གནས་པ་	-7.14566
▁ཡོད་	-7.15466
▁ཡོད་པ་	-7.15823
▁ཕྱག་	-7.16665
▁དེ་ཡང་	-7.16852
▁གསུངས་	-7.17147
▁ཡུལ་	-7.1721
▁གྱུར་པ	-7.19125
▁མྱི་	-7.19216
▁མཐོང་	-7.19984
▁ཁྱོད་	-7.20693
▁གང་ཡིན་པ་	-7.20893
▁ཁྱད་པར་	-7.22917
▁ཚུལ་	-7.25985
▁སྒྲ་	-7.27535
▁དག་པ	-7.28675
▁ལྔ་	-7.28982
▁བདེ་བ་	-7.29485
▁ཨ་	-7.31969
▁དག་པ་	-7.31971
▁བསྟན་	-7.33226
▁འབྱུང་བ་	-7.33862
▁རྒྱལ་པོ་	-7.34099
▁ཙམ་	-7.3433
▁སྐྱེ་བ་	-7.34357
▁བརྗོད་པ	-7.34536
▁སྡུག་བསྔལ་	-7.35967
▁འགྲོ་བ་	-7.36287
▁འདི་ལྟར་	-7.3802
▁འབྱུང་བ	-7.38619
▁མ་ཡིན་པ	-7.39571
▁འདོད་པ་	-7.39696
▁ཡོན་ཏན་	-7.42187
▁འགྱུར་བ	-7.42568
▁ཕྱག་རྒྱ་	-7.43835
▁ཞིག་	-7.44891
▁ཏ་	-7.45118
▁ཅེས་བྱ་བ་	-7.45211
▁ཏིང་ངེ་འཛིན་	-7.45343
▁སྤྱོད་པ་	-7.4554
▁དེ་ལྟ་	-7.46252
▁མ་ཡིན་པ་	-7.46436
▁དུ	-7.4743
▁ཚོགས་	-7.47543
▁ཞེས་པ	-7.48452
▁ཨོཾ་	-7.49001
▁བྱུང་བ	-7.49482
▁མིག་	-7.49743
▁ཡ་	-7.50117
▁འདོད་པ	-7.50348
▁རྟོག་པ་	-7.50592
▁ཐོབ་པ	-7.51017
▁དོ་	-7.52063
▁བྱིན་	-7.52109
▁དབང་པོ་	-7.53069
▁ཡན་ལག་	-7.53348
▁འམ་	-7.53353
▁བཀའ་	-7.53982
▁ལྟ་བུ	-7.54469
▁ལྟར་	-7.54477
▁འདི་དག་	-7.54799
▁སྙམ་	-7.55125
▁ངེས་པར་	-7.55493
▁སྦྱོར་བ་	-7.55622
▁དྲུག་	-7.55639
▁མཐའ་	-7.55959
▁བྱེད	-7.56099
▁བཤད་པ	-7.56627
▁སྨྲས་པ	-7.56942
▁བརྗོད་	-7.57024
▁བྱས་པ་	-7.57326
▁གཤེགས་པ	-7.57586
▁མཛད་	-7.57663
▁བྱས་པ	-7.57771
▁སེམས་དཔ	-7.58239
▁སོ་	-7.58501
▁འདི་སྐད་	-7.58547
▁ལྷ	-7.58648
▁ཡི་གེ་	-7.58894
▁གསུངས་པ	-7.59216
▁ཅིའི་ཕྱིར་	-7.59376
▁མྱ་ངན་	-7.60391
▁སྒོ་	-7.61255
▁རྣལ་འབྱོར་	-7.61606
▁སྔོན་	-7.62053
▁སྣ་ཚོགས་	-7.62152
▁རྟོགས་པ	-7.62514
▁སོ་སོ	-7.6305
▁དགེ་འདུན་	-7.63186
▁དེ་ལས་	-7.63204
▁བརྒྱད་	-7.63485
▁རྐྱེན་	-7.63929
▁རྒྱུད་	-7.6395
▁སྐྱེ་བ	-7.64347
▁འཇུག་པ་	-7.64362
▁བཅས་པ	-7.6516
▁ཡོད་པ	-7.65277
▁ཐབས་	-7.65438
▁མིང་	-7.65698
▁འཇུག་པ	-7.66282
▁འབྱུང་	-7.66541
▁སྟོབས་	-7.66945
▁རིག་པ	-7.67212
▁གསུངས་པ་	-7.67856
▁ཉོན་མོངས་པ་	-7.68361
▁བྱུང་བ་	-7.68536
▁བཤད་	-7.70393
▁མཐོང་བ	-7.71326
▁རླུང་	-7.71352
▁མེ་	-7.71441
▁འཁོར་ལོ་	-7.71546
▁རབ་འབྱོར་	-7.71803
▁སྟོང་	-7.72109
▁རྟག་	-7.72252
▁འདོད་ཆགས་	-7.72786
▁ལན་	-7.73179
▁ཀ་	-7.7339
▁ཁོ་ན་	-7.73963
▁རྡོ་རྗེ	-7.74139
▁དང་པོ་	-7.74551
▁སྐུ་	-7.7473
▁སྨོས་	-7.75555
▁འཛིན་པ་	-7.76551
▁འགྲོ་བ	-7.76579
▁ལྷན་ཅིག་	-7.76932
▁སྣང་བ་	-7.76991
▁མཐོང་བ་	-7.77248
▁དམིགས་པ་	-7.77293
▁དགེ་བ	-7.77419
▁མ	-7.77548
▁སྤྱོད་པ	-7.77576
▁བརྗོད་པ་	-7.78957
▁སོགས་	-7.78967
▁བཅས་པ་	-7.79144
▁བཤད་པ་	-7.79635
▁ཕུང་པོ་	-7.80893
▁ཚད་	-7.81341
▁འཛིན་པ	-7.81374
▁ཤེས་	-7.81635
▁བསམ་གཏན་	-7.81802
▁ཡིས་	-7.82003
▁མེ་ཏོག་	-7.82354
▁འདུ་ཤེས་	-7.8348
▁ཆུ་	-7.83691
▁མཚན་མ་	-7.83892
▁བདེ་བ	-7.84395
▁ར	-7.84968
▁ནམ་མཁའ་	-7.85085
▁བྱུང་	-7.85394
▁འང་	-7.85726
▁ཚུལ་ཁྲིམས་	-7.85992
▁ཡང་ན་	-7.86223
▁མེད	-7.86784
▁རྣམ་	-7.87206
▁དམ་ཚིག་	-7.87337
▁འདས་པ་	-7.87637
▁སྐྱེས་པ་	-7.87966
▁ལྟ་བུ་	-7.88059
▁དགའ་བ་	-7.8886
▁སྟེང་	-7.89334
▁ལེགས་པ	-7.89743
▁བླ་	-7.90087
▁བསྒྲུབ་པ	-7.90308
▁ལྡན་	-7.90539
▁དབུས་	-7.9069
▁རྩ་	-7.9104
▁སྟོན་པ	-7.91561
▁གྲངས་	-7.91585
▁མཁྱེན་པ་	-7.91818
▁འཁོར་	-7.9248
▁ཡིན་པ་	-7.92557
▁གང་ཞིག་	-7.92581
▁ག་	-7.93245
▁གང་དག་	-7.93318
▁འཕགས་པ་	-7.93818
▁བཞི	-7.94056
▁རབ་	-7.94299
▁ཟླ་བ་	-7.94625
▁སྨྲ	-7.94646
▁འདོད་	-7.94654
▁ལྟ་བ་	-7.94725
▁ཧཱུཾ་	-7.94733
▁སྙིང་པོ་	-7.95015
▁མངོན་སུམ་	-7.9514
▁ཆེ	-7.95507
▁དུ་མ་	-7.95917
▁བྲལ་བ	-7.95946
▁བསྒོམ་པ	-7.96632
▁དམིགས་པ	-7.96797
▁ཡི	-7.9689
▁པདྨ་	-7.96911
▁བསོད་ནམས་	-7.97271
▁བཅུ་	-7.97629
▁ཡང་དག་	-7.97838
▁འོད་	-7.97962
▁འི	-7.98116
▁མྱེད་	-7.98189
▁འོག་	-7.98382
▁སྦྱར་	-7.98473
▁ཐེག་པ་	-7.9849
▁སྦྱོར་བ	-7.98912
▁ཆོ་ག་	-7.98981
▁ཉན་ཐོས་	-7.99146
▁དགའ་བ	-7.99423
▁ཡིས	-7.9978
▁དེས་ན་	-7.9992
▁སྔར་	-7.99981
▁འདས་པ	-8.00186
▁རི་	-8.00392
▁འཚལ་	-8.00625
▁བི་	-8.00633
▁སྒྲུབ་པ	-8.01047
▁རྟོག་པ	-8.01352
▁།།_།།	-8.01503
▁ཚོར་བ་	-8.01623
▁སྦྱིན་པ	-8.01698
▁སྐྱེས་པ	-8.02059
▁སྟོན་	-8.02255
▁དང་པོ	-8.02299
▁རྟོགས་པ་	-8.02631
▁རྒྱུན་	-8.02828
▁རྟེན་	-8.03513
▁དཔལ་	-8.03735
▁ལོ	-8.04144
▁སློབ་དཔོན་	-8.04536
▁བཛྲ་	-8.04591
▁རུང་	-8.05362
▁གསལ་བ	-8.06395
▁འདུས་	-8.06483
▁ནད་	-8.06899
▁འདི་ལྟ་སྟེ	-8.07058
▁ས་བོན་	-8.07175
▁བདུན་	-8.07189
▁དངོས་གྲུབ་	-8.07792
▁རྒྱས་པ	-8.08374
▁ཁོ་ན	-8.08593
▁རིག་པ་	-8.0908
▁སྔ་མ་	-8.09142
▁བློ་	-8.0919
▁དཔེར་ན་	-8.09905
▁རྩ་བ་	-8.10423
▁ལྔ	-8.11289
▁སྣང་	-8.11343
▁སྩལ་པ	-8.11431
▁གྲུབ་པ	-8.11764
▁འདྲ་བ	-8.12385
▁གོས་	-8.12519
▁ཇི་ལྟ་བ་	-8.12529
▁སྟོན་པ་	-8.1299
▁ཤ་	-8.13005
▁སྐྱེས་བུ་	-8.13489
▁བདེན་པ་	-8.13539
▁མཆོད་པ་	-8.13659
▁དྲན་པ་	-8.14342
▁མོ	-8.14503
▁བྱེ་བྲག་	-8.14528
▁གང་ཞེ་ན	-8.15248
▁ཕྱི་རོལ་	-8.15702
▁ད་	-8.15855
▁མཐ	-8.15927
▁བརྒྱ་	-8.16307
▁ཕྱིན་	-8.16317
▁བུ	-8.16445
▁ཧ་	-8.16445
▁དབྱིངས་	-8.16972
▁གཞན་དག་	-8.16987
▁དམིགས་	-8.17309
▁སྙོམས་པར་	-8.17965
▁སྦྱིན་པ་	-8.18222
▁ལོ་	-8.18452
▁རྒྱལ་པོ	-8.18894
▁མཉམ་པ	-8.19159
▁ཀྱི	-8.19673
▁དབང་ཕྱུག་	-8.1971
▁སྤྱོད་	-8.19822
▁ཉམས་	-8.20067
▁སྐྱེས་	-8.20094
▁ཐོབ་པ་	-8.2035
▁གང་ཡང་	-8.20656
▁རྒྱུ	-8.20667
▁སྭཱ་	-8.20726
▁མཐུན་པ	-8.20946
▁གཞི་	-8.20979
▁ཞི་བ	-8.21698
▁དེ་སྐད་	-8.21822
▁འདུ་བྱེད་	-8.22509
▁རིན་ཆེན་	-8.22586
▁མོ་	-8.22843
▁གང་ཟག་	-8.23146
▁བུད་མེད་	-8.23289
▁ཐུགས་	-8.23559
▁ནུས་པ་	-8.23692
▁མང་པོ་	-8.24264
▁གྲུབ་པ་	-8.24381
▁རིམ་པ་	-8.24827
▁སྣང་བ	-8.24934
▁བསམ་པ་	-8.25248
▁ཉི་མ་	-8.25801
▁ང་	-8.25823
▁དེ་བཞིན་ཉིད་	-8.26367
▁སོང་	-8.26436
▁མདོ་	-8.27115
▁སུ	-8.27459
▁གྱི	-8.27545
▁བསྐྱེད་པ	-8.2766
▁རུ་	-8.2766
▁གཉིས་པ་	-8.27787
▁དག	-8.28093
▁ཅེས་བྱ་བ	-8.28238
▁ཡིག་	-8.28406
▁འོད་ཟེར་	-8.28965
▁ཅིག་	-8.28994
▁སྐྱེ་མཆེད་	-8.29485
▁ཟས་	-8.29755
▁བྲལ་བ་	-8.30546
▁ཉེས་པ་	-8.30689
▁དེ་བས་ན་	-8.30897
▁སྒྲ	-8.31057
▁ཁ་	-8.31302
▁ཐ་དད་པ་	-8.31643
▁ཚེ	-8.32497
▁སྨྲ་བ་	-8.33037
▁འཕགས་པ	-8.33231
▁ལོག་པ	-8.33329
▁ཆ་	-8.33506
▁སོ་སོ་	-8.34001
▁བགྱི	-8.34173
▁གསོལ་	-8.34512
▁ལ་སོགས་	-8.34833
▁ལྟུང་བ་	-8.34839
▁ཇི་སྐད་	-8.34877
▁བརྩོན་འགྲུས་	-8.35385
▁ཧཱུྃ་	-8.3561
▁བདུད་	-8.35722
▁སྤང་བ	-8.35753
▁རེག་པ་	-8.35878
▁བརྟེན་	-8.3689
▁འཁོར་ལོ	-8.3689
▁གསུང་	-8.37269
▁ཧཱ	-8.37276
▁ངེས་པ་	-8.38109
▁ཆགས་པ་	-8.38141
▁སྐབས་	-8.38398
▁ཞལ་	-8.38654
▁དགེ་བ་	-8.3868
▁ཁ་དོག་	-8.39138
▁ཆེན་	-8.39138
▁ཏི་	-8.39144
▁ཟིན་	-8.39163
▁ཐ་	-8.39442
▁སྐྱོན་	-8.39643
▁རྫོགས་	-8.39714
▁ཁྱིམ་	-8.39994
▁ཕུན་སུམ་	-8.39994
▁གོ་	-8.40183
▁མཚམས་	-8.40425
▁གཏན་ཚིགས་	-8.40549
▁དམ་པ་	-8.40674
▁ཚིགས་	-8.40864
▁ནམ་མཁ	-8.41042
▁རྫས་	-8.41246
▁འཛིན་	-8.41325
▁ཁ	-8.4151
▁འདུག་	-8.41576
▁ངག་	-8.41603
▁འཇིགས་པ་	-8.41894
▁མཚན་	-8.42074
▁བསམ་	-8.42187
▁ཁ་ཅིག་	-8.42227
▁འདི་ཉིད་	-8.4226
▁དམ་པ	-8.4236
▁མཆོད་པ	-8.42647
▁གསུམ་པ་	-8.42688
▁རིན་པོ་ཆེ་	-8.42882
▁པྲ་	-8.43103
▁དགྲ་བཅོམ་པ་	-8.43622
▁ཤིག	-8.43811
▁ཀྱིས	-8.4413
▁ད་ནི་	-8.44225
▁ཧཱ་	-8.4432
▁ཅན	-8.44402
▁འབྲེལ་པ་	-8.44497
▁ཚོགས་པ་	-8.44613
▁ལྷག་མ་	-8.44818
▁ཐོས་	-8.45167
▁མཛད་པ	-8.45236
▁མིན་	-8.45325
▁ཕྱིན་པ	-8.4547
▁བྷ་	-8.4558
▁གནས་སྐབས་	-8.45807
▁རྒྱན་	-8.45821
▁ལོངས་སྤྱོད་	-8.45883
▁ནུས་	-8.45932
▁རྣམས	-8.45966
▁གྱིས	-8.46091
▁རེག་པ	-8.46195
▁རྒྱལ་བ	-8.46445
▁སྐྱེ་བོ་	-8.46611
▁ཨཱ་	-8.46988
▁ལུང་	-8.47422
▁བུ་མོ་	-8.48084
▁མཁས་པ་	-8.48155
▁སྦྱར་བ	-8.48523
▁བཅས་	-8.48558
▁སམ	-8.48558
▁བཟུང་	-8.4875
▁ཕྱག་རྒྱ	-8.48793
▁ལྷ་མོ་	-8.48814
▁ཐོབ་	-8.48821
▁གཞག་པ་	-8.49013
▁དངོས་པོ	-8.49521
▁ཞུགས་	-8.49542
▁བཙུན་པ་	-8.49607
▁སྒྲུབ་པ་	-8.49657
▁འཇུག་	-8.49786
▁ཛ་	-8.50038
▁འབྲས་བུ	-8.50139
▁མྱེད་པ་	-8.5029
▁སྙིང་རྗེ་	-8.50515
▁སརྦ་	-8.51066
▁སྲོག་	-8.51234
▁སྐྱེད་པ	-8.51526
▁རུང་བ་	-8.51818
▁གནོད་པ་	-8.51833
▁ཙ་	-8.51929
▁དོན་དམ་པ	-8.52009
▁གཟུང་བ	-8.52024
▁དབྱེ་བ་	-8.52024
▁ཟག་པ་	-8.52215
▁གནས	-8.52267
▁མང་	-8.52458
▁ཅུང་ཟད་	-8.52518
▁པདྨ	-8.52695
▁སྤྱན་	-8.52865
▁འགྲུབ་པ	-8.52947
▁བདག་ཅག་	-8.52954
▁གསེར་	-8.52976
▁ཆོས་ཉིད་	-8.53385
▁ཞུགས་པ་	-8.53542
▁ཁྱབ་པ	-8.53855
▁བུམ་པ་	-8.54343
▁དྲི་མ་	-8.54599
▁སྲིད་པ་	-8.54606
▁དྷ་	-8.54727
▁ལགས་	-8.55219
▁བསམས་	-8.55265
▁རྡུལ་	-8.55439
▁རིག་	-8.55531
▁ཤིག་	-8.55751
▁ལྟ་བ	-8.55896
▁ལེའུ་	-8.55927
▁མཆིས་	-8.56003
▁མི	-8.5621
▁ཕྱི་	-8.56264
▁ལག་པ་	-8.56417
▁ཁོ་ན་ཉིད་	-8.56578
▁རྐང་པ་	-8.57049
▁བཅད་པ་	-8.57103
▁ཐེ་ཚོམ་	-8.57273
▁ལགས	-8.57374
▁མྱེད་པ	-8.5742
▁སྣོད་	-8.57428
▁ཚད་མ་	-8.57568
▁ཞུགས་པ	-8.57731
▁ཅེས་པ་	-8.59125
▁ཆ	-8.59235
▁ཐ་དད་པ	-8.59552
▁བཟོད་པ་	-8.59576
▁དྲི་	-8.59599
▁བླངས་	-8.59877
▁ཐ་སྙད་	-8.60132
▁ལེགས་	-8.60196
▁ཞི་བ་	-8.60227
▁མེ	-8.60459
▁བཞུགས་	-8.61149
▁སྨིན་པ	-8.61189
▁སྨན་	-8.61237
▁འོ་ན་	-8.61641
▁ཉིད	-8.6169
▁མཚུངས་པ	-8.61884
▁སྤངས་	-8.62014
▁ལྟ་	-8.62282
▁རྟོགས་	-8.62339
▁གཞག་པ	-8.62764
▁བསྒོམ་པ་	-8.62993
▁ནོར་	-8.63017
▁ངེས་པ	-8.63034
▁མར་	-8.63099
▁འཇམ་དཔལ་	-8.63173
▁རྟགས་	-8.63305
▁སྦྱིན་	-8.63338
▁བདག་པོ་	-8.63346
▁བསམ་པ	-8.63676
▁ལ་མ་	-8.63808
▁ཀཱ་	-8.63833
▁བསྐལ་པ་	-8.63907
▁ད་ལྟར་	-8.63973
▁ཐ་ཚིག་	-8.64131
▁ཕན་	-8.64388
▁ཡ	-8.64521
▁རཱ་	-8.64989
▁བཟང་པོ་	-8.65047
▁མཁས་པ	-8.6534
▁འགྲོ་	-8.65366
▁སྨྲས་པ་	-8.65433
▁འདྲ་བ་	-8.65441
▁མཱ་	-8.65534
▁རྫུ་འཕྲུལ་	-8.65694
▁གསང་བ	-8.66056
▁དད་པ་	-8.66065
▁ཐོས་པ་	-8.66336
▁ཟད་	-8.66531
▁ཁོང་	-8.66539
▁ཁྱེད་	-8.67025
▁ཟེར་	-8.67367
▁མངོན་དུ་	-8.67435
▁སྒྲིབ་པ་	-8.67564
▁ཚངས་པ	-8.67701
▁རྒྱ་	-8.68011
▁མདུན་	-8.68158
▁ཟླ་བ	-8.68192
▁བསླབ་པ	-8.68504
▁ཕྱེད་	-8.69077
▁རིམ་པ	-8.69112
▁ཡང་དག་པ་	-8.69138
▁མཛད་པ་	-8.69252
▁རྒྱ་མཚོ་	-8.69287
▁སྟོང་པ་	-8.69523
▁བསྐྱེད་	-8.69593
▁སླད་	-8.69672
▁གོང་	-8.69715
▁ཉོན་མོངས་པ	-8.70181
▁སྲིད་པ	-8.70366
▁བྲམ་ཟེ་	-8.70384
▁གསོལ་བ་	-8.70853
▁གྲོལ་བ	-8.70942
▁སྐྱེ་	-8.70951
▁མིན	-8.71182
▁སྨྲ་བ	-8.71217
▁སྡིག་པ་	-8.71235
▁འབྲེལ་པ	-8.71253
▁རེ་ཞིག་	-8.71369
▁ཅེ་	-8.71458
▁ཉམས་པ	-8.71529
▁སྐད་ཅིག་	-8.71601
▁མྱོང་བ	-8.71672
▁ལྷག་པར་	-8.71681
▁གསལ་བ་	-8.71807
▁དཀར་པོ་	-8.7195
▁ཉི་ཤུ་	-8.72013
▁ཞེ་སྡང་	-8.72183
▁ལྡོག་པ	-8.72309
▁ཅི་ཞིག་	-8.72327
▁ལག་	-8.72381
▁བློ་གྲོས་	-8.72697
▁འོན་ཀྱང་	-8.72815
▁རུང་བ	-8.72815
▁བཞི་པ་	-8.72923
▁བཞག་	-8.72977
▁བཅུ	-8.73095
▁བྱེ་བ་	-8.73422
▁ཇི་སྲིད་	-8.73522
▁ཕན་ཚུན་	-8.73595
▁ཨུ་	-8.73906
▁ཞབས་	-8.73952
▁ཐག་	-8.74061
▁ཆོས་ཅན་	-8.74098
▁རིགས་པ་	-8.74135
▁འགའ་ཞིག་	-8.74153
▁དགའ་	-8.74162
▁ནམ་	-8.74834
▁གསང་སྔགས་	-8.75102
▁དཔག་	-8.75835
▁ཀུན་རྫོབ་	-8.75845
▁རྟག་པ་	-8.76013
▁འོན་ཏེ་	-8.76078
▁སྡོམ་པ་	-8.762
▁སྨིན་པ་	-8.76256
▁ངོ་བོ	-8.76781
▁ཆེ་	-8.76819
▁སྐད་	-8.77149
▁ཁྱིམ་བདག་	-8.77414
▁གསོལ	-8.77461
▁སྤངས་པ	-8.77499
▁གཟུངས་	-8.77946
▁དབྱེ་བ	-8.78051
▁པཱ་	-8.78117
▁འདས་	-8.78308
▁ཕྲེང་བ་	-8.78442
▁རྟོག་	-8.78682
▁གཏི་མུག་	-8.78816
▁སྙིང་ག	-8.78912
▁འཁོར་བ་	-8.78999
▁མྱུར་	-8.79133
▁གསང་བ་	-8.79201
▁ཐར་པ་	-8.79201
▁ངས་	-8.79452
▁ང་རྒྱལ་	-8.79703
▁ཆགས་པ	-8.79956
▁གྲོང་ཁྱེར་	-8.79965
▁བླ་མ་	-8.80472
▁འཁོར་བ	-8.80658
▁དེ་དེ་	-8.80667
▁ཏ	-8.80775
▁དད་པ	-8.80785
▁གསོལ་པ	-8.81197
▁དབང་པོ	-8.81217
▁བཅིངས་	-8.81424
▁རེ་རེ་	-8.8166
▁གཅིག་པ་	-8.8167
▁གདོན་	-8.81819
▁མཐུན་པ་	-8.81858
▁དཔེ་	-8.82255
▁རྫོགས་པ་	-8.82813
▁སྣ་	-8.83174
▁ཤཱ་རི	-8.83345
▁ཎ་	-8.83415
▁འདྲ	-8.83616
▁དུའོ	-8.83687
▁བཞིན	-8.83717
▁ཏི	-8.83899
▁མདོག་	-8.8405
▁ལེན་པ་	-8.84111
▁སྒྱུ་མ་	-8.84354
▁ནོར་བུ་	-8.84426
▁དུག་	-8.84782
▁གནོད་པ	-8.84874
▁བསྟན་བཅོས་	-8.84894
▁གྱུར	-8.85078
▁གནོད་སྦྱིན་	-8.8559
▁གཙོ་བོ་	-8.85642
▁ཅིག	-8.85868
▁སྙིང་པོ	-8.8592
▁གཞུང་	-8.86044
▁རིན་པོ་ཆེ	-8.86116
▁དབྱངས་	-8.86271
▁དད་	-8.86364
▁ཉེས་བྱས་	-8.86489
▁འདུལ་བ་	-8.8652
▁ཟ་བ	-8.86655
▁བདུད་རྩི་	-8.86977
▁བསྡུས་པ	-8.87416
▁དེ་ལྟ་ན་	-8.87437
▁ཉི་མ	-8.87447
▁ལོག་	-8.87479
▁འབའ་ཞིག་	-8.87541
▁གཡས་	-8.87804
▁ནམ	-8.88267
▁དངོས་	-8.8869
▁སྨོན་ལམ་	-8.88733
▁རེ་	-8.89126
▁རྗེས་	-8.89264
▁རྒྱལ་བ་	-8.89297
▁ལྡོག་པ་	-8.89649
▁བཟོད་པ	-8.901
▁ཥ་	-8.90153
▁སྦྱིན་སྲེག་	-8.90164
▁ལགས་སོ	-8.90186
▁སྐུ	-8.90336
▁རྨི་ལམ་	-8.90401
▁སྤངས་པ་	-8.90401
▁སློབ་མ་	-8.90498
▁དྲན་པ	-8.90585
▁བལྟ་བ	-8.90606
▁ནུས་པ	-8.90714
▁ཁྲག་	-8.9079
▁སྩལ་	-8.90909
▁བརྩམས་	-8.90942
▁འཇིག་པ	-8.91061
▁འདུས་པ་	-8.91115
▁གསུམ་པ	-8.91344
▁བཅུག་	-8.91475
▁ཏཱ་	-8.91595
▁མོད་	-8.91791
▁མཐུ་	-8.92054
▁ཐར་པ	-8.92175
▁ས་པ་	-8.92328
▁གྲུབ་	-8.92824
▁ཏོ་	-8.92957
▁རྙེད་པ་	-8.93478
▁གཟུང་བ་	-8.93668
▁ལྡན	-8.93734
▁མི་རྟག་པ་	-8.93913
▁མི་མཐུན་པ	-8.93946
▁འོང་བ	-8.94036
▁མཁའ་འགྲོ་	-8.94204
▁བས་	-8.94383
▁རྩ་བ	-8.94417
▁ཆུད་པ	-8.94451
▁བྱམས་པ་	-8.94484
▁འོང་བ་	-8.94507
▁སྦྱོར་	-8.94507
▁མུ་	-8.94608
▁ལི་	-8.94889
▁སྟོང་པ	-8.95217
▁གཉིས་པ	-8.95308
▁ནཱ་	-8.95376
▁གང་ཡིན་པ	-8.95603
▁འགལ་བ་	-8.9583
▁སྔོན་པོ་	-8.9591
▁ཆེད་	-8.95955
▁བསྙེན་པ	-8.95955
▁ཕུལ་	-8.95967
▁བྲལ་	-8.96035
▁དང་སེམས་	-8.96047
▁སམ་	-8.96184
▁མཆོད་	-8.96286
▁གཡོན་	-8.96458
▁བཱ་	-8.9655
▁བསྐྱེད་པ་	-8.96688
▁ཨི་	-8.96941
▁ཤར་	-8.97067
▁མཆིས་པ	-8.97079
▁ཐ་མ་	-8.9709
▁ཐོག་མ་	-8.97703
▁སླར་	-8.97761
▁འཇིག་པ་	-8.97785
▁བསྒོམས་	-8.97819
▁སྟོང་ཕྲག་	-8.98017
▁ཕྱིས་	-8.98157
▁བཅུ་གཉིས་	-8.98215
▁སྤྱོད་ཡུལ་	-8.98238
▁གཟིགས་	-8.9825
▁ཆོས་མ་	-8.99046
▁བག་ཆགས་	-8.99447
▁བཞི་པོ་	-8.99494
▁ཉམས་པ་	-8.99553
▁ལེན་	-8.99601
▁གར་	-8.99802
▁བྱེད་པ་པོ་	-9.00205
▁དགུ་	-9.00301
▁དགོངས་	-9.00372
▁འགོག་པ་	-9.00432
▁དགེ་སྦྱོང་	-9.00539
▁མདོ་སྡེ་	-9.00539
▁ཕྱི་མ་	-9.00575
▁བཟླས་	-9.01054
▁ལ་ལ་	-9.01318
▁ཆོས་གོས་	-9.01426
▁མཆོག	-9.01498
▁ལྟུང་བ	-9.01643
▁མཉམ་པ་ཉིད་	-9.01752
▁མཁྱེན་པ	-9.01776
▁སྟན་	-9.01776
▁གཉི་ག་	-9.01836
▁ཕྲག་	-9.01897
▁ཐལ་བ	-9.01981
▁དམྱིགས་	-9.02333
▁ཆུ	-9.02662
▁གདན་	-9.02784
▁བསླབ་པ་	-9.02967
▁ཀྱེ་	-9.03175
▁སྨོས་པ་	-9.03298
▁འབར་བ	-9.03482
▁འཆང་	-9.03679
▁བསྡུས་པ་	-9.03753
▁གཟུགས་བརྙན་	-9.03963
▁ཁྱབ་པ་	-9.04321
▁སྤྲུལ་པ	-9.04321
▁སྤྲིན་	-9.04408
▁ཤ་ར་དྭ་ཏི	-9.04632
▁ཡས་	-9.04893
▁ཡོད	-9.05068
▁གཟུང་	-9.05355
▁ལྟུང་བྱེད་	-9.05782
▁བཞི་པ	-9.0582
▁དགོས་པ་	-9.05832
▁བཟླས་པ	-9.05858
▁གཞོན་ནུ་	-9.05895
▁མདོ	-9.05921
▁རྙེད་	-9.05996
▁ཞག་	-9.06034
▁གོ་རིམས་	-9.06059
▁དམ་	-9.06261
▁ལེན་པ	-9.06286
▁འདུས་བྱས་	-9.06337
▁ཕྱི་མ	-9.06451
▁ལྷག་པ	-9.06704
▁ཕཊ་	-9.06971
▁སེམས་པ་	-9.06997
▁བདེན་པ	-9.07022
▁གསུམ་པོ་	-9.0715
▁ཐུན་མོང་	-9.07201
▁བཤད	-9.07201
▁ཆེ་བ་	-9.07316
▁གཞག་	-9.07341
▁ཐ་དད་	-9.07443
▁རྟག་པ	-9.07533
▁སྡེ་	-9.07584
▁འཆི་བ	-9.07751
▁དབུགས་	-9.07995
▁ཤེ་	-9.0802
▁སྲས་	-9.08059
▁བརྟེན་པ	-9.08072
▁མཉམ་	-9.08175
▁མཆོད་རྟེན་	-9.08459
▁རྣལ་འབྱོར་པ་	-9.08601
▁དུ་མ	-9.08679
▁སྐྱབས་	-9.0873
▁དབྱེ	-9.09759
▁སྦྱར་བ་	-9.09838
▁སླར་ཡང་	-9.09864
▁འདི་ལྟ་སྟེ་	-9.10179
▁སྤྱི་	-9.10258
▁ཆེས་	-9.10442
▁དེ་ལྟ་བས་ན་	-9.10468
▁འདབ་མ་	-9.10521
▁རྣ་བ	-9.10521
▁ཀླུ་	-9.10561
▁བརྟན་པ	-9.10653
▁སཱ་	-9.10904
▁སྤོང་བ	-9.10957
▁གྲོལ་བ་	-9.10984
▁དམར་པོ་	-9.11302
▁འཇིགས་པ	-9.11408
▁སྙེད་	-9.11475
▁ཀུན་དགའ་བོ་	-9.11582
▁སྤོང་བ་	-9.11595
▁འགྲོ	-9.12089
▁རྣལ་འབྱོར་པ	-9.12143
▁གྱུར་ཅིག	-9.12183
▁བླ་མ	-9.12883
▁རྒྱས་པ་	-9.12923
▁མ་ལ་	-9.13086
▁བྱས	-9.13126
▁ཆེ་བ	-9.13221
▁གཤེགས་	-9.13737
▁ཐོགས་པ་	-9.14023
▁སྲིད་	-9.14324
▁རྩེ་མོ་	-9.14352
▁རྒྱུ་མཚན་	-9.14393
▁བཞུགས་པ	-9.14489
▁སྤྱད་པ	-9.14544
▁མཉམ་པ་	-9.14819
▁མང་པོ	-9.14832
▁ཉེ་བ	-9.14846
▁སྐྱེ	-9.14984
▁བསྐུར་	-9.15039
▁ཚངས་པ་	-9.15081
▁ཉོན་མོངས་	-9.15219
▁ཤི་	-9.15634
▁གཅིག་པ	-9.15745
▁བསྒྲུབ་པ་	-9.15815
▁འདུག་པ་	-9.15912
▁ལྷུང་བཟེད་	-9.16289
▁བ་	-9.16359
▁ཁྲི་	-9.16555
▁བསྐུར་བ	-9.16611
▁ག་ལ་	-9.17032
▁གྲགས་པ་	-9.17088
▁དྲུང་	-9.17102
▁སྨོན་པ་	-9.17611
▁དགོངས་པ་	-9.17696
▁བསྡུས་	-9.17894
▁རང་ཉིད་	-9.17965
▁ཁྲོ་བོ་	-9.18036
▁ཀུ་	-9.18335
▁མཚན་མ	-9.18507
▁བྲི་བ	-9.18549
▁ལྔ་པ་	-9.18635
▁བརྒྱན་པ	-9.18664
▁ཆོ་ག	-9.18764
▁བགྱི་	-9.18764
▁འདུལ་བ	-9.18764
▁བརྒྱད་པ་	-9.19008
▁བསྡུ་བ	-9.19008
▁ཡོ་བྱད་	-9.19036
▁སྤྲུལ་པ་	-9.19627
▁རྙེད་པ	-9.19656
▁བག་	-9.1996
▁ཞེན་པ་	-9.20105
▁མྱོང་བ་	-9.20221
▁ཆད་པ	-9.20308
▁དམ	-9.20439
▁ཆགས་	-9.20483
▁བརྟག་པ	-9.20512
▁མཚུངས་པ་	-9.20541
▁འདྲ་	-9.20804
▁བཏང་	-9.21082
▁གདོང་	-9.21111
▁འཁྲུལ་པ་	-9.21185
▁ཐིག་ལེ་	-9.21199
▁ཡཱ་	-9.21214
▁བརྟགས་པ	-9.21229
▁ཉེས་པ	-9.21478
▁འདྲེས་པ་	-9.21478
▁རློམ་སེམས་	-9.21626
▁སྐད་ཅིག་མ་	-9.21891
▁འཕེལ་བ	-9.22084
▁བྱིས་པ་	-9.22321
▁ས་པ	-9.22722
▁མགོ་	-9.22752
▁བརྗོད	-9.22886
▁དཔག་པ་	-9.22916
▁བཟློག་པ	-9.2314
▁ཇི་ལྟ་བུ་	-9.2326
▁རྒྱས་	-9.2347
▁དབྱིབས་	-9.23545
▁བདེ་	-9.23635
▁སྣ	-9.2365
▁གྲོང་	-9.23786
▁གཏམ་	-9.23801
▁དབེན་པ	-9.23936
▁སྤོས་	-9.24012
▁ཀ	-9.24102
▁འདུས་པ	-9.24375
▁ཕན་པ	-9.24481
▁ཡི་གེ	-9.2483
▁སོགས་པ་	-9.24845
▁ཚོགས་པ	-9.24921
▁པ་	-9.24937
▁ཅི་སྟེ་	-9.25013
▁ཉིན་	-9.25028
▁གིས	-9.25059
▁བཟླས་པ་	-9.25196
▁ཅིར་	-9.25303
▁རིག་བྱེད་	-9.25517
▁རྒྱལ་མཚན་	-9.25624
▁ནག་པོ་	-9.25763
▁ནུབ་	-9.25809
▁རྩེ་	-9.25839
▁རྒྱ་གར་	-9.25932
▁རིམ་གྱིས་	-9.25947
▁ཕན་པ་	-9.26178
▁གཙུག་ལག་ཁང་	-9.26194
▁སྐལ་བ་	-9.26209
▁ཐོས་པ	-9.2641
▁བརྟགས་	-9.26549
▁བརྒྱ་བྱིན་	-9.26766
▁བལྟས་	-9.26828
▁བྱང་	-9.26968
▁ཀླུང་	-9.27061
▁གཟུགས་ཅན་	-9.27061
▁སཾ་	-9.27108
▁ཨེ་	-9.27186
▁འགོག་པ	-9.27217
▁ཕཊ	-9.27404
▁དམྱལ་བ་	-9.2756
▁དཔའ་བོ་	-9.27638
▁ཐཱ་	-9.27685
▁འགལ་བ	-9.28298
▁འབར་བ་	-9.28345
▁དེ་བ	-9.28708
▁ཧི་	-9.2874
▁དྲང་སྲོང་	-9.2893
▁མོས་པ་	-9.29041
▁གཉེན་པོ་	-9.29136
▁གཏན་	-9.29232
▁སྤྱད་པ་	-9.29248
▁སོགས་པ	-9.29343
▁བགྱི་བ་	-9.29359
▁མི་འགྱུར་བ	-9.29391
▁འོ་མ་	-9.29439
▁ལྔ་པོ་	-9.29455
▁བགྱིད་	-9.29662
▁ཁང་	-9.2987
▁ཁུ་ཚུར་	-9.30174
▁བགེགས་	-9.30174
▁ན་མ་	-9.30206
▁ལྟོས་	-9.30238
▁མཁྱེན་	-9.30319
▁རྣ་བ་	-9.30431
▁བལྟ	-9.30528
▁ཆང་	-9.30544
▁བཟང་པོ	-9.30899
▁འཇིགས་	-9.30948
▁འཆད་པ	-9.3098
▁ལྷ་མ་	-9.31126
▁ཁུ་བ་	-9.31174
▁བཅུ་དྲུག་	-9.31483
▁ཞི་	-9.31548
▁སྲོག་ཆགས་	-9.31809
▁བརྟུལ་ཞུགས་	-9.31874
▁ཕྱུང་	-9.31923
▁ཊ་	-9.31939
▁མཛེས་པ	-9.31988
▁དུས་གསུམ་	-9.32005
▁གཙོ་བོ	-9.32234
▁མཆིས་པ་	-9.32332
▁རལ་གྲི་	-9.32414
▁དཀའ་བ་	-9.32529
▁སྙིང་	-9.32743
▁གླིང་	-9.32875
▁རིང་	-9.33056
▁ཟིལ་	-9.33205
▁མཛོད་	-9.33288
▁ཆུད་	-9.33437
▁ཆུང་	-9.33603
▁གཅོད་པ	-9.33969
▁འཐོབ་པ	-9.34069
▁མི་འགྱུར་བ་	-9.34186
▁རིས་	-9.3422
▁ཚལ་	-9.34236
▁བཅད་	-9.3432
▁བསྒྱུར་	-9.34471
▁འོངས་	-9.34471
▁བརྩོན་པ	-9.34504
▁ཐལ་མོ་	-9.34538
▁དེ་ཕྱིར་	-9.34958
▁བཟང་	-9.35008
▁སྤྱད་	-9.35126
▁བརྟེན་པ་	-9.3538
▁དཔེ	-9.3543
▁ལྕེ་	-9.35583
▁འདའ་བ	-9.35718
▁གཞན་མ་	-9.35735
▁ལྕེ	-9.35871
▁ང	-9.35939
▁སོང་བ་	-9.36075
▁བསྒོམས་པ	-9.36092
▁ཁོ་བོ་	-9.36109
▁འཇིག་རྟེན་པ	-9.3616
▁དཀོན་མཆོག་	-9.36246
▁ཐུབ་པ་	-9.36365
▁བཏབ་	-9.36485
▁བསྲུང་བ	-9.36604
▁བསྒོམ་	-9.36862
▁གཡོན་པ	-9.36965
▁དགོས་	-9.37102
▁འདུག་པ	-9.37154
▁མི་དགེ་བ	-9.3724
▁ཟད་པ་	-9.37516
▁ཏྲ་	-9.37602
▁ལྟོས་པ་	-9.37654
▁བསྐོར་བ་	-9.37671
▁བ་ལང་	-9.37723
▁གྲགས་པ	-9.37862
▁ཟུང་	-9.37914
▁བྲིས་	-9.3807
▁ཁྱད་པར་ཅན་	-9.38314
▁གོམས་པ	-9.38418
▁དུར་ཁྲོད་	-9.3847
▁སྲེད་པ་	-9.3868
▁ཟད་པར་	-9.3875
▁བསྐུར་བ་	-9.38785
▁བསྐོར་བ	-9.38872
▁ཁྲུས་	-9.3889
▁བདག་པོ	-9.39118
▁བརྟགས་པ་	-9.39206
▁བསྐོར་	-9.39311
▁དགོད་པ	-9.39434
▁སྐྲ་	-9.3947
▁ཀཽ་ཤི་ཀ་	-9.39575
▁བཏགས་པ་	-9.39664
▁ཁྲོ་བོ	-9.39681
▁མཐའ་དག་	-9.39716
▁བརླབས་	-9.39946
▁གསུངས	-9.4007
▁རྒྱུ་བ་	-9.40106
▁ངོ་མཚར་	-9.40159
▁སྐྱེད་	-9.40212
▁ངན་སོང་	-9.4023
▁མཛད	-9.40265
▁སྦྲུལ་	-9.40496
▁གཡས་པ	-9.40514
▁ན་བ་	-9.40746
▁དོན་དམ་པ་	-9.40782
▁རིགས་པ	-9.40853
▁ཚུལ་བཞིན་	-9.40978
▁གཏོགས་པ	-9.41014
▁བློ	-9.41014
▁དཱ་	-9.41319
▁པུ་	-9.41408
▁ཞེན་པ	-9.41516
▁ཟབ་མོ་	-9.4166
▁དཀར་པོ	-9.41678
▁སི་	-9.4184
▁བཏང་སྙོམས་	-9.41858
▁བླངས་པ་	-9.42039
▁པི་	-9.42093
▁བསྟན	-9.42165
▁དཀ	-9.42365
▁དྲིལ་བུ་	-9.42401
▁ན་རེ་	-9.42437
▁ངན་	-9.42528
▁སྭ་	-9.42546
▁གོ་བ	-9.42637
▁ཚད་མ	-9.42673
▁སེར་པོ་	-9.42673
▁ལས་མི་	-9.42928
▁རས་	-9.43038
▁མ་ལུས་པ	-9.43202
▁གནང་	-9.43294
▁དྷི་	-9.43294
▁བཅས	-9.43679
▁ཇི་ཙམ་	-9.43844
▁མན་ངག་	-9.43918
▁ལས་མ་	-9.43936
▁མས་	-9.43992
▁བསལ་བ	-9.44195
▁ཅི་ཡང་	-9.44287
▁ཤཱཀྱ་	-9.44287
▁ལྷག་མ	-9.44342
▁གཤིན་རྗེ་	-9.4475
▁ཁྱེའུ་	-9.44955
▁སེལ་བ	-9.45048
▁མུ་སྟེགས་	-9.45122
▁བྲམ་ཟེ	-9.4516
▁དཔག་ཚད་	-9.4529
▁བཀོད་པ་	-9.45346
▁བླང་བ	-9.45346
▁སྡུག་བསྔལ་བ་	-9.45608
▁གཏོར་མ་	-9.45627
▁བརྟན་པ་	-9.45683
▁བད་ཀན་	-9.45758
▁ཀླུ	-9.45795
▁ཟ་བ་	-9.45833
▁གསལ་	-9.45983
▁སེམས	-9.46115
▁འགྲེལ་པ་	-9.46171
▁ཨཱཿ	-9.46398
▁སྤྱི	-9.46719
▁མོས་པ	-9.46776
▁ཆུང་ངུ་	-9.46833
▁འབྲས་	-9.46871
▁མ་རིག་པ་	-9.46985
▁ཕ་	-9.4708
▁འདོད	-9.47137
▁གང་ཡིན་	-9.47289
▁ཇི་ལྟ་	-9.47327
▁མཁན་པོ་	-9.47613
▁ཚོར་བ	-9.4792
▁བཅད་པ	-9.47977
▁འདུས་མ་བྱས་	-9.47977
▁ལ་ལ	-9.48054
▁གཉིས་ཀ་	-9.48073
▁ཡུམ་	-9.48227
▁བཟངས་	-9.48284
▁བསྡུ་བ་	-9.48284
▁བགྱིས་	-9.48458
▁རྩོད་པ་	-9.48458
▁ནི་ལ	-9.48477
▁རི	-9.48535
▁གཅིག་པུ་	-9.48554
▁ཕུང་པོ	-9.48593
▁བརྒྱ	-9.48631
▁འཆི་བ་	-9.48631
▁ལོགས་	-9.48651
▁ཡེ་	-9.48825
▁ཕྲ་རབ་	-9.48902
▁ལངས་	-9.48941
▁ཤུགས་	-9.48999
▁འཇོམས་པ	-9.49057
▁སྨྲ་	-9.49076
▁དི་	-9.49329
▁ངེས་	-9.49368
▁ཕན་ཡོན་	-9.49368
▁གཡས་པ་	-9.49523
▁ཟིན་པ	-9.49562
▁ཨོྃ་	-9.49582
▁མ་གཏོགས་པ	-9.49796
▁མེ་ལོང་	-9.49796
▁ཤས་	-9.49875
▁ཡི་དགས་	-9.50051
▁གཞུག་པ	-9.50168
▁ཆད་པ་	-9.50305
▁ཇི་སྙེད་	-9.50325
▁ཡིན་ཡང་	-9.50345
▁བུས་	-9.50443
▁རང་རང་	-9.506
▁རྒྱ་མཚོ	-9.506
▁གཞན་པ་	-9.50699
▁ཏུ	-9.51015
▁སྤྲོས་པ་	-9.51074
▁ཎི་	-9.51252
▁གཡོ་	-9.51272
▁གཡོན་པ་	-9.51371
▁ལྟེ་བ	-9.5161
▁དྷཱ་	-9.51669
▁བོས་	-9.51888
▁ཆུང་མ་	-9.51948
▁བཏགས་པ	-9.52048
▁བརྒྱད་པ	-9.52188
▁འགག་པ་	-9.52188
▁སྐྱེས་བུ	-9.52248
▁སྨོས་པ	-9.52428
▁རེག་	-9.52468
▁སྣ་ཚོགས་པ	-9.52629
▁ཐོད་པ་	-9.52649
▁མི་དགེ་བ་	-9.5277
▁ཟེར་བ་	-9.5279
▁གཟི་བརྗིད་	-9.53113
▁གང་བ	-9.53193
▁རྟ་	-9.53274
▁བཟུང་བ་	-9.53355
▁མྱིག་	-9.53517
▁སེང་གེ	-9.53842
▁བསྙེན་བཀུར་	-9.53944
▁བཤེས་གཉེན་	-9.54025
▁དགོངས་པ	-9.54086
▁གནས་བརྟན་	-9.54127
▁གཞི	-9.54168
▁དགྲ་	-9.547
▁བཟའ་བ་	-9.55235
▁སྤྱི་བོ	-9.55379
▁ལྟར	-9.55462
▁བསྒྲུབས་	-9.55482
▁གཉེན་པོ	-9.55627
▁དེ་སྲིད་	-9.5571
▁གཏོང་བ	-9.56021
▁བྱིན་པ	-9.56229
▁དབེན་པ་	-9.5625
▁བདག་མེད་	-9.56396
▁འཕེལ་བ་	-9.56542
▁ངམ	-9.56584
▁བཟླས་བརྗོད་	-9.56605
▁དཔལ་ལྡན་	-9.56647
▁སྡིག་པ	-9.56647
▁བརྡ་	-9.5671
▁གནོད་	-9.56814
▁མ་འོངས་པ་	-9.56877
▁གུས་པ	-9.56919
▁འོད་སྲུང་	-9.5694
▁བྷི་	-9.57024
▁གཏོགས་པ་	-9.57108
▁དྲུག་པ་	-9.57318
▁གཏོང་བ་	-9.57361
▁གཞན་པ	-9.5755
▁བཟློག་པ་	-9.57677
▁དོགས་པ་	-9.57719
▁བླངས་པ	-9.58016
▁བདེན་	-9.58101
▁བསྒྱུར་བ	-9.58356
▁ཐ་མ	-9.58419
▁གཏོང་	-9.5859
▁མི་རིགས་	-9.5921
▁དཔག་པ	-9.59296
▁མཐུན་	-9.59318
▁ཀི་	-9.59468
▁ནན་ཏན་	-9.59511
▁ཐོགས་	-9.59554
▁འབྲིང་	-9.59554
▁གམ་	-9.59727
▁མཉེས་པ	-9.59943
▁དུ་བ་	-9.60116
▁མཚོན་	-9.60159
▁ཕྲེང་བ	-9.60202
▁སུན་	-9.60463
▁ཡུལ་ཅན་	-9.60571
▁བར་ཆད་	-9.6068
▁གསོ་སྦྱོང་	-9.60855
▁ཐུགས་རྗེ་	-9.60898
▁ཐུབ་པ	-9.6127
▁གཡོ་བ་	-9.6138
▁ལན་ཅིག་	-9.61599
▁འབྱིན་པ	-9.61731
▁ཤོག	-9.61996
▁བཏགས་	-9.62018
▁ལྟོས་པ	-9.62128
▁རྒྱུ་ལ	-9.62305
▁རྒྱལ་	-9.62371
▁སེང་གེ་	-9.62371
▁བལྟ་	-9.62527
▁དགག་པ	-9.62549
▁བསམས་པ	-9.6266
▁བྱམས་པ	-9.62704
▁ངན་པ་	-9.62815
▁ཕྱེ་	-9.62971
▁གདུགས་	-9.63038
▁མགོན་པོ་	-9.63038
▁ལྕགས་ཀྱུ་	-9.63127
▁མཐུ	-9.63216
▁བསོད་སྙོམས་	-9.63239
▁བྱེ་མ་	-9.63239
▁གླེང་	-9.63328
▁བདག་མེད་པ་	-9.63328
▁ཤེས	-9.63709
▁སུམ་ཅུ་	-9.63754
▁འབྲེལ་	-9.63821
▁ཏིང་འཛིན་	-9.64024
▁སྐུ་གསུང་ཐུགས་	-9.64091
▁བརྟག་པ་	-9.64137
▁ཕྱི	-9.64385
▁བཞུགས་པ་	-9.6443
▁བཟུང་བ	-9.6443
▁དཀའ་བ	-9.64566
▁གང་དང་གང་	-9.64883
▁དབུལ་བ	-9.64951
▁དྲ་བ་	-9.64997
▁ནཱི་	-9.6502
▁འགྲུབ་	-9.65088
▁སྙིང་རྗེ	-9.65202
▁གྲོགས་	-9.65224
▁ཕྱིར་ཡང་	-9.6527
▁སྡུག་པ་	-9.65453
▁ཅིག་ཅར་	-9.65567
▁རྨོངས་པ་	-9.65658
▁ལྔ་པ	-9.65704
▁མ་འོངས་པ	-9.65819
▁དེ་ཙམ་	-9.65888
▁སེམས་པ	-9.65911
▁ཆད་	-9.65933
▁གདབ་པ	-9.66025
▁གོང་མ་	-9.66186
▁ཕྱེ་བ་	-9.6637
▁གཞོན་ནུ	-9.66486
▁གསོལ་པ་	-9.66671
▁སྙམ་པ་	-9.66717
▁ཕྲིན་ལས་	-9.6674
▁ཟོས་	-9.66763
▁བདག་མེད་པ	-9.66833
▁སྐུ་མདོག་	-9.66879
▁འདུ་	-9.66949
▁ཉེ་བ་	-9.67018
▁ཕྱེ་མ་	-9.67041
▁ཧེ་	-9.67064
▁སེམས་བསྐྱེད་པ་	-9.67134
▁བསྔགས་པ་	-9.67181
▁བྱིན་པ་	-9.67204
▁ལོག་པ་	-9.67204
▁སེམས་བསྐྱེད་	-9.67204
▁རྣམ་ཤེས་	-9.6732
▁ཇི་བཞིན་	-9.676
▁ཅེས་པ	-9.6774
▁མཚན་མོ་	-9.67857
▁བེ་	-9.6788
▁དྲན་	-9.67904
▁ནགས་	-9.67904
▁རྒྱབ་	-9.67997
▁སྒྱུར་བ	-9.68021
▁ལཱ་	-9.6842
▁འབྱེད་པ	-9.68514
▁རྩེ་མོ	-9.68703
▁མངལ་	-9.68797
▁ཞི་གནས་	-9.68821
▁སྒྱུ་མ	-9.68986
▁བདུད་རྩི	-9.69057
▁གླུ་	-9.69199
▁ལ་ཉེ་	-9.69318
▁འཚོ་བ	-9.69342
▁སྱ་	-9.69627
▁མཚུངས་	-9.69722
▁གོ་ཆ་	-9.69746
▁སྤྱོད	-9.69913
▁མ་ལུས་པ་	-9.69937
▁སློབ་པ་	-9.70081
▁དྲངས་	-9.70152
▁མཐར་ཐུག་པ	-9.70176
▁སྤྱན་རས་	-9.70729
▁ཁ་ཟས་	-9.70873
▁སླ	-9.70994
▁ཐོག་མ	-9.71018
▁འདྲེས་པ	-9.71163
▁སྒོམ་པ་	-9.71187
▁བདུན་པ་	-9.71212
▁མཿ	-9.71333
▁དམྱལ་བ	-9.71357
▁ལགས་པ་	-9.7177
▁བརྫུན་	-9.71794
▁མ་གྲུབ་པ་	-9.71843
▁མུན་པ་	-9.71964
▁འབྲེལ་བ	-9.71964
▁བུམ་པ	-9.72062
▁ནོར་བུ	-9.72135
▁ཤེས་བྱ	-9.72184
▁བུར་	-9.72478
▁བཟའ་བ	-9.72502
▁སྤྲོ་བ་	-9.72576
▁མཛེས་པ་	-9.72674
▁གྱེན་	-9.72797
▁སྐྱེ་བོ	-9.7292
▁ཐིག་	-9.72944
▁བཀོད་	-9.72969
▁ཆུས་	-9.72994
▁འདུན་པ་	-9.73043
▁འབུམ་	-9.73043
▁ཟིན་པ་	-9.73117
▁ལ་མོ	-9.73339
▁ཙི་	-9.73364
▁མཛུབ་མོ་	-9.73413
▁མཇུག་	-9.73512
▁དགོས་པ	-9.73562
▁ཁང་པ་	-9.73611
▁བསྟེན་པ	-9.7371
▁མར་མེ་	-9.7381
▁ཡོངས་	-9.73835
▁སྡུད་པ	-9.73859
▁བསྲུང་བ་	-9.74009
▁ཁྲུ་	-9.74183
▁གཅོད་པ་	-9.74258
▁ལུགས་	-9.74358
▁དམྱིགས་པ	-9.74407
▁འཛམ་བུ	-9.74482
▁འཛིན	-9.74582
▁ཤེས་བྱ་	-9.74858
▁བྷཱ་	-9.74933
▁ཀ་ར་	-9.75034
▁རིམས་	-9.7516
▁བསྟོད་པ་	-9.7521
▁སྐྱེ་གནས་	-9.7521
▁ཚོལ་	-9.75235
▁རིང་པོ་	-9.75336
▁འཇིག་རྟེན་པ་	-9.75361
▁གཉི་ག	-9.75387
▁ར་བ་	-9.75437
▁འདོགས་པ	-9.75462
▁དེང་	-9.75563
▁ལྟེ་བ་	-9.75563
▁འཚོ་བ་	-9.75589
▁བདེ་གཤེགས་	-9.75614
▁ཤྭ་	-9.75766
▁མཚོན་པ	-9.75791
▁མཁན་	-9.75867
▁དྲུག་པ	-9.75943
▁བསྒྲུབ་བྱ་	-9.76248
▁ཕམ་པ	-9.76375
▁མངོན་	-9.76503
▁བརྒྱན་པ་	-9.76528
▁ཚ་བ་	-9.76605
▁མི་མཐུན་པ་	-9.76835
▁གི	-9.76886
▁གང་དེ་	-9.77194
▁འབྱིན་པ་	-9.77297
▁ལག་པ	-9.77297
▁འོངས་པ་	-9.77451
▁ལྕགས་	-9.77451
▁རྗོད་པ	-9.77503
▁ཅིའི་སླད་དུ་	-9.77838
▁ག་ལ་བ་	-9.78071
▁གམ	-9.78071
▁ཧཱུཾ	-9.78071
▁འཇོག་པ	-9.78331
▁འཁྲུལ་པ	-9.78356
▁ཉ་	-9.78539
▁འགྲུབ་པ་	-9.78539
▁གཉིད་	-9.78591
▁མཐོ་རིས་	-9.78852
▁བརྒྱ་རྩ་	-9.79061
▁རྒྱུས་	-9.79296
▁འོང་	-9.79323
▁སྦོམ་པོ	-9.79349
▁གིར་	-9.79401
▁མདའ་	-9.79401
▁ཤར་ཕྱོགས་	-9.79428
▁དྲག་པོ་	-9.79454
▁སྤོང་	-9.79638
▁གྷ་	-9.79691
▁ཁྱབ་	-9.79743
▁ཉིན་ཞག་	-9.7977
▁དོང་	-9.79902
▁མཛེས་	-9.8006
▁སྡུག་	-9.80087
▁བྱིངས་	-9.80325
▁ཀྲྀ་	-9.80457
▁སྐྱེད་པ་	-9.80617
▁ཁྲག་ཁྲིག་	-9.80643
▁ནམ་ཡང་	-9.80643
▁མཁའ་	-9.80697
▁གཽ་	-9.80776
▁རྒྱུ་བ	-9.80936
▁རག་	-9.80963
▁སེལ་	-9.80963
▁འབྱེད་པ་	-9.81043
▁ཀུན	-9.81123
▁སེམས་ལས་	-9.81123
▁བཅོམ་ལྡན་	-9.8123
▁བརྒྱན	-9.81605
▁ཞགས་པ་	-9.82036
▁དགག་པ་	-9.82143
▁དམར་པོ	-9.82225
▁རམ	-9.8236
▁ཕོ་བྲང་	-9.82387
▁མནན་	-9.82414
▁ལ་ཉེ	-9.82522
▁བཀྲ་ཤིས་	-9.82549
▁སྔ་མ	-9.82576
▁ཛཱ་	-9.82631
▁གྱུར་ཅིག་	-9.82712
▁ཆུད་པ་	-9.82712
▁ཟད་པ	-9.82821
▁ངམ་	-9.83093
▁བཟོད་	-9.83093
▁ཉལ་	-9.83202
▁རྨོངས་པ	-9.83202
▁དང་བ	-9.83256
▁གྲོལ་	-9.83284
▁སྲང་	-9.8342
▁བསྟོད་	-9.8353
▁འབུམ་ཕྲག་	-9.8353
▁ཧ་ཅང་	-9.83557
▁བམ་པོ་	-9.83584
▁སྦྲང་རྩི་	-9.83584
▁གཉིས་པོ་	-9.83721
▁ཀྱིའོ	-9.83749
▁སོང་བ	-9.83886
▁དང་བ་	-9.83996
▁སྒོམ་པ	-9.84078
▁དང་ལ	-9.84134
▁བསྟེན་	-9.84161
▁ལ་དོན་	-9.84161
▁གཙུག་ཏོར་	-9.84189
▁རཱི་	-9.84189
▁བཀུག་	-9.84299
▁མ་རིག་པ	-9.84299
▁བསྒོམ	-9.84409
▁འཇིག་	-9.84437
▁གདགས་པ	-9.8452
▁བརླབ་པ	-9.8452
▁བོད་སྐད་	-9.8463
▁བསལ་	-9.84741
▁ཁྱེར་	-9.84824
▁མི་སྣང་བ	-9.84852
▁ཁ་ན་མ་ཐོ་བ་	-9.8488
▁དཔེར་ན	-9.84907
▁སྣ་ཚོགས་པ་	-9.84907
▁རེ་རེ	-9.8513
▁མི་རྟག་པ	-9.85297
▁གྲངས་མེད་པ་	-9.85687
▁མཉན་	-9.85827
▁བརྩོན་པ་	-9.85855
▁སློབ་མ	-9.85967
▁ཞུ་བ་	-9.86052
▁སྤྲོ་བ	-9.86108
▁རི་རབ་	-9.86333
▁བྱང་བ	-9.86473
▁གཅིག་ཉིད་	-9.86699
▁མྱོང་	-9.86727
▁ཟ་	-9.86925
▁གྲགས་	-9.86982
▁སྤུ་	-9.87039
▁ལྷ་མོ	-9.87067
▁སྤོབས་པ་	-9.87067
▁ཆོས་སྟོན་	-9.87522
▁འགའ་ཡང་	-9.87579
▁དོན་ཡོད་	-9.87607
▁དམ་བཅ	-9.87721
▁སྒྲུབ་ཐབས་	-9.8775
▁ལེགས་པ་	-9.87864
▁འཁྲུལ་	-9.87893
▁ཡང་ན	-9.8795
▁སྟོང་གསུམ་	-9.88093
▁འཕེལ་	-9.88351
▁བགྱིད་པ་	-9.88409
▁ནག་པོ	-9.88466
▁ཅག་	-9.88581
▁ཐག་པ	-9.88581
▁བརྟན་	-9.88841
▁དྲུག་ཅུ་	-9.88898
▁རླབས་	-9.88898
▁བསྣམས་པ	-9.88985
▁བོར་	-9.89043
▁ཅོད་པན་	-9.89072
▁རྩིབས་	-9.89188
▁དྲི་མེད་	-9.89216
▁འཆི་	-9.89303
▁གུ་	-9.89332
▁འབྱུང་པོ་	-9.8939
▁ངོས་	-9.89681
▁ཡུན་རིང་	-9.8971
▁བཟློག་	-9.89739
▁སུ་ཞིག་	-9.89768
▁གསོལ་བ	-9.89856
▁མྱུ་གུ་	-9.89856
▁ཚིམ་པ	-9.90177
▁ལྷག་མཐོང་	-9.90265
▁གཞུག་	-9.90353
▁མཐའ་ཡས་པ	-9.9047
▁འགལ་	-9.90646
▁རྒྱུ་མ་	-9.90734
▁བཾ་	-9.90852
▁འིའོ	-9.90911
▁ཧེ་རུ་ཀ་	-9.9097
▁ཕྲ་བ་	-9.90999
▁བཅིངས་པ་	-9.91147
▁དཔྱོད་པ་	-9.91236
▁ཞུ་བ	-9.91561
▁ས་གཞི་	-9.91561
▁དུང་	-9.9168
▁ཞོ་	-9.9168
▁བཏབ་པ	-9.92097
▁གཱའི་	-9.92126
▁ཚ་	-9.92156
▁ཕྲ་མོ་	-9.92186
▁བཀུར་སྟི་	-9.92186
▁ཐུག་པ་	-9.92216
▁བསམ	-9.92335
▁མཆིས	-9.92485
▁འབར་	-9.92545
▁རྐང་པ	-9.92695
▁རུ	-9.92725
▁དང་ཁ་	-9.92785
▁སྦྱར	-9.92845
▁ཙནྡན་	-9.92935
▁ཁབ་	-9.93055
▁བར་མ་	-9.93296
▁བསྐུལ་བ	-9.93387
▁དྲིས་	-9.93417
▁ཞུས་པ	-9.93477
▁འབྲུ་	-9.93508
▁དྲུག་པོ་	-9.93629
▁ཚེས་	-9.93659
▁རི་མོ་	-9.93689
▁ཛཿ	-9.9372
▁ལོ་མ་	-9.9378
▁རིང་པོ	-9.94084
▁ཞེས	-9.94145
▁སྙམ་པ	-9.94206
▁ཛི་	-9.94267
▁དམན་པ་	-9.94388
▁འཐད་པ	-9.94388
▁ཀཱི་	-9.9448
▁མ་གྲུབ་པ	-9.94663
▁ཁྱེད་ཅག་	-9.94694
▁མཁྲིས་པ་	-9.94908
▁བསམས་པ་	-9.94939
▁འཕགས་	-9.94939
▁རྐང་	-9.94939
▁སྣུམ་	-9.95031
▁བློན་པོ་	-9.95154
▁ཧྲཱིཿ	-9.954
▁འཐད་	-9.95585
▁ཐོགས་པ	-9.9574
▁བཏབ་པ་	-9.9574
▁འཚལ་བ	-9.95771
▁གསང་	-9.95926
▁ཐུན་	-9.96112
▁ཤྲཱི་	-9.96143
▁བསྒྱུར་བ་	-9.96454
▁སོར་མོ་	-9.96485
▁བཏུང་བ་	-9.96672
▁ལོ་ཙཱ་བ་	-9.97078
▁གདུག་པ་	-9.97235
▁རྩྭ་	-9.97518
▁ཇི་ལྟ་བུ	-9.97613
▁འཆད་	-9.97644
▁འཚང་རྒྱ་བ	-9.97802
▁བྷཱུ་	-9.9796
▁ཟླ་	-9.98118
▁བརླབས་པ	-9.98213
▁ཤིང་རྟ་	-9.98276
▁སྤྲུལ་	-9.98467
▁དགུ	-9.98594
▁ཤེས་བཞིན་	-9.9869
▁ལྷག་པ་	-9.98945
▁དཀའ་ཐུབ་	-9.99041
▁ཅང་	-9.99136
▁དགེ་	-9.99232
▁བདུན་པ	-9.99329
▁སྒྲོ་	-9.99329
▁དྲག་པོ	-9.99489
▁འོས་	-9.9965
▁འབབ་པ	-9.99778
▁ངང་ཚུལ་	-9.99875
▁བཞག་པ་	-9.99875
▁འགག་པ	-9.99875
▁འཕོ་བ་	-10.0004
▁ཅིག་ཤོས་	-10.0013
▁སྡུག་པ	-10.0023
▁ཡིད་བཞིན་	-10.0033
▁རྒྱལ་རིགས་	-10.0046
▁ཀུ་རུ་	-10.0049
▁བསྟོད་པ	-10.0059
▁ཤཱ་	-10.0078
▁སྒོ	-10.0085
▁བསགས་པ་	-10.0094
▁ཁྱིམ་པ་	-10.0104
▁སྤྱན་སྔ	-10.013
▁བཅུ་པོ་	-10.0134
▁གང་བ་	-10.0137
▁སྒྲུབ་	-10.014
▁ཆུང་བ་	-10.015
▁མངའ་བ	-10.0153
▁གོ་འཕང་	-10.0156
▁འབྱུང་གནས་	-10.0156
▁འབྱོར་པ་	-10.0156
▁དཀའ་	-10.0173
▁དངུལ་	-10.0183
▁སྡོམ་པ	-10.0183
▁ཟན་	-10.0186
▁རྨ་	-10.0186
▁བསྒྲུབས་པ	-10.0196
▁བཀོད་པ	-10.0226
▁བྲི	-10.0226
▁ཉོན་	-10.0235
▁འཇོམས་	-10.0239
▁བཀང་	-10.0269
▁འཐུན་པ	-10.0275
▁ཀུན་འབྱུང་	-10.0285
▁མི་རྟག་	-10.0288
▁སྤྱིར་	-10.0288
▁རྒྱལ་སྲིད་	-10.0295
▁རཾ་	-10.0308
▁སྐུར་	-10.0312
▁སྲུང་བ	-10.0332
▁བྱང་བ་	-10.0345
▁ཕལ་ཆེར་	-10.0355
▁མ་ངེས་པ་	-10.0358
▁ཕྱེ་བ	-10.0368
▁ཤ	-10.0379
▁ཆུང་ངུ	-10.0412
▁ནུ་	-10.0412
▁ཆོ་འཕྲུལ་	-10.0449
▁སྩལ་པ་	-10.0453
▁གོམས་པ་	-10.0459
▁གསུམ	-10.0473
▁གྲོགས་པོ་	-10.048
▁མཉན་ཡོད་	-10.048
▁བསྙེན་པ་	-10.0486
▁མཐར་ཐུག་པ་	-10.049
▁ཐར་བ	-10.0493
▁ཕོ་ཉ་	-10.0503
▁ཏཿ	-10.051
▁རྣམ་དག་	-10.0513
▁དབྱུང་བ	-10.0517
▁གཤིན་རྗེ	-10.052
▁ཚོན་	-10.052
▁ཐིག་ལེ	-10.053
▁སྐུར་པ་	-10.0558
▁སུམ་ཅུ་རྩ་གཉིས་	-10.0582
▁སྨད་	-10.0585
▁བཅོམ་	-10.0589
▁ལུས་ཅན་	-10.0592
▁ནེ་	-10.0595
▁སྤྱོད་ལམ་	-10.0606
▁གུད་	-10.0619
▁བཞག་པ	-10.0623
▁ཧ	-10.0637
▁བཞུགས	-10.0643
▁སྒོར་	-10.065
▁ཁོ་བོ	-10.0657
▁མཆོད་སྦྱིན་	-10.0657
▁སྦྱིན	-10.0681
▁རམ་	-10.0688
▁དབྱར་	-10.0706
▁མཛོད	-10.0706
▁མཚོན་ཆ་	-10.0726
▁བརླབས་པ་	-10.073
▁ངན་པ	-10.0733
▁གུས་པ་	-10.0751
▁དཔུང་	-10.0754
▁ནད་པ་	-10.0758
▁སྔོན་པོ	-10.0761
▁བརྒྱན་	-10.0775
▁མི་བསྐྱོད་པ་	-10.0775
▁འབད་པ	-10.0789
▁ཆེ་གེ་མོ་	-10.0792
▁པཱུ་	-10.0799
▁གཉིས	-10.081
▁ཚོལ་བ་	-10.0817
▁སྤྲོས་པ	-10.082
▁ཧཱུྃ	-10.0834
▁ཐུགས་ཀ	-10.0845
▁ཕྲད་པ་	-10.0845
▁རྣམ་རྟོག་	-10.0856
▁ཀུན་གཞི་	-10.0859
▁རྩོལ་བ་	-10.0873
▁ཤི་བ	-10.0873
▁སྒྲིབ་པ	-10.0894
▁འཇོག་	-10.0901
▁དཔག་མེད་	-10.0947
▁འགགས་པ	-10.0947
▁ཉན་པ་	-10.0954
▁ཆ་ཤས་	-10.0958
▁དུ་ཡོད་པ་	-10.0958
▁ཅི་རིགས་པ	-10.0962
▁འཐད་པ་	-10.0969
▁ཕྱོགས་པ	-10.0972
▁གསོ་བ	-10.0994
▁ཡུངས་ཀར་	-10.1004
▁རི་བོང་	-10.1011
▁མན་ཆད་	-10.1022
▁དྲང་བ	-10.1036
▁བཏང་བ	-10.104
▁བརྐྱང་	-10.1047
▁མཆེ་བ་	-10.1047
▁ལོངས་སྤྱོད་པ	-10.1051
▁པགས་པ་	-10.1062
▁ཇི་སྙེད་པ་	-10.1065
▁བརྩམས་པ་	-10.1065
▁བསྒོམས་པ་	-10.1069
▁འཆིང་བ་	-10.1072
▁ལུ་	-10.1076
▁སྨིན་	-10.1076
▁འཐོབ་	-10.1079
▁ལགས་པ	-10.1079
▁འདུ་ཤེས་པ་	-10.1083
▁བསྐལ་པ	-10.1097
▁བསྐུལ་	-10.1112
▁ཐལ་བ་	-10.1119
▁འདེབས་པ	-10.1119
▁སྨད་པ་	-10.113
▁གནང་བ་	-10.1144
▁ཡིད་ཆེས་པ	-10.1155
▁འདྲེན་པ་	-10.117
▁འཚེ་བ་	-10.117
▁དོན་གཞན་	-10.1184
▁འཁོད་	-10.1188
▁རེ	-10.1188
▁ཉེ་	-10.1195
▁ན་མོ་	-10.1195
▁མཉན་པ	-10.1199
▁སྤང་བ་	-10.1235
▁གཟའ་	-10.1239
▁ལྕི་བ་	-10.1243
▁ལྡོག་	-10.1246
▁རཏྣ་	-10.125
▁ལྷོ་ཕྱོགས་	-10.1254
▁ཀྱེ་མ་	-10.1268
▁ཕྲད་པ	-10.1268
▁བཅིང་བ་	-10.1272
▁འོས་པ་	-10.1272
▁མིན་པ	-10.1283
▁སོགས	-10.1283
▁བཱི་	-10.129
▁མ་ནིང་	-10.129
▁མགུ་བ	-10.129
▁སྒྲུབ་པ་པོ་	-10.1301
▁ངང་	-10.1316
▁ཐོབ	-10.1316
▁བགྱིད་པ	-10.132
▁རྩོམ་པ་	-10.132
▁དངོས་གཞི	-10.1345
▁སྲེད་པ	-10.1356
▁ཆུ་བོ་	-10.1375
▁བཙུན་མོ་	-10.1379
▁གློ་བུར་	-10.1382
▁བཏང་བ་	-10.1405
▁རེག་བྱ་	-10.1416
▁འགག	-10.1423
▁མང་བ་	-10.1434
▁འཐོབ་པ་	-10.1434
▁བསགས་པ	-10.1442
▁དོར་བ་	-10.1446
▁ཕྲག་དོག་	-10.146
▁མི་འཆད་པ	-10.146
▁བཅུར་	-10.1464
▁བཅིང་བ	-10.1472
▁སྒྲོན་མ་	-10.1472
▁སྙིང་ག་	-10.1472
▁ཡན་ཆད་	-10.149
▁སྐྱེས	-10.1494
▁ཧཾ་	-10.1498
▁བདག	-10.1509
▁འབད་པ་	-10.1513
▁ཀེ་	-10.152
▁དགྱེས་པ	-10.1528
▁བསྡུ་	-10.1535
▁དཔྱད་	-10.1539
▁བརྩོན་	-10.1554
▁མཽད་གལ་	-10.1554
▁བསལ་བ་	-10.1562
▁གླང་པོ་ཆེ་	-10.1569
▁ཧུ་	-10.1569
▁ཙ	-10.1573
▁མགོ་བོ་	-10.1581
▁འཇིག་ཚོགས་	-10.1581
▁འཚལ་བ་	-10.1592
▁སེར་སྣ་	-10.1592
▁ན་བ	-10.1596
▁བསྒོ་བ་	-10.1603
▁སྟོན	-10.1611
▁བརྡ	-10.1615
▁བ་དན་	-10.1622
▁སྲོག་གཅོད་པ་	-10.163
▁འཁྲུགས་པ་	-10.1634
▁བགྱི་བ	-10.1641
▁དྲི	-10.1645
▁དགེ་ཚུལ་	-10.1664
▁ཇི་སྙམ་	-10.1672
▁གཅད་པ	-10.1683
▁མངའ་	-10.1683
▁འདྲེན་པ	-10.1683
▁ཞུས་	-10.1695
▁ལ་སོ་	-10.1702
▁ཧོཿ	-10.1718
▁བཞིན་པ་	-10.1741
▁གསོ་བ་	-10.1745
▁རྒྱ	-10.1748
▁གཤེད་	-10.1768
▁ཉན་པ	-10.1775
▁ཨུཏྤ་	-10.1783
▁གདགས་པ་	-10.1787
▁ཨ	-10.1798
▁བཅའ་བ་	-10.1802
▁གདམས་ངག་	-10.1806
▁བླང་	-10.1806
▁མི་བསྐྱོད་པ	-10.1818
▁ཞུས་པ་	-10.1829
▁བཀག་པ་	-10.1837
▁བདེ	-10.1841
▁ག	-10.1849
▁བསྲུང་	-10.1849
▁ཚུར་	-10.1857
▁འོད་གསལ་བ	-10.186
▁ཡབ་	-10.1864
▁དབུལ་	-10.1868
▁མཚོན་པ་	-10.1868
▁ཐག་པ་	-10.1876
▁འགྱོད་པ་	-10.1884
▁ཕྲེང་	-10.1895
▁སྤང་	-10.1895
▁ཨ་བ་	-10.1899
▁ཡངས་པ་	-10.1903
▁དབང་ལྡན་	-10.1911
▁བསྒྲུབ་བྱ	-10.1915
▁བྱིས་པ	-10.1915
▁དེ་དེ	-10.1919
▁མཁས་	-10.1923
▁ཚེ་རབས་	-10.1931
▁བཤགས་པ	-10.1935
▁འབྱིན་	-10.1942
▁སློབ་པ	-10.195
▁ཏིལ་མར་	-10.1958
▁དམར་	-10.1958
▁མཐའ་ཡས་པ་	-10.1978
▁གནོན་པ	-10.2005
▁ཟུར་	-10.2009
▁དགོད་པ་	-10.2017
▁འགྲིབ་པ་	-10.2017
▁དུམ་བུ་	-10.2021
▁ཨཱཏྨ་	-10.2021
▁སློབ་	-10.2037
▁གསོད་པ	-10.2053
▁འདུ་བ་	-10.2057
▁ངོ་ཚ་	-10.2065
▁ཉེར་	-10.2065
▁པད་མ་	-10.2069
▁སྦྱོང་བ	-10.2073
▁བསྐྱོད་	-10.2081
▁བརྒྱད་པོ་	-10.21
▁སེམས་བསྐྱེད་པ	-10.2116
▁འཆང་བ་	-10.212
▁སྔ་	-10.2124
▁གསལ་བྱེད་	-10.2128
▁ལམ	-10.2132
▁སྡུད་པ་	-10.2164
▁སྙན་	-10.2172
▁འཇིགས་བྱེད་	-10.2192
▁བཅྭ་	-10.2217
▁བྱང་ཕྱོགས་	-10.2217
▁ཆུང་བ	-10.2229
▁དམན་པ	-10.2229
▁སྦ	-10.2237
▁ཧོ་	-10.2245
▁འཚལ	-10.2257
▁འདོན་པ་	-10.2265
▁སྒྲོལ་མ་	-10.2265
▁ཚིགས་བཅད་	-10.2293
▁འཆད་པ་	-10.2318
▁འབྱེད་	-10.2326
▁ཐོད་པ	-10.2338
▁ཕས་	-10.2342
▁དགེ་བསྙེན་	-10.2358
▁ཕྱག་མཚན་	-10.2363
▁གཏེར་	-10.2375
▁ཁྲོ་བ་	-10.2379
▁དོན	-10.2404
▁གྲགས	-10.2408
▁གྲ་	-10.2424
▁ལྷོ་	-10.2424
▁གཞལ་ཡས་	-10.2428
▁གཞུ་	-10.2428
▁བཀག་པ	-10.2457
▁རྒྱུ་ལ་	-10.2457
▁སྔགས་པ	-10.2457
▁སྐོམ་	-10.2474
▁གནོད་སེམས་	-10.249
▁འདོགས་པ་	-10.2494
▁གན་	-10.2502
▁ལ་མགོ་	-10.2502
▁སྦྱང་བ	-10.2502
▁ཕ་མ་	-10.2515
▁ཏིལ་	-10.2532
▁དོར་བ	-10.2561
▁ཞལ་སྔ་	-10.2561
▁ཤོ་	-10.2561
▁བསྒོ་བ	-10.2586
▁ནི་སྒྲ་	-10.2611
▁བརྟག་	-10.2611
▁གདགས་	-10.2615
▁མི་ཟད་པ	-10.2619
▁ཡཾ་	-10.2619
▁ཨོ་	-10.2619
▁མི་གཡོ་བ	-10.2636
▁ལེ་	-10.2636
▁སྐུ་གསུམ་	-10.2636
▁གདུང་བ་	-10.264
▁འབྲང་བ	-10.264
▁རིང་བ་	-10.2653
▁ཕྲད་	-10.2674
▁བྱུགས་	-10.2674
▁སེལ་བ་	-10.2678
▁འདེབས་པ་	-10.2687
▁དྲིས་པ	-10.2691
▁འཕགས་མ་	-10.2691
▁དགོན་པ་	-10.2703
▁སྦྱངས་པ	-10.2703
▁གཏོར་	-10.2712
▁གནས་མ་	-10.2716
▁གཞལ་	-10.2716
▁ནུབ་པ	-10.2725
▁འགགས་པ་	-10.2729
▁ཟང་ཟིང་	-10.2742
▁ལྡིང་	-10.2742
▁སྟེར་བ	-10.2746
▁འགྲམ་	-10.2754
▁ལང་	-10.2759
▁སྡོམ་	-10.2763
▁སྐྲག་པ	-10.2776
▁དྲོད་	-10.278
▁མྱིང་	-10.2784
▁དྲ་	-10.2805
▁གཅོད་	-10.2814
▁དོར་	-10.2818
▁ཏྲི་	-10.2827
▁སྡེ་ཚན་	-10.284
▁གདུལ་བ	-10.2852
▁བཅོ་བརྒྱད་	-10.2852
▁འཚང་	-10.2857
▁ལྟ་ཅི་	-10.2857
▁བསྔོ་བ	-10.2861
▁གཞུག་པ་	-10.2865
▁སྒྱུར་བ་	-10.2874
▁དོན་མེད་	-10.2878
▁འཁྲུགས་པ	-10.2883
▁ཕྱུང་བ་	-10.2913
▁ཏཱི་	-10.2917
▁རིམ་གྲོ་	-10.2917
▁ཕྲ་མོ	-10.2926
▁མུ་ཏིག་	-10.2926
▁མ་གཏོགས་	-10.293
▁ཨཾ་	-10.2943
▁དགོད་	-10.2956
▁རྨད་	-10.2982
▁རྩོད་པ	-10.2982
▁དྲིས་པ་	-10.2995
▁བསྟེན་པ་	-10.2999
▁བསྔོ་བ་	-10.3021
▁ལ་ཁ་	-10.3021
▁འཇུག	-10.303
▁བརྒྱད་ཅུ་	-10.3039
▁སྡེ	-10.3052
▁རབ་རིབ་	-10.3056
▁བདུག་པ་	-10.3061
▁འགྲེལ་པ	-10.3065
▁བཅིངས་པ	-10.3069
▁འདུ་བ	-10.3074
▁ས་ཕྱོགས་	-10.3074
▁སེ	-10.3074
▁སྟོང་ཉིད་	-10.3083
▁སེམས་ཉིད་	-10.3096
▁ཛྙཱ་ན་	-10.31
▁འགྲུབ	-10.31
▁བུ་ག་	-10.3109
▁ཀོ་	-10.3113
▁གཅིན་	-10.3113
▁སྦྱངས་	-10.3113
▁ཟབ་པ་	-10.3122
▁ཤིག་པ	-10.3135
▁དབེན་	-10.3149
▁བྱུག་པ་	-10.3158
▁ཁུ་བ	-10.3166
▁མ་གཏོགས་པ་	-10.318
▁གླང་པོ་	-10.3189
▁གཏང་བ	-10.3202
▁བསྐོལ་བ	-10.3206
▁ཐུགས་རྗེ	-10.3215
▁འདུ་བྱེད་པ་	-10.3224
▁སྲུངས་	-10.3229
▁ཉན་	-10.3238
▁བབ་	-10.3246
▁ཤུ་	-10.3251
▁ད	-10.3269
▁འདྲི་བ་	-10.3273
▁ཤེལ་	-10.3278
▁སྲུང་བ་	-10.3278
▁མཚན་པ	-10.3282
▁དགོས	-10.3291
▁སྙན་པ	-10.33
▁གནོན་པ་	-10.3305
▁མགྲིན་པ་	-10.3305
▁ཆོས་སྟོན་པ	-10.3314
▁མཐར་གྱིས་	-10.3318
▁ལྷུན་	-10.3327
▁ཀུན་དགའ་	-10.3336
▁བསྲེགས་	-10.3336
▁དབྱི	-10.3345
▁དགུག་པ་	-10.3354
▁བསྒྲུབ་	-10.3359
▁སྤྱི་བོ་	-10.3359
▁འཆང་བ	-10.3368
▁འཕོ་བ	-10.3368
▁འདའ་བ་	-10.3386
▁བབ་པ	-10.339
▁དགའ་བོ་	-10.3408
▁བཏུད་	-10.3408
▁སངས་རྒྱས་པ	-10.3418
▁དཔེ་བྱད་	-10.3422
▁ཁཱ་	-10.3427
▁རིམ་	-10.3427
▁བསྐུལ་བ་	-10.344
▁མོས་	-10.3445
▁འཇམ་པ	-10.3449
▁འཇོམས་པ་	-10.3449
▁གཉེན་	-10.3468
▁དབྱུག་པ་	-10.3472
▁ཐཱ	-10.3486
▁ཉིས་	-10.3504
▁མཆོད་ཡོན་	-10.3504
▁ཁོངས་	-10.3513
▁ཡོ་	-10.3518
▁རྒོལ་བ་	-10.3523
▁ས་འོག་	-10.3527
▁ཨིཊ་	-10.3569
▁བཅུད་	-10.3578
▁བརྩེ་བ	-10.3582
▁སྐྱེད་མོས་ཚལ་	-10.3587
▁འོད་གསལ་བ་	-10.3592
▁རྭ་	-10.3601
▁སྤྲོས་	-10.3601
▁དོན་དམ་	-10.361
▁བྷུ་	-10.361
▁དྷུ་	-10.3619
▁སློང་བ	-10.3629
▁སེར་པོ	-10.3633
▁བསྔགས་	-10.3638
▁ནྱ་	-10.3661
▁ལེ་ལོ་	-10.3661
▁སུམ་	-10.3666
▁སྐུ་གཟུགས་	-10.3666
▁ཏཾ་	-10.367
▁སྒོམ་	-10.367
▁ཧེ་རུ་ཀ	-10.367
▁ན་བཟའ་	-10.3675
▁ཚར་	-10.3684
▁བུ་མོ	-10.3703
▁དྲི་ཟ	-10.3712
▁རྒྱ་ཆེན་པོ་	-10.3712
▁རྒྱུ་སྐར་	-10.3712
▁མགོན་མེད་	-10.3717
▁གདོན་པ	-10.3722
▁བཅུ་པ་	-10.3722
▁འབྲལ་བ	-10.3722
▁གཞག	-10.3727
▁དཱི་	-10.375
▁བགོས་	-10.375
▁བཞེད་	-10.375
▁རེས་འགའ་	-10.3759
▁སྡིག་	-10.3759
▁ནགས་ཚལ་	-10.3764
▁བྷྱཿ	-10.3764
▁གཙོ་	-10.3773
▁རུས་པ་	-10.3778
▁གསུང་བ	-10.3783
▁མཐེ་བོང་	-10.3783
▁ལྗང་གུ་	-10.3788
▁རྩ	-10.3792
▁འོངས་པ	-10.3802
▁སྲིན་པོ་	-10.3802
▁གྲི་གུག་	-10.3806
▁མཆོད	-10.3811
▁རེ་བ་	-10.3816
▁གྲང་	-10.3825
▁གཉེར་བ་	-10.3849
▁ལྕགས་ཀྱུ	-10.3854
▁བཞིན་པ	-10.3859
▁བས	-10.3868
▁དོན་མེད་པ	-10.3873
▁སྣང་ངོ་	-10.3873
▁ཐེག་པ	-10.3878
▁ལྷགས་	-10.3878
▁འཐུངས་	-10.3882
▁མངོན་པ	-10.3887
▁སྨད་པ	-10.3887
▁འབབ་པ་	-10.3892
▁བཅོམ་པ	-10.3897
▁དངོས་མེད་	-10.3901
▁འབྲེལ་བ་	-10.3901
▁ཥྱ་	-10.3906
▁སྐུ་གདུང་	-10.3906
▁ཨཱི་	-10.392
▁ལུང་བསྟན་པ་	-10.3925
▁ལྷོ	-10.394
▁བྱང་ཆུབ་པ	-10.3944
▁མི་སྨྲ་	-10.3944
▁རྨོངས་	-10.3944
▁ཡང་ཡང་	-10.3949
▁གསུང་རབ་	-10.3954
▁འདོན་པ	-10.3959
▁དབབ་པ	-10.3978
▁དཀྱིལ་	-10.4012
▁བླང་བ་	-10.4021
▁ལྡང་བ	-10.4021
▁ཟ	-10.4026
▁ཉལ་བ་	-10.4031
▁གཡེང་བ་	-10.4036
▁སྣམ་བུ་	-10.4041
▁འཚོ་	-10.4045
▁འཇོག་པ་	-10.406
▁སྦྱངས་པ་	-10.406
▁དབུ་	-10.4074
▁ཚོགས	-10.4084
▁ནཾ་	-10.4094
▁བྲན་	-10.4094
▁གནས་མལ་	-10.4104
▁ཟེར་བ	-10.4104
▁བལ་	-10.4108
▁ཁྱབ་འཇུག་	-10.4113
▁ཀ་ལ་	-10.4128
▁རྒྱལ་བྱེད་	-10.4143
▁གདུལ་བྱ་	-10.4147
▁རང་དབང་	-10.4147
▁གཅིག་པུ	-10.4152
▁རི་བོ་	-10.4152
▁གང་ལ་ལ་	-10.4167
▁ཉེས་དམིགས་	-10.4167
▁མིང་ཅན་	-10.4172
▁ས་ལས་	-10.4187
▁སྒྲུབ་པ་པོ	-10.4187
▁དམྱིགས་པ་	-10.4191
▁དེ་སྙེད་	-10.4191
▁བུད་ཤིང་	-10.4191
▁ལི	-10.4221
▁བཙལ་	-10.4231
▁གཙོ	-10.4236
▁བསད་	-10.4236
▁བརླབ་པ་	-10.4241
▁སླུ་བ་	-10.4251
▁དགུ་པ་	-10.4255
▁དྷཱུ་	-10.4255
▁གཉིས་ཀ	-10.426
▁ཉལ་བ	-10.4265
▁མ་ཟད་	-10.4275
▁བླ་དགས་	-10.428
▁གཱ་	-10.4285
▁ཉེ་དུ་	-10.429
▁ཤེས་ལྡན་	-10.429
▁ཏཱཾ	-10.43
▁ཨུཏྤལ་	-10.43
▁རྀ་	-10.4305
▁སྐྲག་	-10.431
▁མང་བ	-10.4325
▁བཅུག་པ་	-10.4345
▁མྲྀ་	-10.4345
▁ཤཱི་	-10.435
▁རྒྱལ་བུ་	-10.4355
▁ལ་བ་	-10.4355
▁ཁྱི་	-10.4365
▁བདེ་ཆེན་	-10.4365
▁ཟབ་	-10.4365
▁ལྐོག་	-10.437
▁ཏམ	-10.438
▁སྒྲུབ་བྱེད་	-10.4385
▁སེ་	-10.439
▁སྤྲོ་	-10.439
▁ཉིན་མཚན་	-10.4405
▁དབུ་མ	-10.4405
▁མཐའ་ཅན་	-10.4405
▁སྐྱོ་བ	-10.4405
▁ཆུ་སྐྱེས་	-10.441
▁དུས་གཞན་	-10.441
▁ནུབ་ཕྱོགས་	-10.441
▁འོད་གསལ་	-10.441
▁སྡིག་ཅན་	-10.444
▁ཚ་བ	-10.4445
▁མྱུར་བ	-10.445
▁དེ་རིང་	-10.4455
▁བྲི་	-10.446
▁སྲེག་པ	-10.446
▁ཁུར་	-10.448
▁ཡོན་	-10.448
▁ཀྲ་	-10.449
▁སྐྱོང་	-10.449
▁སློང་བ་	-10.4495
▁སྡེ་སྣོད་	-10.4516
▁སྟག་	-10.4531
▁དྲ་བ	-10.4541
▁བློ་ལྡན་	-10.4541
▁གཟིགས་པ	-10.4546
▁བསྒོ་	-10.4551
▁ཞགས་པ	-10.4556
▁ཛྭ་	-10.4561
▁འོ་མ	-10.4577
▁གཟུགས	-10.4592
▁གཅིག	-10.4602
▁ཊྭཱཾ་	-10.4602
▁བཏུང་བ	-10.4607
▁བབ་པ་	-10.4612
▁ལུས་པ་	-10.4623
▁ལྟ	-10.4628
▁ལཾ་	-10.4633
▁ཀློག་པ་	-10.4664
▁བ་མ་	-10.4664
▁དྲི་ཟ་	-10.4679
▁མི་ཟད་པ་	-10.4684
▁ཉེ	-10.471
▁ལོངས་	-10.4715
▁དགྲ་བཅོམ་པ	-10.4731
▁ཆོས་སྟོན་པ་	-10.4746
▁འདུལ་	-10.4746
▁སླུ་བ	-10.4746
▁ཀཿ	-10.4757
▁ཏྱ་	-10.4757
▁བྱང་ཆུབ་པ་	-10.4757
▁དབྱེ་	-10.4762
▁བསྔགས་པ	-10.4762
▁ཡུ་	-10.4762
▁བརྩམ་པ	-10.4767
▁སྤངས	-10.4767
▁གློག་	-10.4778
▁བཙལ་བ	-10.4778
▁འོག་མ་	-10.4778
▁སེམས་མ་	-10.4788
▁སྔགས་པ་	-10.4798
▁བརྩེགས་པ་	-10.4814
▁དྲི་བ	-10.4824
▁ལ་སོགས	-10.4824
▁ནཾ	-10.4845
▁ཛ	-10.4845
▁རཿ	-10.4845
▁མགོན་	-10.4856
▁མདོ་སྡེ	-10.4856
▁ཚོང་དཔོན་	-10.4866
▁རྩེ་གཅིག་	-10.4866
▁དུད་འགྲོ་	-10.4872
▁བསྡམས་པ་	-10.4872
▁ལུང་བསྟན་	-10.4877
▁ཏང་	-10.4887
▁དགོད	-10.4893
▁པར་མ་	-10.4893
▁དེ་བ་	-10.4898
▁མཆུ་	-10.4898
▁རོལ་པ	-10.4914
▁གུང་མོ་	-10.4919
▁ཡཿ	-10.4919
▁མ་མ་	-10.4924
▁རིམ་བཞིན་	-10.4924
▁རྒ་ཤི་	-10.4924
▁ཀུན་དགའ་ར་བ་	-10.4935
▁ཐུར་	-10.4945
▁ཏཱ	-10.4951
▁གླང་པོ་ཆེ	-10.4956
▁མི་གཡོ་བ་	-10.4956
▁དབུ་རྒྱན་	-10.4961
▁ཡིད་གཉིས་	-10.4961
▁གཟིགས་པ་	-10.4967
▁འཚོ	-10.4972
▁དཔྱད་པ	-10.4988
▁སརྦྦ་	-10.4988
▁ལོན་པ་	-10.4993
▁བར	-10.5004
▁ཆུབ་པ	-10.5025
▁དགུག་པ	-10.5036
▁སྲིང་མོ་	-10.5036
▁ཀྲོ་	-10.5057
▁བཙུགས་	-10.5063
▁འབྲང་བ་	-10.5073
▁བསྐུས་	-10.5084
▁བྱེད་པ་པོ	-10.5084
▁སྐྱོ་བ་	-10.5084
▁ལྷ་མིན་	-10.5089
▁བླ་མེད་	-10.5095
▁འདྲི་བ	-10.5095
▁གསོད་པ་	-10.51
▁དུད་འགྲོ	-10.51
▁མཚོ་	-10.51
▁རྒྱ་ཆེ་བ་	-10.51
▁པུས་མོ་	-10.5116
▁ཡུད་ཙམ་	-10.5116
▁དོན་ཡོད་པ	-10.5122
▁ཆོག་	-10.5127
▁ཁཾ་	-10.5132
▁བུ་རམ་	-10.5149
▁ཤོག་	-10.5149
▁དགོན་པ	-10.5165
▁དུ་བ	-10.5165
▁གང་ཞེ་ན་	-10.517
▁ཕབ་པ	-10.5197
▁མུན་པ	-10.5203
▁སད་པ	-10.523
▁སྲེད་	-10.5235
▁གླེགས་བམ་	-10.5246
▁སྨོད་པ	-10.5252
▁ཉུང་	-10.529
▁གླང་	-10.5295
▁ལ་དུ	-10.5295
▁ཤི་བ་	-10.5312
▁ཁོར་ཡུག་	-10.5317
▁ཟློག་པ	-10.5317
▁ཏདྱ་	-10.5328
▁དོག་	-10.5328
▁བཙུན་མོ	-10.535
▁མི་འདོད་པ་	-10.5361
▁འཁྲུག་པ་	-10.5372
▁འབེབས་པ	-10.5372
▁བཀག་	-10.5383
▁མདོར་ན་	-10.5383
▁མི་ཕྱེད་པ	-10.5383
▁རི་མོ	-10.5383
▁ཀ་བ་	-10.5389
▁བསྐྱེད	-10.5395
▁བྱེ་	-10.54
▁མགོ་བོ	-10.5406
▁བསྒྲུབས་པ་	-10.5417
▁མཐེ་བོ་	-10.5422
▁ཨཱ་ལི་	-10.5422
▁དཀར་མོ་	-10.5428
▁ལིང་	-10.5428
▁ཞེན་	-10.5433
▁སྐུད་པ་	-10.5444
▁གདོད་	-10.5461
▁སངས་རྒྱས་པ་	-10.5461
▁སྐྱིལ་མོ་ཀྲུང་	-10.5461
▁བསྡུ	-10.5478
▁མི་ལ་	-10.5483
▁ཤཱཀྱའི་	-10.5483
▁གདབ་པ་	-10.55
▁ཏོག་	-10.5551
▁ཕ་རོལ་པོ་	-10.5551
▁བརྩེ་བ་	-10.5551
▁ཙེ་	-10.5551
▁འདི་ལྟར	-10.5551
▁རོལ་མོ་	-10.5562
▁ངན་འགྲོ་	-10.5568
▁སྨིག་རྒྱུ་	-10.5568
▁བདེན་བྲལ་	-10.5573
▁གྲངས་མེད་པ	-10.5584
▁བསྐྱོད་པ	-10.5584
▁ལྷག་	-10.5584
▁སྒྲ་གཅན་	-10.5584
▁སཱུ་	-10.559
▁དོན་མེད་པ་	-10.5601
▁སྡིགས་མཛུབ་	-10.5601
▁འདབ་	-10.5607
▁སྐར་མ་	-10.5618
▁དྲག་	-10.5624
▁ནུས	-10.5624
▁སྟེར་	-10.5624
▁ཁྱུ་མཆོག་	-10.5635
▁ཁྲིམས་	-10.5635
▁མཛེས	-10.5635
▁འདེབས་	-10.5635
▁སྦྱིན་བདག་	-10.5635
▁མདངས་	-10.5641
▁གཙང་མ	-10.5647
▁སྔོན་མ་	-10.5647
▁བསྟོད	-10.5652
▁དགའ་ལྡན་	-10.5658
▁ཕྲ་བ	-10.5658
▁འཕྲལ་	-10.5658
▁ཐ	-10.5669
▁ཡིན་མོད་	-10.5686
▁དྲི་བ་	-10.5715
▁འདུན་པ	-10.5715
▁རྡོ་	-10.5715
▁ཁྱད་	-10.5721
▁རྩལ་	-10.5738
▁རྒྱ་ཆེ་བ	-10.5744
▁ཁ་ཏོན་	-10.5755
▁རྗེ་བཙུན་	-10.5772
▁གསད་པ	-10.5778
▁བཅུ་གཅིག་	-10.579
▁ཐང་	-10.5801
▁པཾ་	-10.5807
▁སྦྱང་བ་	-10.5836
▁ཀུན་འབྱུང་བ་	-10.5842
▁ཡལ་ག་	-10.5847
▁སཏྭ་	-10.5847
▁སྨན་པ་	-10.5847
▁གཙང་	-10.5853
▁བལྟ་བ་	-10.5859
▁སྔགས་འཆང་	-10.5859
▁པདྨོ་	-10.5865
▁ཤི	-10.5871
▁ཅི	-10.5894
▁བསྐོར	-10.5894
▁དམྱིགས	-10.59
▁སྐྱོབ་པ་	-10.59
▁སྙན་པ་	-10.5911
▁རྩོམ་པ	-10.5917
▁བགྱིས་པ་	-10.5935
▁དཔའ་བོ	-10.5946
▁དར་	-10.5946
▁རོལ་	-10.5946
▁གླགས་	-10.5958
▁ཐ་ན་	-10.5958
▁དུ་ཐལ་	-10.5958
▁ཡིད་འོང་	-10.5958
▁ཆུ་ཚོད་	-10.5964
▁ཚུན་ཆད་	-10.5964
▁བཟད་	-10.597
▁རངས་	-10.5976
▁བར་སྣང་	-10.6005
▁བྲལ	-10.6005
▁འཐུང་	-10.6005
▁ཐར་	-10.6023
▁ཕྱོགས་པ་	-10.6028
▁གཙུག་	-10.6034
▁སྒྱུ་འཕྲུལ་	-10.6046
▁ལུང་བསྟན་པ	-10.6052
▁རྗོད་	-10.6076
▁བསིལ་བ	-10.6088
▁ཤི་འཕོས་	-10.6099
▁ལྟོ་འཕྱེ་	-10.6111
▁ལུས་ངག་	-10.6123
▁རྒ་བ་	-10.6129
▁ཁྲོ	-10.6135
▁འདོན་	-10.6141
▁པི་པི་ལིང་	-10.6147
▁བྷཱ་བ་	-10.6153
▁ཙན་དན་	-10.6159
▁ཎཱ་	-10.6165
▁རང་བྱུང་	-10.6165
▁ཀར་	-10.6171
▁གཞན	-10.6171
▁ཐུབ་	-10.6171
▁དཔྱོད་པ	-10.6171
▁ཆུ་སྲིན་	-10.6177
▁ཇི་སྟེ་	-10.6177
▁རིན་	-10.6189
▁རྒྱུ་ཅན་	-10.6189
▁ཁྱིམ་པ	-10.6201
▁ཕུར་བུ་	-10.6207
▁མགྲོན་	-10.6207
▁ཕུག་	-10.6213
▁འཐོབ	-10.6213
▁ལྟུང་	-10.6213
▁སྒྲོགས་	-10.6213
▁དཔྲལ་བ	-10.6219
▁གཏོར་མ	-10.6225
▁འཆིང་བ	-10.6231
▁མ་མོ་	-10.6237
▁གཞལ་མེད་	-10.6243
▁དོགས་པ	-10.6243
▁བྱོན་	-10.6243
▁བླུགས་	-10.6249
▁མངའ་བ་	-10.6249
▁ཕུལ་བ་	-10.6255
▁ལྡང་བ་	-10.6255
▁རལ་གྲི	-10.6261
▁དེད་དཔོན་	-10.6267
▁དྲྀ་	-10.6267
▁འགའ་	-10.6267
▁མཐིལ་	-10.6279
▁ར་བ	-10.6297
▁ཁྱབ	-10.6316
▁མདོར་བསྡུས་	-10.6316
▁མྱེད	-10.6316
▁འཁྱུད་པ	-10.6316
▁ཐིམ་པ	-10.6322
▁ཕག་	-10.6322
▁གདུང་བ	-10.6334
▁ཆ་བྱད་	-10.6334
▁ལྡང་	-10.6334
▁ཕྲག་པ་	-10.6346
▁ལྷ་རྫས་	-10.6346
▁གསོ་	-10.6352
▁མཐེའུ་ཆུང་	-10.637
▁གསན་	-10.6383
▁བསྐོལ་	-10.6395
▁བདུན་པོ་	-10.6419
▁འཁྲུགས་	-10.6419
▁ཟློས་	-10.6425
▁འདོགས་	-10.6432
▁གཏང་	-10.6444
▁མཐོ་	-10.645
▁བཀྲུས་	-10.6456
▁མནན་པ	-10.6462
▁ཙུ་	-10.6462
▁ཕབ་	-10.6468
▁མངོན་པ་	-10.6475
▁གཏད་	-10.6481
▁མཐར་བྱེད་	-10.6481
▁བཞེས་	-10.6487
▁ལོངས་སྤྱོད་པ་	-10.6487
▁བ་ར་	-10.6512
▁འོས་པ	-10.6512
▁མཚུངས	-10.6518
▁ཡུལ་འཁོར་	-10.6518
▁ནཱཾ	-10.6524
▁ཨ་ནུ་	-10.6524
▁མྱུར་བ་	-10.653
▁རལ་པ་	-10.653
▁བླུད་	-10.6543
▁གཡོ་བ	-10.6549
▁ཟོས་པ་	-10.6549
▁གཞོལ་བ	-10.6555
▁སེན་མོ་	-10.6567
▁རིགས་ཅན་	-10.6574
▁ཏྭ་	-10.658
▁ཀུན་བརྟགས་པ	-10.6592
▁བཅོམ་པ་	-10.6592
▁བདེ་མཆོག་	-10.6592
▁དེས་ན	-10.6605
▁མམ	-10.6605
▁མིག་སྨན་	-10.6611
▁ས་བཅུ་	-10.6624
▁མཐོ་བ་	-10.663
▁ཕུར་བུ	-10.6642
▁ལན་ཚྭ་	-10.6649
▁ཚབས་	-10.6655
▁ངལ་	-10.6661
▁འཁྲུག་པ	-10.6674
▁དུའང་	-10.668
▁འབྱོར་པ	-10.6686
▁སྦོམ་	-10.6686
▁བྲ་	-10.6705
▁བགྱིད	-10.6712
▁ཞུ་	-10.6718
▁ལྷས་	-10.6731
▁ཆོས་བཞིན་	-10.6737
▁བགྲོད་པ	-10.6743
▁སྐད་ཅིག་མ	-10.6743
▁སྲུང་	-10.6743
▁གཉེར་བ	-10.675
▁རིང་བ	-10.675
▁སྐྱོན་མེད་	-10.6769
▁ཁང་པ	-10.6775
▁ཁྲི	-10.6775
▁ཨེ་མ	-10.6788
▁འགག་	-10.6794
▁ལྷུང་	-10.6807
▁ཞེའོ	-10.682
▁མ་ངེས་པ	-10.6826
▁དགའ	-10.6839
▁དྷརྨ་	-10.6839
▁བཅུ་པ	-10.6839
▁མགྲིན་པ	-10.6845
▁ཐོ་བ་	-10.6852
▁ཤ་སྟག་	-10.6877
▁འད	-10.6884
▁གཡུལ་	-10.6903
▁ཉིང་མཚམས་	-10.6909
▁དམ་ཆོས་	-10.6909
▁ཕྱོགས་མཚམས་	-10.6909
▁སྒྲོགས་པ	-10.6909
▁འཁོད་པ་	-10.6916
▁ཅིས་	-10.6929
▁མྱོས་པ	-10.6942
▁འདོར་བ	-10.6948
▁ཨ་པ་	-10.6948
▁དགུ་པ	-10.6961
▁འཆར་ཀ་	-10.6961
▁སིལ་སྙན་	-10.6974
▁ཟོས་པ	-10.698
▁སྐྱིལ་ཀྲུང་	-10.698
▁བརྒྱུད་པ	-10.6987
▁བརྒྱ་པ་	-10.7
▁འདོར་	-10.7013
▁འབད་	-10.7019
▁མི་རིགས་པ	-10.7026
▁ཀུན་མཁྱེན་	-10.7032
▁དབུས་མ་	-10.7032
▁གྲངས་མེད་	-10.7039
▁བྱོས་	-10.7045
▁སཏྭཱ་	-10.7045
▁དྲང་	-10.7052
▁རང་རིག་པ་	-10.7052
▁ཐམས་ཅད་པ	-10.7065
▁འདས	-10.7085
▁ཅིའི་	-10.7104
▁དེ་སྟེ་	-10.7111
▁ཟངས་	-10.7111
▁དབུལ་བ་	-10.7124
▁ཆ་ལུགས་	-10.7131
▁པད་མ	-10.7137
▁འདུ་ཤེས་པ	-10.7144
▁མི་མཉམ་པ་	-10.715
▁ལོང་	-10.7157
▁དབྱུང་བ་	-10.7164
▁མིན་པ་	-10.7183
▁གྱིའོ	-10.719
▁བསྐྱོད་པ་	-10.7197
▁བྷ་བ་	-10.7197
▁གཞུག	-10.7203
▁ཆོས	-10.7203
▁ནཿ	-10.7203
▁བྱ་རོག་	-10.7223
▁དམན་	-10.7243
▁དྲིལ་བུ	-10.7243
▁བདུན་ཅུ་	-10.7243
▁འབྲང་	-10.7243
▁སྲིན་བུ་	-10.7243
▁ཁྲོ་བ	-10.7257
▁ནུ་མ་	-10.7257
▁ཕྱུང་བ	-10.7257
▁འཐོབ་བོ	-10.7263
▁ཤ་ཟ་	-10.7263
▁བྱཱ་	-10.727
▁ཨཱརྱ་	-10.727
▁ཟབ་མོ	-10.7283
▁ཀཾ་	-10.729
▁དགྱེས་	-10.729
▁ཧི	-10.729
▁རྙོག་པ་	-10.7323
▁མ་ཚང་བ་	-10.733
▁ཁྲོ་	-10.7344
▁གཤེགས	-10.7357
▁གྲྭ་	-10.7357
▁དབྱུང་	-10.7357
▁ལུག་	-10.7364
▁བགྱིས་པ	-10.7377
▁བནྡྷ་	-10.7384
▁དབང་བ་	-10.7391
▁མིང་ཙམ་	-10.7391
▁འཕྲོག་པ	-10.7391
▁ལྗོན་པ་	-10.7398
▁འདུད	-10.7404
▁གནག་	-10.7411
▁ཕོ་	-10.7418
▁བཤང་བ་	-10.7418
▁གཉུག་	-10.7425
▁དཀར་བ་	-10.7425
▁འདི་ཙམ་	-10.7425
▁དབུ་མ་	-10.7431
▁ཡང་བ་	-10.7438
▁སྐྱེ་དགུ་	-10.7438
▁དགག་དབྱེ་	-10.7452
▁མཐའ་མ་	-10.7465
▁མཉེས་	-10.7472
▁བག་མེད་པ	-10.7479
▁བཟའ་	-10.7486
▁རང་རིག་པ	-10.7486
▁རོལ་མོ	-10.7486
▁ནཱ་མ་	-10.7493
▁ཕྱུགས་	-10.7493
▁བར་མི་	-10.7499
▁གྲུ་	-10.7513
▁རོལ་པ་	-10.7513
▁ཞིག་པ	-10.7527
▁འདམ་	-10.7527
▁འཕོ་	-10.7527
▁རྣོན་པོ་	-10.7527
▁མཚན་མོ	-10.7534
▁འབབ་	-10.7534
▁ཁྲོས་པ	-10.7541
▁གུས་	-10.7541
▁མི་གཙང་བ་	-10.7541
▁གདུལ་བྱ	-10.7547
▁ཞིག་པ་	-10.7547
▁གཙང་མ་	-10.7561
▁མ་བྱུང་བ་	-10.7568
▁སྨོས	-10.7568
▁རུས་པ	-10.7575
▁ཕུལ་བ	-10.7589
▁ཨ་ལ་	-10.7589
▁བཅང་བ	-10.7609
▁གྲིབ་མ་	-10.7623
▁མར་མེ	-10.7623
▁མཾ་	-10.7623
▁གསོད་	-10.763
▁སྔོ་	-10.763
▁ནཱཾ་	-10.7651
▁རྩེ་བ	-10.7651
▁གང་ཡིན	-10.7658
▁བཞེངས་	-10.7658
▁སྐྱོང་བ་	-10.7658
▁གདབ	-10.7665
▁གོང་མ	-10.7672
▁གཞལ་བྱ་	-10.7686
▁བརྙེས་པ	-10.7686
▁གདོན་པ་	-10.7693
▁སྒྱུར་	-10.77
▁ཁྲིད་	-10.7707
▁ཡངས་པ	-10.7707
▁ཅི་འདྲ་བ་	-10.772
▁ལྷུང་བ	-10.772
▁བཅུག་པ	-10.7727
▁ཚོང་པ་	-10.7734
▁ལ་བ	-10.7734
▁རང་རིག་	-10.7741
▁མི་མཇེད་	-10.7755
▁ཊི་	-10.7762
▁འཕྲུལ་པ་	-10.7776
▁དགྲོལ་བ	-10.7784
▁གདབ་	-10.7791
▁གས	-10.7791
▁ཆུར་	-10.7791
▁དབྱེན་	-10.7791
▁བསད་པ་	-10.7791
▁བསླང་བ	-10.7805
▁ལྕི་བ	-10.7812
▁གདུང་	-10.7826
▁སར་པ་	-10.7833
▁ནཱ་ག་	-10.784
▁མི་འདོད་པ	-10.7854
▁སྐྱེ་དགུ	-10.7875
▁དབུལ	-10.7882
▁རྟ་བབས་	-10.7882
▁གཡོགས་	-10.7904
▁དམིགས	-10.7904
▁ཟབ་པ	-10.7904
▁བུདྡྷ་	-10.7911
▁ཐབས་ཅིག་	-10.7932
▁རང་བ	-10.7932
▁ཁྲོ་གཉེར་	-10.7954
▁ཅེས	-10.7954
▁ལོན་པ	-10.7954
▁དངོས་གཞི་	-10.7961
▁མཚམས་མེད་པ་	-10.7961
▁སྐྱོབ་པ	-10.7968
▁གདུག་པ	-10.7975
▁རྣམ་དབྱེ་	-10.7975
▁བྲྀ་	-10.7982
▁མ་ཚང་	-10.7982
▁ཀཱ་ལི་	-10.7989
▁ཀུ་ཤ་	-10.7989
▁འཇམ་	-10.7989
▁ཤམ་ཐབས་	-10.7989
▁གྲང་བ་	-10.7997
▁དམག་	-10.8025
▁གཞན་དོན་	-10.8033
▁ཕག་མོ་	-10.8033
▁སྦུབས་	-10.8033
▁བོད་	-10.804
▁སྦྱང་	-10.804
▁ཟུག་རྔུ་	-10.8047
▁འདབ་མ	-10.8047
▁ལེ	-10.8047
▁སི	-10.8047
▁ཁས་ལེན་	-10.8054
▁མནྟ་	-10.8054
▁འདྲི་	-10.8076
▁བྲིའོ	-10.8083
▁མི་སློབ་པ	-10.8083
▁ལ་ལུང་	-10.8083
▁གཡེང་བ	-10.809
▁ནང་པ	-10.809
▁འགོད་པ	-10.809
▁འདོར་བ་	-10.8098
▁ཥི་	-10.8098
▁ལྕགས་སྒྲོག་	-10.8105
▁སུམ་ཅུ་རྩ་བདུན་	-10.8105
▁ཉ	-10.8112
▁བཅོ	-10.8112
▁རྟ	-10.8119
▁དབབ་པ་	-10.8127
▁བཟླས	-10.8127
▁འཚེ་བ	-10.8141
▁བྱོལ་སོང་	-10.8148
▁ཏ་ལ་	-10.8156
▁དུལ་བ་	-10.8156
▁ཆོམ་རྐུན་	-10.8163
▁སྨྲེ་སྔགས་	-10.8178
▁ཉིས་འགྱུར་	-10.8185
▁མངོན་སྤྱོད་	-10.8185
▁བསྟི་སྟང་	-10.8192
▁མན་	-10.8192
▁ཕྱག་དར་	-10.8207
▁སྡེ་པ་	-10.8214
▁སྒྲོལ་མ	-10.8222
▁ངག་གི་ལས་	-10.8229
▁མདུད་པ་	-10.8236
▁སྲིན་ལག་	-10.8236
▁ཉིན་པ	-10.8251
▁རྩོམ་	-10.8251
▁ས་ར་	-10.8251
▁སླ་བ་	-10.8251
▁དགྲ	-10.8258
▁རགས་པ་	-10.8258
▁སྡུག་བསྔལ་བ	-10.8258
▁གནད་	-10.8273
▁གླང་ཆེན་	-10.8273
▁བྲི་བ་	-10.8288
▁འཛུམ་པ་	-10.8295
▁བྲིས་པ་	-10.831
▁འོད	-10.8325
▁སེལ	-10.8332
▁ན་རེ	-10.834
▁རོ་ལངས་	-10.834
▁ཨཱུ་	-10.8347
▁གཡོས་	-10.8362
▁གླང་པོ	-10.837
▁ཉི་ཤུ	-10.837
▁དཀྲིས་པ་	-10.837
▁བཤགས་པ་	-10.837
▁རྒོད་པ་	-10.837
▁སྦོམ་པོ་	-10.8377
▁རིག་མ་	-10.8392
▁སྐྱ་རེངས་	-10.8392
▁བལྟས་པ	-10.8399
▁བརྟག	-10.8407
▁འདོང་	-10.8407
▁འཆི་བདག་	-10.8414
▁རྗེས་ཐོགས་	-10.8422
▁ཐབ་ཁུང་	-10.8429
▁ཁྱམས་	-10.8437
▁ཐུག་	-10.8437
▁ཐད་	-10.8444
▁བརྩམས་པ	-10.8452
▁འབར	-10.8452
▁ལྷས་བྱིན་	-10.8467
▁ཆོད་པ་	-10.849
▁ཏུའོ	-10.8497
▁བརྗོད་བྱ་	-10.8497
▁རིགས	-10.8505
▁རྟོགས	-10.8505
▁བགྲང་བ་	-10.8512
▁འཕྲོ་	-10.8512
▁ཐལ་	-10.852
▁དགྱེས་པ་	-10.852
▁བཞོན་པ་	-10.8535
▁སྨོན་པ	-10.8535
▁ཐབ་	-10.8542
▁རྒྱལ་ཆེན་	-10.855
▁དག་མ་	-10.8565
▁བདུག་སྤོས་	-10.8565
▁ཕྱེད་པ་	-10.8573
▁འབྲངས་	-10.858
▁རུས་	-10.858
▁ལ་ཚད་	-10.858
▁མ་ལ	-10.8588
▁ཞུམ་པ་	-10.8588
▁ཏྭཱ་	-10.8603
▁བདེ་ལེགས་	-10.8619
▁རང་བ་	-10.8619
▁ན་ཁ་	-10.8626
▁ཆོས་འབྱུང་	-10.8641
▁རྩིག་པ་	-10.8641
▁བཅིང་	-10.8657
▁བསྔོ	-10.8664
▁རྔ་	-10.8664
▁གོས་པ	-10.8672
▁ངན་འགྲོ	-10.8672
▁འབྱུང་པོ	-10.8688
▁འབྱོར་	-10.8688
▁ཡི་དམ་	-10.8695
▁ཟླུམ་པོ་	-10.8703
▁ཕྱེད་པ	-10.8711
▁ཐུང་ངུ་	-10.8718
▁མཇུག་ཐོགས་	-10.8726
▁བཅུ་བཞི་	-10.8749
▁བསྲེགས་པ	-10.8757
▁མཐར་ཐུག་	-10.8773
▁ཏཾ	-10.8788
▁ལང་ཀ	-10.8788
▁གང་པོ་	-10.8811
▁ཨ་རུ་	-10.8819
▁བརླ་	-10.8827
▁ལྟོ་	-10.8835
▁བོ་	-10.8843
▁ཐ་མལ་པ	-10.885
▁བཀྲུ་སྨན་	-10.885
▁སེར་སྐྱ	-10.885
▁ཐོབ་བོ	-10.8858
▁བསླབས་	-10.8858
▁ལྷགས་པ་	-10.8858
▁གསལ	-10.8874
▁བྱིན་ལེན་	-10.8874
▁བསྲུངས་	-10.8882
▁མམ་	-10.8882
▁འདྲེས་	-10.8882
▁ཉེ་འཁོར་	-10.889
▁འཕྲོ་བ	-10.889
▁ཆུབ་	-10.8897
▁སྟབས་	-10.8905
▁སྡུད་	-10.8905
▁བསྲེས་	-10.8913
▁བསྣམས	-10.8921
▁གོ་སྐབས་	-10.8929
▁ཡངས་	-10.8929
▁སྟོབས་པོ་	-10.8945
▁བྱོན་པ་	-10.8953
▁ཚང་བ	-10.8953
▁གོས་པ་	-10.896
▁ཡུན་རིང་པོ	-10.896
▁མཆི་	-10.8976
▁དུ་ཡོད་པ	-10.8984
▁བཏོན་	-10.8984
▁རྩེ་གཅིག་པ་	-10.8984
▁བརྫུན་པ་	-10.8992
▁བསྲེག་པ	-10.8992
▁ཚོད་	-10.8992
▁འཛག་པ་	-10.8992
▁ཅིག་པ	-10.9
▁ཆགས་བྲལ་	-10.9
▁ཆུང་མ	-10.9
▁པགས་པ	-10.9008
▁ཏིའི་	-10.9032
▁ཨ་ལས་	-10.9032
▁བཅུ་གསུམ་	-10.9048
▁བྱིན་རླབས་	-10.9048
▁རྣ་	-10.9064
▁སྦྱོར	-10.9064
▁གཡོག་	-10.9072
▁བརྐྱང་བ་	-10.9072
▁བརྒྱུད་པ་	-10.9072
▁བགྲོད་པ་	-10.9088
▁བསྒྲིབས་	-10.9096
▁སྡང་བ་	-10.9096
▁ཕྲ་རྒྱས་	-10.9104
▁བགྲང་བ	-10.9104
▁བཤགས་	-10.9112
▁བསགས་	-10.9112
▁མང	-10.9112
▁རྒྱལ་མོ་	-10.912
▁ཚང་	-10.9128
▁ཐེ་ཙོམ་	-10.9152
▁ཇི་	-10.916
▁འོག་མིན་	-10.916
▁གྲྀ་	-10.9176
▁ཕོངས་པ་	-10.9176
▁རྗེ་	-10.9176
▁མི་སྣང་བ་	-10.9184
▁ངུ་	-10.9192
▁དུལ་བ	-10.9192
▁བཅའ་བ	-10.9192
▁ལོན་	-10.9192
▁གནས་ཁང་	-10.92
▁དཀར་བ	-10.92
▁ཤིང་རྟ	-10.9209
▁གདིང་བ་	-10.9217
▁དྲག་ཤུལ་	-10.9217
▁ཐམས་ཅད་པ་	-10.9225
▁སྐྲག་པ་	-10.9241
▁བརྒྱད	-10.9249
▁ཁ་ལོ་	-10.9257
▁བྱམས་	-10.9257
▁མེ་ལྕེ་	-10.9257
▁དྲོ་བ་	-10.9274
▁འཁྱུད་པ་	-10.9274
▁རྡུལ་ཚོན་	-10.9282
▁མཉན་པ་	-10.929
▁སྨན་པ	-10.9298
▁ཡེ	-10.9306
▁ཨཽ་	-10.9314
▁ཅོག་	-10.9323
▁འཇོམས	-10.9323
▁གླུ	-10.9331
▁ཚེར་མ་	-10.9331
▁སཱི་	-10.9331
▁གཡས་གཡོན་	-10.9339
▁ཙཱ་	-10.9339
▁ཕམ་པ་	-10.9347
▁ཐོག་	-10.9356
▁དེ་དོན་	-10.9356
▁གསང་བ་པ	-10.9372
▁ནན་	-10.9372
▁སྡོང་བུ་	-10.9372
▁སྦྱོང་བ་	-10.9372
▁སྲ་	-10.938
▁ཞིབ་	-10.9388
▁འགུགས་པ	-10.9397
▁ཐུག་པ	-10.9413
▁སླ་བ	-10.9413
▁བསྐོལ་བ་	-10.9422
▁ཥཱ་	-10.9422
▁སྤྱི་གཙུག་	-10.9422
▁ཞིག	-10.943
▁སྦྲང་རྩི	-10.943
▁འཆར་ཀ	-10.9438
▁ག་ལ	-10.9446
▁དཔྱད་པ་	-10.9455
▁བཏུང་	-10.9455
▁གཏུམ་མོ་	-10.9463
▁གྲུ་གསུམ་	-10.9463
▁བགྱིས	-10.9471
▁སོར་མོ	-10.9471
▁བག་མེད་པ་	-10.948
▁ཚིལ་	-10.9496
▁མཐོ་བ	-10.9505
▁སྐྱེས་མ་	-10.9505
▁གནོན་	-10.9513
▁པྲཱ་	-10.953
▁བརྐྱང་བ	-10.9546
▁བླ་གོས་	-10.9546
▁འོས	-10.9546
▁གང་ཅི་	-10.9555
▁གེ་སར་	-10.9555
▁ཆོས་ཤེས་པ	-10.9555
▁སྩོལ	-10.9555
▁སྒྲོ་འདོགས་པ་	-10.9563
▁དོགས་	-10.9572
▁བྱ་རྒོད་	-10.9572
▁ཚངས་	-10.9572
▁འབུལ་	-10.9572
▁མཚན	-10.958
▁ཡང་ཕྱི	-10.958
▁སྙིང་སྟོབས་	-10.958
▁ཆུ་བོ	-10.9588
▁སྨྲོས་	-10.9597
▁གོ་ཆ	-10.9605
▁དབྱངས་ཡིག་	-10.9605
▁བསད་པ	-10.9605
▁མི་བཟད་པ	-10.9614
▁རྒྱལ	-10.9614
▁གཞོམ་པ	-10.9622
▁བསྒྲིབས་པ་	-10.9631
▁ལུས་པ	-10.9631
▁ཡིག་འབྲུ་	-10.9639
▁ཤེས་པ་པོ་	-10.9639
▁བསྣམས་པ་	-10.9648
▁ལས་པ་	-10.9656
▁སྲ་བ་	-10.9656
▁ཎི	-10.9665
▁བཙས་	-10.9665
▁སྩོལ་	-10.9665
▁བཅུ་གཉིས་པ	-10.9673
▁འཛག་པ	-10.9673
▁ལས་འབྲས་	-10.9673
▁བགོ་བ	-10.969
▁རབ་གནས་	-10.969
▁སུམ་ཅུ་རྩ་གསུམ་	-10.969
▁ཤིན་	-10.9699
▁ཁེ་	-10.9707
▁གྱད་	-10.9716
▁རླུང་ནད་	-10.9716
▁པེ་	-10.9724
▁བསྡམས་	-10.9733
▁གྲོལ	-10.9741
▁རློབ་པ	-10.9741
▁ཕྲ་	-10.9758
▁འབྲུ་མར་	-10.9775
▁ལཱི་	-10.9784
▁ལྷུང་བ་	-10.9784
▁སྒྱུ་	-10.9784
▁བཟང་མོ་	-10.9793
▁བྲིས་པ	-10.9793
▁ར་མ་	-10.9793
▁སྐྱོན་མེད་པ་	-10.9801
▁མ་ཧེ་	-10.981
▁ལས་དོན་	-10.9818
▁དྲི་མ	-10.9827
▁བཀུར་སྟི	-10.9827
▁བསྡམས་པ	-10.9827
▁དྲོ་བ	-10.9836
▁ཆོད་པ	-10.9862
▁སྩལ་བ	-10.9862
▁སོམ་ཉི་	-10.9879
▁སྔ་རོལ་	-10.9879
▁ཉེ་དགའ་	-10.9888
▁བབས་	-10.9896
▁འཇམ་པ་	-10.9905
▁རིན་ཐང་	-10.9905
▁རྩུབ་པ་	-10.9905
▁ཎ	-10.9914
▁ཕྲ་མ་	-10.9914
▁དཀའ	-10.9931
▁ཉུང་བ་	-10.9957
▁མལ་སྟན་	-10.9966
▁འདྲེན་	-10.9966
▁མ་ནུ	-10.9983
▁བཀ	-10.9992
▁རྟོག	-10.9992
▁ཧྲྀ་	-10.9992
▁ནད་པ	-11.0001
▁འཆར་བ	-11.0001
▁དོ་ཤལ་	-11.001
▁བཟོ་	-11.001
▁ཞལ་ཟས་	-11.001
▁ལྗོན་ཤིང་	-11.001
▁ལགས་སོ་	-11.0018
▁བརྒྱུད་	-11.0027
▁ཁམ་	-11.0036
▁མུ་ཁྱུད་	-11.0036
▁མོད	-11.0045
▁རྩོལ་བ	-11.0045
▁མཁན་པོ	-11.0054
▁ཛྙཱ་	-11.0062
▁ཡུན་རིང་པོ་	-11.0062
▁ལུད་པ་	-11.0062
▁འགྲོགས་	-11.008
▁དབང་ཆེན་	-11.0089
▁ཀརྨ་	-11.0098
▁ཐབས་མཁས་པ	-11.0098
▁བཅུ་གཉིས་པ་	-11.0098
▁ཏཱཾ་	-11.0107
▁སྡང་བ	-11.0107
▁ཕ	-11.0124
▁གུར་གུམ་	-11.0133
▁ཚུལ	-11.0133
▁སྐྱོང་བ	-11.0142
▁འབྲས་ཆན་	-11.0151
▁དུགས་	-11.016
▁ཕྱི་བཞིན་	-11.016
▁མཱི་	-11.016
▁ཡ་མ་	-11.016
▁ནྱ་གྲོ་	-11.0169
▁བྲེ་	-11.0169
▁མི་མ་ཡིན་པ་	-11.0169
▁སྔ་དྲོ་	-11.0169
▁ཅད་	-11.0178
▁བྱིན	-11.0187
▁དགེ་བསྙེན་མ་	-11.0214
▁བཤམས་	-11.0214
▁ཚོལ་བ	-11.0214
▁ཀློག་	-11.0223
▁སྨོད་པ་	-11.0223
▁གཅིག་པོ་	-11.0232
▁ངོ	-11.0232
▁ཚོར་	-11.025
▁སློང་	-11.025
▁འཕེན་པ	-11.0268
▁སྤྱད	-11.0277
▁ཁོང་ཁྲོ་བ་	-11.0286
▁ཞར་	-11.0286
▁སྔར་བཞིན་	-11.0322
▁མཁྲིས་པ	-11.0349
▁མི་གཙང་བ	-11.0349
▁རེག་བྱ	-11.0349
▁སེང་ལྡེང་	-11.0349
▁བཟང་བ་	-11.0358
▁འཁོད་པ	-11.0358
▁འབྱམ་	-11.0358
▁བར་མ	-11.0367
▁ཉི་ཟླ་	-11.0376
▁ཀྱེ	-11.0385
▁དམ་བཅའ་བ་	-11.0385
▁ཞུགས་ཤིང་	-11.0385
▁ཨཿ	-11.0385
▁ཐབས་མཁས་པ་	-11.0395
▁བདུག་པ	-11.0404
▁ངར་	-11.0413
▁ཚན་	-11.0413
▁གོང་བུ་	-11.0431
▁ཉི་	-11.044
▁བཀྲུ་བ	-11.044
▁ཁས་ལེན་པ་	-11.0449
▁དྲངས་པ	-11.0449
▁དྲང་པོ	-11.0459
▁ནུབ་པ་	-11.0459
▁མགུལ་	-11.0477
▁བསྒྱུར	-11.0486
▁སྐམ་	-11.0486
▁བལྟས་པ་	-11.0514
▁སྔོན་བཞིན་	-11.0514
▁བ་སྤུ	-11.0523
▁ཡམ་ཤིང་	-11.0532
▁ཡིད་ཆེས་པ་	-11.0532
▁གྲོང་རྡལ་	-11.0542
▁ཚོར་བ་པོ་	-11.0542
▁ཤཱུ་	-11.0542
▁གྲང་བ	-11.0551
▁བྱུག་པ	-11.0551
▁འགྱོད་པ	-11.0569
▁བསྙེན་	-11.0579
▁འབེབས་	-11.0579
▁འདུག	-11.0597
▁ཐུགས་ཀ་	-11.0607
▁ཟླུམ་པོ	-11.0607
▁སྲད་བུ་	-11.0607
▁དཔག་བསམ་	-11.0616
▁མཚན་པ་	-11.0616
▁མི་བཟད་པ་	-11.0616
▁ཚིག	-11.0616
▁སྟ་	-11.0616
▁དཔའ་བ	-11.0625
▁བཅོ་ལྔ་	-11.0625
▁ཞོན་	-11.0625
▁སྲས་པོ་	-11.0625
▁རུས་སྦལ་	-11.0635
▁ལ་ཚིགས་	-11.0635
▁ཥེ་	-11.0635
▁སྟ་གོན་	-11.0635
▁སྦྱོང་	-11.0635
▁དྱ་	-11.0644
▁བཟླ་བ	-11.0653
▁སངས་	-11.0653
▁སྟོད་	-11.0653
▁ཏ་ལ	-11.0663
▁ཡར་	-11.0681
▁རྣམ་གྲོལ་	-11.0681
▁གྱོན་	-11.0691
▁ངེད་	-11.0691
▁རིམ་གྲོ	-11.0691
▁ཤྲི་	-11.07
▁གཏོགས་	-11.071
▁སྔོ	-11.0719
▁པྲི་	-11.0728
▁བསྒྲགས་	-11.0728
▁ཅི་འདྲ་	-11.0747
▁ཏྲཱ་	-11.0747
▁མཆིའོ	-11.0747
▁གངྒཱའི་	-11.0757
▁བཀྲེས་པ་	-11.0766
▁ཚིག་ལེའུ	-11.0766
▁མེ་དྲོད་	-11.0776
▁ནོན་པ	-11.0795
▁ཕན	-11.0804
▁བཞེད་པ་	-11.0814
▁ཁས་ལེན་པ	-11.0823
▁ཞུམ་པ	-11.0833
▁ཞུགས	-11.0852
▁འཕྲོ་བ་	-11.0852
▁ཡ་མཚན་	-11.0852
▁རྒོལ་བ	-11.0861
▁སྤོ་བ་	-11.0871
▁དེ་བཞིན	-11.0881
▁རྟེན་པ	-11.0881
▁ལྗོངས་	-11.0881
▁མགོན་པོ	-11.09
▁མཐོང་བ་པོ་	-11.09
▁རྙིང་པ་	-11.09
▁རྫོགས	-11.09
▁ཅི་ཕྱིར་	-11.0909
▁ཉིང་ལག་	-11.0909
▁སྐྱེད	-11.0919
▁ལེའུ	-11.0929
▁དབྱུག་	-11.0938
▁བསྣམས་	-11.0938
▁གྲུ་བཞི་	-11.0948
▁ཕྱེ་མ	-11.0948
▁བྲང་	-11.0948
▁ཚང་བ་	-11.0948
▁རིགས་ལྡན་	-11.0948
▁ཥིཉྩ་	-11.0967
▁གྲུབ	-11.1006
▁འཁྱུད་	-11.1006
▁རྫིང་བུ་	-11.1016
▁མ་འོངས་	-11.1025
▁སྒོ་གསུམ་	-11.1025
▁ཕྱིན་ཆད་	-11.1035
▁དུམ་བུ	-11.1045
▁མངའ་བདག་	-11.1045
▁རེའུ་མིག་	-11.1055
▁མི་ཟད་	-11.1064
▁དགའ་མགུ	-11.1074
▁ཕ་རོལ་པོ	-11.1074
▁ཤོ་གམ་	-11.1074
▁གིའོ	-11.1084
▁ཐུང་	-11.1084
▁ཛུ་	-11.1094
▁མཆི་མ་	-11.1103
▁འགྲོ་བ་པོ་	-11.1103
▁དཾ་	-11.1113
▁མལ་	-11.1113
▁དང་པོ་པ་	-11.1123
▁མི་རིགས་པ་	-11.1123
▁རྡུལ་ཕྲན་	-11.1133
▁དཀྲིས་	-11.1143
▁ཕོ	-11.1143
▁རྒྱུ་རྐྱེན་	-11.1143
▁སྔོན་བྱུང་བ་	-11.1143
▁འཕོས་	-11.1152
▁ལྷན་ཅིག་པ	-11.1152
▁ཆོད་	-11.1162
▁དཔུང་པ་	-11.1162
▁དྲིན་	-11.1162
▁གཞན་དབང་	-11.1172
▁རེངས་པ	-11.1172
▁བཤང་གཅི་	-11.1182
▁རྨ་བྱ	-11.1182
▁ཀླུ་སྒྲུབ་	-11.1202
▁བརྩེགས་པ	-11.1202
▁ཤིང་མངར་	-11.1202
▁མགུ་བ་	-11.1212
▁ནཱ་མ	-11.1222
▁པད་	-11.1222
▁འཆིང་	-11.1222
▁ལས་པ	-11.1222
▁ཎཱི་	-11.1241
▁དཔྲལ་བ་	-11.1241
▁ཡབ་ཡུམ་	-11.1251
▁ལང་ཚོ་	-11.1261
▁ཆུག་	-11.1271
▁དྲུག	-11.1271
▁དམར་བ	-11.1291
▁བུད་	-11.1301
▁བདེ་འགྲོ་	-11.1311
▁མ་རིག་	-11.1311
▁ལྗགས་	-11.1311
▁ཤཾ་	-11.1321
▁ཤར་བ	-11.1331
▁ཐོ་	-11.1351
▁ལྡེ་གུ	-11.1351
▁སོན་པ	-11.1351
▁ཁ་སྦྱོར་	-11.1361
▁ཆོས་དབྱིངས་	-11.1361
▁ཕོངས་པ	-11.1361
▁བརྙེས་	-11.1361
▁བླ་རེ་	-11.1361
▁མངོན་ཤེས་	-11.1361
▁ཤ་ལ་	-11.1361
▁སྤུན་	-11.1361
▁དམར་བ་	-11.1412
▁འགོག་	-11.1412
▁རྣམ་སྨིན་	-11.1412
▁སྲ་བརྐྱང་	-11.1412
▁ལྡེ་གུ་	-11.1422
▁ནག་	-11.1432
▁བསླངས་	-11.1432
▁འབྲིང་པོ་	-11.1432
▁སངས་རྒྱས	-11.1432
▁དུ་ཡོད་	-11.1442
▁ཉུང་བ	-11.1452
▁ཕན་ཆད་	-11.1462
▁འཐབ་པ་	-11.1462
▁གཞང་འབྲུམ་	-11.1472
▁གཟུངས་སྔགས་	-11.1472
▁པ	-11.1472
▁རབས་	-11.1472
▁ཁུ་	-11.1483
▁གསུང་བ་	-11.1483
▁དུ་དུ	-11.1483
▁བླུད་པ	-11.1483
▁ཀཾ	-11.1493
▁དགྲ་བཅོམ་	-11.1493
▁བརྣབ་སེམས་	-11.1493
▁རྒན་པོ་	-11.1493
▁གཏུགས་	-11.1503
▁གསོས་	-11.1503
▁གེགས་	-11.1503
▁ཏྲྀ་	-11.1503
▁ཞུ་ཆེན་	-11.1503
▁རྩི་	-11.1503
▁རྩེ་གཅིག་པ	-11.1503
▁གཉེར་	-11.1513
▁དཔའ་	-11.1513
▁མུ	-11.1513
▁འདའ་	-11.1513
▁བཿ	-11.1523
▁ཙིཏྟ་	-11.1523
▁རྣམ་ཐོས་	-11.1523
▁མདུང་	-11.1534
▁ཧོ	-11.1534
▁འག	-11.1544
▁གཅེར་བུ་	-11.1554
▁རིག་འཛིན་	-11.1554
▁ལྟས་	-11.1554
▁སྒྲོགས་པ་	-11.1554
▁ཧཱི་	-11.1554
▁ཧ་ལ་	-11.1564
▁གཙུག་ཕུད་	-11.1575
▁བསྐྲད་པ	-11.1575
▁ཡོང་	-11.1575
▁ལུང་སྟོན་པ	-11.1575
▁ཐོང་	-11.1585
▁ཛཾ་	-11.1585
▁ཡང་ཐ་	-11.1585
▁ཁྲོད་	-11.1595
▁ཏམ་	-11.1595
▁དབང་བ	-11.1595
▁རྫ་མཁན་	-11.1595
▁སད་པ་	-11.1595
▁སེར་བ་	-11.1595
▁སྐྱོན་མེད་པ	-11.1595
▁སྤེལ་བ	-11.1595
▁ནད་གཞི་	-11.1605
▁གྲུབ་པོ	-11.1616
▁གཟིགས	-11.1636
▁སྟྭཾ་	-11.1636
▁བྱི་	-11.1647
▁བརྡུངས་	-11.1657
▁ཀཽ་	-11.1667
▁བོར་བ་	-11.1667
▁མཁྱེན	-11.1667
▁གཙང་སྦྲ་	-11.1678
▁འཆི	-11.1678
▁དགྲ་བོ་	-11.1688
▁མཉམ་ཉིད་	-11.1688
▁ཡིད་ཆེས་	-11.1688
▁སྔོ་བ	-11.1688
▁ཆོས་ཤེས་པ་	-11.1699
▁བརྗེད་པ	-11.1699
▁ལྟོས	-11.1699
▁གཞེས་	-11.1709
▁གསལ་རྒྱལ་	-11.1709
▁བརྒལ་	-11.1709
▁འཐུན་པ་	-11.1709
▁ལས་ཅན་	-11.1709
▁སྡོད་	-11.1709
▁མེ་ལྷ་	-11.1719
▁ཞི	-11.173
▁འཐབ་	-11.173
▁དྲུག་ཅུ	-11.174
▁བསླང་བ་	-11.174
▁ལམ་ཤེས་པ་	-11.174
▁ཀཱ	-11.1751
▁དྲི་ཞིམ་	-11.1751
▁འཆགས་	-11.1751
▁ཇེ་	-11.1761
▁བཞག	-11.1761
▁མནན་པ་	-11.1761
▁ཚུལ་ཤིང་	-11.1761
▁ཞེ	-11.1761
▁བརྒྱད་ཅུ	-11.1772
▁བྷོ་	-11.1782
▁རྫིང་	-11.1782
▁ལྗང་གུ	-11.1782
▁བར་མ་དོ	-11.1793
▁བཅངས་	-11.1803
▁སྒྲོལ་བ	-11.1803
▁ར་པ་	-11.1814
▁འཚོང་	-11.1824
▁རྩོལ་	-11.1835
▁ཛ་ཡ་	-11.1845
▁སྲིན་པོ	-11.1845
▁མཆོད་ནས་	-11.1866
▁འགྲུབ་བོ	-11.1866
▁འབྲུ	-11.1866
▁སད་	-11.1877
▁གེ་	-11.1887
▁དབྱིག་	-11.1887
▁རྩུབ་	-11.1887
▁ཨིནྡྲ་	-11.1887
▁ཤྱ་	-11.1898
▁བསྐོ་བ	-11.1909
▁བུ་ག	-11.1909
▁འཕངས་པ་	-11.1909
▁མི་སློབ་པ་	-11.1919
▁ལ་མ	-11.1919
▁སྤྱན་མ་	-11.1919
▁བརྫུན་པ	-11.1941
▁རྣམ་སྣང་	-11.1941
▁ཇི་སྙེད་པ	-11.1951
▁སྡེ་དཔོན་	-11.1951
▁བརྒྱ་པ	-11.1962
▁རྒལ་	-11.1962
▁ཨཏ་	-11.1962
▁ལག་མཐིལ་	-11.1973
▁བཅུ་དྲུག་པ་	-11.1983
▁རྣོ་བ་	-11.1983
▁སྐུ་རྡོ་རྗེ་	-11.1983
▁སྐྲན་	-11.1983
▁ཉུང་ངུ་	-11.2005
▁ཕྱིར་རྒོལ་བ་	-11.2015
▁ཧུྃ་	-11.2015
▁བསྒྲགས་པ	-11.2026
▁ཀུན་ཤེས་པ	-11.2048
▁བཅྭོ་	-11.2048
▁ཟས་གཙང་	-11.2048
▁རྣོན་པོ	-11.2048
▁ཅུང་ཞིག་	-11.2058
▁བུ་ནོར་	-11.2069
▁སྣམ་སྦྱར་	-11.2069
▁ཧེ	-11.2069
▁བརྒྱ་ལ་	-11.208
▁ཚེ་ལོ་	-11.208
▁སྦས་པ	-11.208
▁ཛེ་	-11.2091
▁ལོང་བ་	-11.2091
▁མཆི་བ	-11.2102
▁ཡང་བ	-11.2102
▁སྙོམས་	-11.2102
▁ནམ་ཞིག་	-11.2112
▁བསྒྲེང་	-11.2123
▁བསྒྲལ་བ	-11.2134
▁འཕྲོག་	-11.2134
▁རྟེན་པ་	-11.2134
▁ཤར་བ་	-11.2134
▁བསྒྲགས་པ་	-11.2145
▁ཞེང་	-11.2145
▁གནང་བ	-11.2156
▁བོར་བ	-11.2156
▁འཕྲོ	-11.2156
▁རྒྱ་ཆེན་པོ	-11.2156
▁ལུས	-11.2156
▁སྒྲ་བརྙན་	-11.2156
▁སོན་	-11.2167
▁ཇི་བཞིན་པ	-11.2178
▁མ་རུངས་པ་	-11.2199
▁འཚང་རྒྱ་བ་	-11.2199
▁རིངས་	-11.2199
▁ཕྱེ	-11.2221
▁ཡོད་མེད་	-11.2221
▁སྨོན་	-11.2221
▁སྩོལ་བ	-11.2221
▁དྲང་བ་	-11.2243
▁སན་	-11.2243
▁རབ་མཆོག་	-11.2254
▁ངལ་བ་	-11.2265
▁དམངས་རིགས་	-11.2265
▁མགུ་	-11.2265
▁གཏུམ་པོ་	-11.2276
▁རིང་བསྲེལ་	-11.2276
▁རྩེ་བ་	-11.2276
▁སྔོ་བསངས་	-11.2276
▁ཐེག་པ་པ	-11.2287
▁ཞལ་ཏ་	-11.2298
▁འདབ་ཆགས་	-11.2298
▁དྷཱའི་	-11.2309
▁བཅོམ་ལྡན་འདས	-11.2309
▁ཕྱོགས་སྔ་	-11.232
▁བརླབ་	-11.232
▁མཁའ་འགྲོ	-11.232
▁མི་དགེ་	-11.232
▁ཊ	-11.2332
▁བགྲོད་	-11.2332
▁སྡོང་པོ་	-11.2332
▁ཁྱེར་བ་	-11.2343
▁གཡས་ཕྱོགས་	-11.2343
▁དགའ་བྱེད་	-11.2343
▁སྒྲུབ་ཐབས	-11.2343
▁ཐུང་ངུ	-11.2354
▁བྱང་ཤར་	-11.2365
▁བསླང་	-11.2376
▁མྱོས་པ་	-11.2376
▁མདོག	-11.2387
▁རྒན་	-11.2387
▁འགོད་	-11.2398
▁མཛའ་བོ་	-11.2409
▁གཞོལ་བ་	-11.2421
▁ཏུཿ	-11.2421
▁འཁྲིག་པ་	-11.2421
▁སྒེག་མོ་	-11.2421
▁ང་རོ་	-11.2432
▁ཡུན་	-11.2432
▁ག་བ་	-11.2443
▁ཆར་པ་	-11.2443
▁བཀྲོལ་	-11.2443
▁བཙལ་བ་	-11.2454
▁བསྒྲིབས་པ	-11.2477
▁ཁ་བ་	-11.2488
▁སྦས་པ་	-11.2488
▁བཤོས་	-11.2499
▁བསྒོས་པ	-11.2499
▁ཉི་ཁྲི་	-11.251
▁ཟླ	-11.251
▁ལྷམ་	-11.251
▁གསོར་	-11.2522
▁ཏྱཱ་	-11.2522
▁པྲྀ་	-11.2522
▁བསྔོས་	-11.2522
▁བསྣུན་	-11.2522
▁དམར་སེར་	-11.2533
▁ཕལ་པོ་	-11.2533
▁བུ་ཆོས་	-11.2533
▁གུ་གུལ་	-11.2544
▁ཕག་མོ	-11.2544
▁སྟེར་བ་	-11.2544
▁ནོར་བ་	-11.2555
▁སྤེལ་	-11.2555
▁བྱར་མེད་	-11.2567
▁ཚིམ་	-11.2567
▁གདམས་པ་	-11.2578
▁གཞུང་ལུགས་	-11.2578
▁པཉྩ་	-11.2578
▁རྒྱང་གྲགས་	-11.2578
▁ལྕི་	-11.2578
▁སྐྲ	-11.259
▁སྲེག་	-11.259
▁གོ་བ་	-11.2601
▁འདི་ཁོ་ན་	-11.2601
▁འབྲོག་	-11.2601
▁གྷཱ་	-11.2612
▁འདི་འདྲ་	-11.2624
▁རྨུགས་པ་	-11.2624
▁གོམས་	-11.2635
▁བསྔོས་པ	-11.2635
▁དབུ་སྐྲ་	-11.2646
▁གཞོམ་	-11.2658
▁མོ་ལ་	-11.2658
▁བསྲེས་པ	-11.2669
▁ཥུ་	-11.2669
▁སྟོབས་ཆེན་	-11.2669
▁ཐིགས་པ་	-11.2681
▁མལ་ཆ་	-11.2681
▁མི་འགལ་བ	-11.2681
▁འགོད་པ་	-11.2681
▁གྲུབ་བོ	-11.2692
▁ཐད་ཀ	-11.2692
▁མཆི	-11.2692
▁སོ་ཤིང་	-11.2692
▁ཛྷ་	-11.2704
▁རྒྱུ་འབྲས་	-11.2715
▁ཉོན	-11.2727
▁སྤྲེའུ་	-11.2738
▁ཕར་	-11.275
▁བསང་གཏོར་	-11.275
▁བསུ་	-11.275
▁གུང་	-11.2761
▁ད་དུང་	-11.2761
▁ཨ་ཞེ	-11.2761
▁དཀྲིས་པ	-11.2773
▁ཨན་	-11.2773
▁བཅུ་གཅིག་པ་	-11.2785
▁ཆབ་	-11.2796
▁དབུས་མ	-11.2796
▁དྭི་	-11.2808
▁འདྲིས་པ	-11.2808
▁ཁི་	-11.2819
▁གཟུགས་བཟང་	-11.2831
▁བཞེད་པ	-11.2831
▁སྐར་མ	-11.2831
▁སྐལ་ལྡན་	-11.2831
▁ནག་མོ་	-11.2843
▁གདུངས་	-11.2854
▁གཞིག་པ	-11.2854
▁ངུར་སྨྲིག་	-11.2854
▁གཅད་པ་	-11.2866
▁དྲེགས་པ་	-11.2866
▁དྷརྨཱ་	-11.2866
▁ཕྱེད་ཕྱེད་	-11.2866
▁བཏུལ་	-11.2866
▁བསྔོས་པ་	-11.2866
▁རྣག་	-11.2889
▁གཞི་ནས་	-11.2901
▁སྨིན་མ་	-11.2901
▁བཅོས་པ	-11.2913
▁ཀློག་པ	-11.2925
▁ཉེན་ཀོར་	-11.2925
▁རིལ་བུ་	-11.2925
▁ཀྱི་ཧུད་	-11.2936
▁ད་ལྟ་	-11.2936
▁བཟང་སྐྱོང་	-11.2936
▁ཨ་ན་	-11.2948
▁གྲག་	-11.296
▁པོ་	-11.296
▁ཕྱིས	-11.296
▁ཡཾ	-11.2972
▁ཐོད་	-11.2984
▁མདོར་བསྡུས་པ་	-11.2984
▁དང་ག	-11.2995
▁དེ་བས་ན	-11.3007
▁བྲོ་	-11.3007
▁འཆལ་པ	-11.3007
▁འབྲལ་བ་	-11.3007
▁སྐྱོ་	-11.3019
▁སྱཱ་	-11.3019
▁གཞན་འཕྲུལ་	-11.3031
▁མནོས་	-11.3031
▁འཕྲུལ་	-11.3031
▁དེ་དུས་	-11.3043
▁པ་སངས་	-11.3043
▁བརྩེ་	-11.3043
▁གདུལ་	-11.3055
▁མདོར་བསྡུས་པ	-11.3055
▁ཞུན་མར་	-11.3055
▁གཱི་	-11.3067
▁འཁྱིལ་པ་	-11.3067
▁རྐང་ལག་	-11.3067
▁སྐོམ་པ་	-11.3067
▁ཁྱོད	-11.3079
▁བཅོ་ལྔ	-11.3079
▁གློ་	-11.309
▁བཅུ་དྲུག་པ	-11.309
▁བེ་ཅོན་	-11.309
▁བླུད	-11.309
▁ཡལ་བ	-11.309
▁ལོ་མ	-11.309
▁ཚུ་རོལ་	-11.3102
▁སིདྡྷི་	-11.3102
▁སེ་གོལ་	-11.3102
▁ཁྭ་	-11.3114
▁གོམ་པ་	-11.3114
▁ཏྲ	-11.3114
▁འཕྲུལ་པ	-11.3114
▁བརྙས་པ	-11.3126
▁ཚད	-11.3126
▁འཛག་	-11.3126
▁དཀར་མོ	-11.3138
▁ཤེད་ཅན་	-11.3138
▁གཅད་	-11.315
▁འཕྲོག་པ་	-11.315
▁འཆལ་པ་	-11.3162
▁རྣམ་ཐར་	-11.3162
▁སྒྲོ་འདོགས་པ	-11.3162
▁གུར་	-11.3174
▁ཟེར	-11.3174
▁འབུལ་བ	-11.3174
▁གཏད་པ	-11.3187
▁དན་	-11.3187
▁ནོར་བ	-11.3187
▁ཚེགས་	-11.3187
▁ལངས་པ་	-11.3187
▁ཎེ་	-11.3199
▁ནམས་	-11.3199
▁བསྐྲད་པ་	-11.3199
▁རྒྱལ་སྲས་	-11.3199
▁ཀུན་གཞི	-11.3211
▁ཕོག་	-11.3211
▁དྷེ་	-11.3223
▁མ་ཎི་	-11.3223
▁མྱོས་	-11.3223
▁འོག་མ	-11.3223
▁གྲུ་བཞི་པ་	-11.3259
▁རྐན་	-11.3259
▁སང་	-11.3259
▁ནེ	-11.3284
▁འཆར་བ་	-11.3284
▁ར་ས་	-11.3284
▁དལ་	-11.3296
▁བགོས་པ་	-11.3296
▁འགྲེང་	-11.3296
▁རལ་པ	-11.3296
▁བཤམས་པ་	-11.3308
▁བྷྲཱུཾ་	-11.3308
▁ཆེ་ཞེ	-11.332
▁ལོག་འདྲེན་	-11.332
▁མཆོག་སྦྱིན་	-11.3332
▁ཊཱ་	-11.3345
▁དྲིལ་	-11.3345
▁དབྱི་བ་	-11.3357
▁ཀུ་ཤ	-11.3369
▁གཙང་བ་	-11.3369
▁ཐེར་ཟུག་	-11.3369
▁འགྲོས་	-11.3369
▁སོན་པ་	-11.3369
▁བཏེག་	-11.3381
▁གཙུག་ལག་	-11.3394
▁གཟི	-11.3406
▁དངས་	-11.3406
▁མཚོན་ཆ	-11.3406
▁སྱ	-11.3406
▁ཉན་པ་པོ་	-11.3418
▁འགྱེད་པ	-11.3418
▁རིམས་ནད་	-11.3418
▁སྐྱེད་བྱེད་	-11.3418
▁སྨྱུང་བ་	-11.3418
▁ཆོས་བདག་	-11.3431
▁འཁོར་གསུམ་	-11.3431
▁དུ་ཞིག་	-11.3443
▁བསླབས་པ	-11.3443
▁རྒྱམ་	-11.3443
▁རྔུབ་པ་	-11.3443
▁ཤེད་བདག་	-11.3443
▁ཆུ་བུར་	-11.3455
▁བསྐྱབ་པ	-11.3455
▁མཐེ་བོ	-11.3455
▁བགྲང་	-11.3468
▁ལེགས	-11.348
▁མ་ཆགས་པ་	-11.3493
▁ཚོད་མ་	-11.3493
▁ཧཿ	-11.3493
▁གཏུམ་	-11.3505
▁དཀྲོལ་	-11.3505
▁མི་མཉམ་པ	-11.3505
▁འཐུང་བ་	-11.3505
▁ཀེང་རུས་	-11.3518
▁དབུ་མ་པ	-11.3518
▁ལྷ་ང་	-11.3518
▁བྷྱཱཾ	-11.353
▁བུམ་	-11.3543
▁གདོལ་པ་	-11.3555
▁བཤིག་	-11.3555
▁སུ་ར་	-11.3555
▁ཕ་ལ་	-11.3568
▁མཐོན་པོ་	-11.3568
▁སྨོས་ཅི་	-11.3568
▁གྱ་ནོམ་པ་	-11.358
▁དགྲ་སྟ་	-11.358
▁ནད་གཡོག་	-11.3593
▁ལངས་པ	-11.3593
▁སྐོམ་པ	-11.3605
▁གཟར་	-11.3618
▁གྲཱ་	-11.3618
▁དགུག་	-11.3618
▁རྐུན་པོ་	-11.3618
▁རྟ་མགྲིན་	-11.3618
▁དག་བྱེད་	-11.3631
▁འཆི་ལྟས་	-11.3631
▁ས་བདག་	-11.3631
▁སེར་སྣ	-11.3631
▁གཡོ	-11.3643
▁འཁྱིལ་པ	-11.3656
▁རྒྱགས་པ་	-11.3668
▁ཧཾ	-11.3668
▁གདུགས་ཚོད་	-11.3681
▁གནག་པ་	-11.3694
▁གཟ	-11.3706
▁འབྲུ་དང་	-11.3706
▁སྒྲོན་མ	-11.3706
▁འཕེན་པ་	-11.3719
▁སློན་	-11.3719
▁གཡོགས་པ	-11.3732
▁ཆོས་སྐུ་	-11.3732
▁བསྲེགས་པ་	-11.3732
▁འབེབས་པ་	-11.3732
▁ཐེག་ཆེན་	-11.3745
▁མི་སྨྲ	-11.3745
▁སཽ་	-11.3745
▁ནད་མེད་	-11.3757
▁མི་གང་	-11.3757
▁ཚིག་པ་	-11.3757
▁ཀོ་ས་ལ	-11.377
▁ཁམ་ཕོར་	-11.377
▁བོང་	-11.377
▁བསིལ་	-11.3783
▁མཱཾ་	-11.3783
▁འདུས་མ་བྱས་པ་	-11.3783
▁ཤིང་སཱ་ལ་	-11.3783
▁སྐུ་ཚེ	-11.3783
▁ཙམ	-11.3796
▁བགྲང་ཕྲེང་	-11.3821
▁འཁྲུ་བ་	-11.3821
▁སུམ་ཅུ་རྩ་གསུམ་པ	-11.3821
▁གཏོར་བ	-11.3834
▁བྱི་དོར་	-11.3834
▁ཁ་ར་	-11.3847
▁ཐི་	-11.3847
▁ཐིམ་	-11.3847
▁ས་བཅུ	-11.3847
▁ཅི་ཙམ་	-11.386
▁དཔྱིད་	-11.386
▁རཱུ་	-11.386
▁ལ་སྨན་	-11.386
▁ཤུ་དག་	-11.386
▁བརྟེན	-11.3873
▁གཏན་པ་	-11.3886
▁ཕམ་	-11.3886
▁བཛྲཱ་	-11.3886
▁རྒལ་བ	-11.3886
▁རྒྱ་སྐྱེགས་	-11.3886
▁ཁ་སྦྱར་	-11.3899
▁རྨ་བྱ་	-11.3912
▁གླེང་བ	-11.3925
▁ཐུན་མོང་བ་	-11.3925
▁འཕངས་པ	-11.3925
▁དམའ་བ་	-11.3938
▁བུང་བ་	-11.3938
▁ཁ་ཁྱེར་	-11.3951
▁སྔ་ཕྱི་	-11.3951
▁སྟེངས་	-11.3951
▁ཕྱེ་མར་	-11.3977
▁ཤློ་	-11.3977
▁བསྲེག་	-11.399
▁པདྨོའི་	-11.4003
▁བྱེ་བ	-11.4003
▁མ་མོ	-11.4003
▁འཁྲི་ཤིང་	-11.4003
▁ཧྱ་	-11.4003
▁དབྱི་བ	-11.4016
▁བག་མེད་	-11.4016
▁ལ་ད་	-11.4029
▁གསོག་	-11.4042
▁པྲཛྙཱ་	-11.4056
▁རྒྱལ་ཚབ་	-11.4056
▁སྤྲས་པ	-11.4056
▁གྲུལ་བུམ་	-11.4069
▁ན་ཚོད་	-11.4069
▁ཕྲོགས་	-11.4069
▁རྣམ་རྒྱལ་	-11.4069
▁གཟུང་འཛིན་	-11.4082
▁དཀྱིལ་འཁོར་པ་	-11.4095
▁བཅོ་ལྔ་པ་	-11.4095
▁བྷེ་	-11.4095
▁སྨྲ་བ་པོ་	-11.4095
▁ནི་སྒྲ	-11.4108
▁ཤ་མ་	-11.4108
▁གདུངས་པ	-11.4122
▁ཕྱུག་	-11.4122
▁མ་འཚལ་	-11.4122
▁ཉམས	-11.4135
▁འཚོ་བྱེད་	-11.4135
▁འོད་མ	-11.4135
▁ལྟོ་བ་	-11.4135
▁དགའ་མོ	-11.4148
▁དུས་བྱ	-11.4148
▁བཅུ་གཅིག་པ	-11.4148
▁བདེ་འགྲོ	-11.4148
▁ཙཀྲ་	-11.4148
▁རངས་པ	-11.4161
▁རྟ་མཆོག་	-11.4161
▁ཐོག་ཐག་	-11.4175
▁བཏིང་	-11.4175
▁ཟོང་	-11.4175
▁ལཊ་	-11.4188
▁སྐུས་	-11.4188
▁ངང་པ་	-11.4201
▁ཉེས་མེད་	-11.4201
▁ཐབས	-11.4201
▁སྷོ	-11.4201
▁ཐེག་པ་པ་	-11.4215
▁ནུབ་མོ་	-11.4215
▁བཅུ་བདུན་	-11.4215
▁དུད་པ་	-11.4228
▁བོད་པ	-11.4228
▁མུན་ནག་	-11.4228
▁ཀྱེ་མ	-11.4241
▁ཁུང་	-11.4241
▁བཀའ་དྲིན་	-11.4241
▁མི་ཕྱེད་པ་	-11.4241
▁ཟད	-11.4241
▁རྨ	-11.4241
▁སྔགས	-11.4241
▁འགྲིབ་པ	-11.4255
▁རིག	-11.4255
▁རས་ཡུག་	-11.4268
▁ཁྱབ་བདག་	-11.4282
▁བྷྲ་	-11.4282
▁གཡེམ་པ་	-11.4295
▁ཁྱེར་བ	-11.4309
▁བུ་ཆེན་པོ་	-11.4309
▁མཛེ་	-11.4309
▁ཟླ་འོད་	-11.4309
▁རགས་པ	-11.4309
▁གསད་པ་	-11.4322
▁ང་ཉིད་	-11.4322
▁ཏ་པ་	-11.4322
▁དུས	-11.4322
▁བརྙེས་པ་	-11.4322
▁བླུན་པོ་	-11.4322
▁མགྲིན་	-11.4322
▁ཇི་ལྟ་བ	-11.4336
▁དུའོ་	-11.4336
▁བྲན་མོ་	-11.4336
▁འགྱེད་པ་	-11.4336
▁འདུ་བྱེད་པ	-11.4336
▁རཾ	-11.4336
▁ལྷོ་ནུབ་	-11.4336
▁དྲི་ཞིམ་པོ	-11.4349
▁བླ	-11.4349
▁སྟོད་གཡོགས་	-11.4349
▁ཀྲི་	-11.4363
▁ཏིཿ	-11.4363
▁དང་པོ་པ	-11.4363
▁བརྩམ་	-11.4363
▁མ་དད་པ་	-11.4363
▁མཛའ་བ་	-11.4363
▁ཚིག་འབྲུ་	-11.4363
▁འཕྲོས་པ	-11.4363
▁སྤོབས་པ	-11.4363
▁ཆོག་པ	-11.4376
▁འགྲོགས་པ་	-11.4376
▁སྐ་རགས་	-11.4376
▁སྲྀ་	-11.4376
▁གདངས་	-11.439
▁གཟིར་བ་	-11.439
▁ཉི་ཚེ་	-11.439
▁བ་ཤེ	-11.439
▁བརྒྱ་པོ་	-11.439
▁མྱེ	-11.439
▁གཡོགས་པ་	-11.4404
▁འཐབ་བྲལ་	-11.4404
▁སྲིན་	-11.4404
▁དཔོག་པ	-11.4417
▁ནུབ་བྱང་	-11.4417
▁བུ་རམ་ཤིང་	-11.4417
▁མངའ	-11.4417
▁ཚིག་པ	-11.4417
▁སྲེག་བླུགས་	-11.4417
▁ཐོགས	-11.4431
▁དོན་ཡོད་པ་	-11.4431
▁བཀང་བ་	-11.4431
▁བཟང་བ	-11.4431
▁ཟློས་པ	-11.4431
▁བརྩེགས་	-11.4458
▁མཛའ་བཤེས་	-11.4458
▁དེ་ཡན་	-11.4472
▁བསིལ་བ་	-11.4472
▁རྐུ་བ་	-11.4472
▁ལོ་ཏོག་	-11.4472
▁དགའ་མོ་	-11.4486
▁དྲངས་པ་	-11.4486
▁ཕྱིར་ཞིང་	-11.4486
▁སྔོན་ཆད་	-11.4486
▁གཡོས་པ	-11.4499
▁དཀའ་འགྲེལ་	-11.4499
▁བོང་བུ་	-11.4499
▁ཟག་མེད་	-11.4499
▁ཁྱབ་བྱེད་	-11.4513
▁ཐོགས་མེད་	-11.4513
▁མགོ	-11.4513
▁མི་བདག་	-11.4513
▁སྐྱུར་	-11.4513
▁ཉེན་པ་	-11.4527
▁ཕུ་	-11.4527
▁འདི་འདྲ	-11.4527
▁ཚིག་ཕྲད་	-11.4541
▁རྩིས་	-11.4541
▁ལྷ་ཆེན་པོ་	-11.4541
▁སྲེག་པ་	-11.4541
▁ང་རྒྱལ་ཅན་	-11.4555
▁ཕུན་ཚོགས་	-11.4555
▁ཕྱིན	-11.4555
▁ཟུང་འཇུག་	-11.4555
▁དོང་བ་	-11.4568
▁བ་སྤུ་	-11.4568
▁བགོས་པ	-11.4568
▁སྒེག་པ	-11.4568
▁ཆུ་ཤིང་	-11.4582
▁ནོན་	-11.4582
▁ཆགས	-11.4596
▁ཇི་སྲིད་པ	-11.4596
▁ཤྲ་	-11.4596
▁དྷཱི་	-11.461
▁བསྲེས་པ་	-11.461
▁ཚ	-11.461
▁ཞལ	-11.461
▁འཕང་	-11.461
▁ཁྲིའུ་	-11.4624
▁དྲལ་	-11.4624
▁ཕྲན་ཚེགས་	-11.4624
▁འཐབ་མོ་	-11.4624
▁དགུ་པོ་	-11.4638
▁ཁྲི་ཕྲག་	-11.4652
▁འཛུམ་	-11.4666
▁སེར་སྐྱ་	-11.4666
▁སྒྲོལ་	-11.4666
▁རང་བཞིན	-11.468
▁རྟ་ལ་	-11.468
▁མཛུབ་མོ	-11.4694
▁འཚམ་པ	-11.4694
▁རྒྱང་	-11.4694
▁ཁྲག་འཐུང་	-11.4708
▁བྷྱཱ་	-11.4708
▁འདུད་པ	-11.4708
▁སྙིགས་མ་	-11.4708
▁མཱུ་	-11.4722
▁སེར་མོ་	-11.4722
▁རྩོད་	-11.4736
▁ལན་འགའ་	-11.4736
▁ཀྲཱི་	-11.475
▁ཁེངས་པ་	-11.475
▁བསྔོ་	-11.475
▁གཙང་བ	-11.4764
▁དཔོག་པ་	-11.4764
▁རྒ་ཤི	-11.4764
▁རྒྱ་ཤུག་	-11.4764
▁ཉམ་ཆུང་	-11.4778
▁རྐེད་པ་	-11.4778
▁གཏིང་	-11.4793
▁ནས་ཆུ་	-11.4793
▁མངར་བ་	-11.4793
▁མྱ་	-11.4793
▁འདོང་བ	-11.4793
▁དམར	-11.4807
▁ཡོན་བདག་	-11.4807
▁དབྱར་གནས་པ	-11.4821
▁རྟོན་པ་	-11.4821
▁ཤྲུ་	-11.4821
▁དམར་མོ་	-11.4849
▁དུལ་	-11.4849
▁བྲེགས་	-11.4849
▁ལེན་པ་པོ་	-11.4864
▁དྲན	-11.4878
▁བོས་པ་	-11.4878
▁ཀུན་ཤེས་	-11.4907
▁དུས་སྦྱོར་	-11.4907
▁ཚོགས་ཆེན་པོ་	-11.4907
▁ཤིང་ཀུན་	-11.4907
▁ཏུ་རེ་	-11.4921
▁དངོས	-11.4921
▁ནཱི	-11.4921
▁མི་དབང་	-11.4921
▁སྤེལ་བ་	-11.4921
▁གདམས་པ	-11.4935
▁ཆེ་ཆུང་	-11.4935
▁བདག་གཞན་	-11.495
▁བེའུ་	-11.495
▁མི་མ་ཡིན་པ	-11.4964
▁ཧ་རི་	-11.4964
▁བརྟ་	-11.4978
▁བརླག་པ	-11.4978
▁བསྲུངས་པ	-11.4978
▁ཡོ	-11.4978
▁སྦ་བ	-11.4978
▁ཨིན་	-11.4978
▁ཁ་ན་མ་ཐོ་	-11.4993
▁ངེས	-11.4993
▁ཐོ་རངས་	-11.4993
▁བསྲུངས་པ་	-11.4993
▁སྐྱོབ་	-11.4993
▁ཐ་མལ་པ་	-11.5022
▁ཆུངས་	-11.5036
▁བསུ་བ་	-11.5036
▁བྱོན་པ	-11.5036
▁མ་བྱུང་བ	-11.5036
▁གཟི་	-11.5051
▁སྒྲིབ་	-11.5051
▁ཀུན་འབྱུང་བ	-11.5065
▁དཔེ་མེད་	-11.5065
▁དམའ་བ	-11.5065
▁ཕོ་ཉ	-11.5065
▁འཇམ་རྩི་	-11.5065
▁བཀྲུ་བ་	-11.508
▁བརྙས་པ་	-11.508
▁སླ་	-11.508
▁དབུལ་པོ་	-11.5095
▁ཕྲིན་	-11.5095
▁མངར་	-11.5095
▁མཚོ	-11.5095
▁ཞིང་ཁམས་	-11.5095
▁ལ་སྟོང་པ་	-11.5095
▁ལྗང་	-11.5095
▁དུམ་	-11.5109
▁བརྩིགས་	-11.5109
▁བསྟེན	-11.5109
▁བདར་	-11.5124
▁བསྒྲུབ	-11.5124
▁རྣམ་འགྲེལ་	-11.5124
▁སྟེན་པ	-11.5124
▁ཕལ་	-11.5138
▁མཚམས་མེད་པ	-11.5138
▁ཤུདྡྷ་	-11.5138
▁སྟེར	-11.5138
▁སྤྲ	-11.5138
▁འཐུང་བ	-11.5153
▁གྱུར་བ་	-11.5168
▁རྫུས་	-11.5168
▁སྐོར་	-11.5168
▁མཚང་	-11.5183
▁ས་ཡ་	-11.5183
▁གཏོད་པ	-11.5197
▁གྷུ་	-11.5197
▁ཨེ་མ་	-11.5197
▁དྲཱ་	-11.5212
▁བསྐོས་པ་	-11.5212
▁རྙེད	-11.5212
▁གཏིང་དཔག་	-11.5227
▁མཆོག་མ་	-11.5227
▁ཙ་ར་	-11.5227
▁ཁུངས་	-11.5242
▁རྐུ་བ	-11.5242
▁བརྗེད་པ་	-11.5256
▁བུ་ལོན་	-11.5256
▁མ་ཧེ	-11.5256
▁འཇལ་བ་	-11.5256
▁རྗོད་པ་	-11.5256
▁ཥ	-11.5256
▁ཧུཾ་	-11.5256
▁ད་ལྟར་བ་	-11.5271
▁མཉམ	-11.5271
▁མི་གཙང་	-11.5271
▁འཁྲུ་བ	-11.5271
▁རྣོ་བ	-11.5271
▁ལྷན་ཅིག་པ་	-11.5271
▁སེན་མོ	-11.5271
▁ཏྲཾ་	-11.5286
▁དཔལ	-11.5286
▁མུན་	-11.5286
▁ཁྱིམ་ཐབ་	-11.5301
▁བཙོ	-11.5301
▁བརྗོད་བྱ	-11.5301
▁བྷྱོ་	-11.5301
▁མར་མེ་མཛད་	-11.5301
▁སྤྲད་	-11.5301
▁ངང་པ	-11.5316
▁མོ་གཤམ་	-11.5316
▁རྒྱ་གྲམ་	-11.5316
▁ལས་བྱང་	-11.5316
▁ལིཊ་	-11.5316
▁སྐྱ་	-11.5316
▁སྡང་	-11.5316
▁དབྱངས་ཅན་	-11.5331
▁ཞུ	-11.5346
▁ལིཾ་	-11.5346
▁ཧྲི་	-11.5346
▁ཀཱར་	-11.5361
▁གཟིར་བ	-11.5361
▁བུདྡྷཱ་	-11.5361
▁ཞོན་པ་	-11.5361
▁རྩུབ་པ	-11.5376
▁ཎཿ	-11.5391
▁རྟོག་གེ་	-11.5391
▁སྒེག་པ་	-11.5391
▁དཔུང་གཉེན་	-11.5406
▁བྱེད་པོ་	-11.5406
▁ཊུ་	-11.5421
▁མ་རུངས་པ	-11.5421
▁འཕེལ	-11.5421
▁འབྱུང་འགྱུར་	-11.5421
▁ནད་མེད་པ་	-11.5436
▁བསྔགས	-11.5436
▁འཆར་	-11.5436
▁འཕྱང་	-11.5451
▁འོན་པ་	-11.5451
▁རང་སེམས་	-11.5451
▁སྒོ་ང་	-11.5466
▁རང་རྒྱལ་	-11.5482
▁ཞོག་	-11.5497
▁སྐུལ་བ	-11.5497
▁སྲིན་མོ་	-11.5497
▁གཅི་བ་	-11.5512
▁ཐིག་སྐུད་	-11.5512
▁མཐུ་ཆེན་	-11.5512
▁བསྒྲགས	-11.5527
▁རས་བལ་	-11.5527
▁རྨྱི་ལམ་	-11.5527
▁ཕུང་	-11.5542
▁ཞོན་པ	-11.5542
▁ལུའི་	-11.5542
▁ཁོན་	-11.5558
▁གླེན་པ་	-11.5558
▁ན་ཚུལ་	-11.5573
▁བཟ	-11.5573
▁བརྟན་པོ	-11.5573
▁འཕྲོད་པ་	-11.5573
▁འབྲུམ་བུ་	-11.5573
▁འཕངས་	-11.5588
▁དགེ	-11.5604
▁དངང་	-11.5604
▁པཱི་	-11.5604
▁འབབ་ཆུ་	-11.5604
▁སྲན་	-11.5604
▁བྷ་བ	-11.5619
▁འཁྲིག་པ	-11.5619
▁ལྷན་སྐྱེས་	-11.5619
▁སྔོ་བ་	-11.5619
▁བྷྱ་	-11.5634
▁རྣམ་འགྱུར་	-11.5634
▁སྲིན་བུ	-11.5634
▁གཟོད་མ་	-11.565
▁བྲག་	-11.565
▁རྔ་ཡབ་	-11.565
▁ལྟག་མ་	-11.565
▁ཕ་མ	-11.5665
▁མཁའ་སྤྱོད་	-11.5665
▁རྒྱུ་དག་	-11.5665
▁ལ་སྒོ་	-11.5665
▁དང་ག་	-11.5681
▁དྲོ་	-11.5681
▁བར་སྐབས་	-11.5681
▁ཀུན་བདག་	-11.5696
▁བརྩོན	-11.5712
▁ཊཱི་	-11.5727
▁དེ་འོག་	-11.5727
▁བདོག་པ་	-11.5727
▁བྱུགས་པ	-11.5727
▁རན་པ	-11.5727
▁ཀུན་བརྟགས་པ་	-11.5743
▁གཅིག་ཅིག་	-11.5743
▁ཎའི་	-11.5743
▁བཅུ་གཉིས་པོ་	-11.5743
▁བྱིང་བ་	-11.5743
▁བླུགས་པ་	-11.5743
▁འགྲུབ་པོ	-11.5743
▁སྟུག་པོ་	-11.5743
▁སྨན་མར་	-11.5743
▁ཁོ་མོ	-11.5758
▁དེ་ལྟ	-11.5758
▁ནོན་པ་	-11.5758
▁བཀང་བ	-11.5758
▁མཁོ་བ་	-11.5758
▁དོན་དག་	-11.5774
▁བརྒྱལ་བ་	-11.5774
▁བསྐྱབ་པ་	-11.5774
▁ཡང་སྲིད་	-11.5774
▁བཅུ་གསུམ་པ་	-11.579
▁བྱུག་	-11.579
▁མྱུ་གུ	-11.579
▁རྟེན་འབྲེལ་	-11.579
▁ལྷ་བཤོས་	-11.579
▁ཛཱི་	-11.5805
▁འདུ་འཛི་	-11.5805
▁སྲ་བ	-11.5805
▁གྱོན་པ་	-11.5821
▁ཕོད་	-11.5821
▁བཞི་ཆ་	-11.5821
▁འགྲེལ་	-11.5821
▁རིགས་མཆོག་	-11.5821
▁རྒ་	-11.5821
▁ཕུད་	-11.5837
▁བསྣུན་པ	-11.5837
▁གསེར་འོད་	-11.5852
▁རློབ་པ་	-11.5852
▁གསད་	-11.5868
▁གྲོགས་པོ	-11.5868
▁གླ་སྒང་	-11.5868
▁བཏིང་བ་	-11.5868
▁མིག་ནད་	-11.5868
▁ཟློག་	-11.5868
▁གྲི་	-11.5884
▁ཆུ་གཏེར་	-11.5884
▁བམ་	-11.5884
▁བྱོས	-11.5884
▁མི་ལྟ་བ	-11.5884
▁ཨ་མ་	-11.5884
▁གཡོག་འཁོར་	-11.59
▁འཆགས་པ	-11.59
▁རི་ཁྲོད་	-11.59
▁རོ་མྱང་བ་	-11.59
▁སྤྲོ	-11.59
▁ཁོ་མོ་	-11.5916
▁གླིང་བུ་	-11.5916
▁འགྲོགས་པ	-11.5916
▁རྒོད་	-11.5916
▁སྐུད་པ	-11.5916
▁ཁུང་བུ་	-11.5932
▁བདེ་བླག་	-11.5932
▁རིལ་	-11.5932
▁གདུངས་པ་	-11.5947
▁ཆོས་མཆོག་	-11.5947
▁ཎྱ་	-11.5947
▁དཔའ་བ་	-11.5947
▁དྷའི་	-11.5947
▁མིག་ཡོར་	-11.5947
▁རྔོ་	-11.5947
▁ལྷུར་	-11.5947
▁ས་སྟེང་	-11.5947
▁ཁེབས་པ	-11.5963
▁དབྱིག་པ་	-11.5963
▁དམུས་ལོང་	-11.5963
▁ཚེས་བཅུ་	-11.5963
▁ཡེ་ནས་	-11.5963
▁ལེན	-11.5963
▁གཉིད་ལོག་པ་	-11.5979
▁ཚིམ་པ་	-11.5979
▁སྐྱུག་སྨན་	-11.5979
▁གདུལ་བ་	-11.5995
▁ཅེ་སྤྱང་	-11.5995
▁ཐིམ་པ་	-11.5995
▁བཞུད་	-11.5995
▁བླ་གབ་	-11.5995
▁སྦེད་	-11.5995
▁འཆད	-11.6011
▁འཐོན་	-11.6011
▁རྣམ་དག་པ	-11.6027
▁ཥཱ་པ་	-11.6027
▁སྐད་ཅིག་པ་	-11.6027
▁བསམ་ཡས་	-11.6043
▁བྷིཿ	-11.6043
▁ལ་ཆ་	-11.6043
▁སྤྱི་བླུགས་	-11.6043
▁སྨ་	-11.6043
▁སྨྱོན་པ་	-11.6043
▁གདུ་བུ་	-11.6059
▁དགེ་ཚུལ་མ་	-11.6059
▁བསྐྲད་	-11.6059
▁མཆུ	-11.6059
▁རེངས་པ་	-11.6059
▁གང་དེ	-11.6075
▁ཡང་སྲིད་པ	-11.6075
▁ལ་ལོ་	-11.6075
▁སྟོབས་ལྡན་	-11.6075
▁ག་པུར་	-11.6092
▁བན་	-11.6092
▁བསྐོས་	-11.6092
▁བྃ་	-11.6092
▁མདུན་ན་འདོན་	-11.6092
▁གསོན་	-11.6108
▁ངལ་བ	-11.6108
▁དོན་གྲུབ་	-11.6108
▁དྭ་	-11.6108
▁བདག་མོ་	-11.6108
▁བཙོས་པ་	-11.6108
▁རྣོ་	-11.6124
▁ཕྱི་རོལ་པ་	-11.614
▁ཕྱིར་དུ	-11.614
▁ཁྲོས་པ་	-11.6156
▁ཎཱཾ་	-11.6156
▁ཕོག་པ	-11.6173
▁བནྡེ་	-11.6173
▁སྨྱིག་	-11.6173
▁ཨེ	-11.6173
▁ནིའི་	-11.6189
▁བཀླག་པ	-11.6205
▁ཡཱ	-11.6205
▁སྨོད་	-11.6205
▁མནར་མེད་པ	-11.6221
▁གདབ་བོ	-11.6238
▁བཀྲམ་	-11.6238
▁བསྐུ་བ	-11.6238
▁འཇིམ་པ་	-11.6238
▁འདྲིར་	-11.6238
▁ཀ་རུ་	-11.6254
▁ཆག་	-11.6254
▁ཉེན་	-11.6254
▁བྷྲྀ་	-11.6254
▁སྨ་ར་	-11.6254
▁རྔ་མོ་	-11.6271
▁ཉེར་བསྡོགས་	-11.6287
▁ནེའི་	-11.6287
▁ཡང་མིག་	-11.6287
▁བཅང་	-11.6303
▁མ་ཏི་	-11.6303
▁བཏུས་པ་	-11.632
▁འདྲེ་བ་	-11.632
▁སེམས་ཤེས་པ་	-11.632
▁ཎཱཾ	-11.6336
▁དགུན་	-11.6336
▁དངུལ་ཆུ་	-11.6336
▁གནྡྷ་	-11.6353
▁ལྷུན་པོ་	-11.6353
▁སྟོང་པ་ཉིད	-11.6353
▁དྷརྨྨ་	-11.637
▁ཕྱོགས	-11.637
▁བདག་ཉིད	-11.637
▁མཆིལ་མ་	-11.637
▁འབྲལ་	-11.637
▁རྨད་བྱུང་	-11.637
▁ལ་སོ	-11.637
▁སྒྲ་དབྱངས་	-11.637
▁རྔ་བོ་	-11.6386
▁ལྀ་	-11.6386
▁ཀུན་བརྟགས་	-11.6403
▁ནཱ	-11.6403
▁རྒས་པ་	-11.6403
▁སཿ	-11.6403
▁བཀུར་བ	-11.6419
▁བགོ་བ་	-11.6419
▁བཞད་པ	-11.6419
▁རྒལ་བ་	-11.6419
▁མཆོག་ཉིད་	-11.6436
▁མུཿ	-11.6436
▁ཚུགས་	-11.6436
▁ཚེམས་	-11.6436
▁ལེ་ལོ	-11.6436
▁དགང་	-11.6453
▁དམུ་རྫིང་	-11.6453
▁བཱན་	-11.6453
▁རབ་ཏུ་གཡོ	-11.647
▁རྒྱས་བཏབ་པ	-11.647
▁ཆག་ཆག་	-11.6486
▁དུཿ	-11.6486
▁བཤང་བ	-11.6486
▁བོད་པ་	-11.6486
▁འདི་བཞིན་	-11.6486
▁མ་ནུ་	-11.6503
▁སྩལ་བ་	-11.6503
▁ཕྱོགས་སྐྱོང་	-11.652
▁རེ་བ	-11.652
▁ཕུར་པ་	-11.6537
▁ཡཱཾ་	-11.6537
▁གནམ་	-11.6571
▁གཞལ་བ	-11.6571
▁གཟེར་	-11.6571
▁དྷྱ་	-11.6571
▁ཕོག་པ་	-11.6571
▁བྱ་ན་	-11.6571
▁མཆེ་བ	-11.6571
▁སྐྱུ་རུ་ར་	-11.6571
▁དཔའ་མོ་	-11.6588
▁འཐོབ་པོ	-11.6588
▁དྷ	-11.6604
▁མིག་འཕྲུལ་	-11.6604
▁ཙནྡྲ་	-11.6604
▁རྩེད་མོ་	-11.6604
▁ཤེས་རབ་བོ	-11.6604
▁སྐམ་པོ་	-11.6604
▁སྔོན་རོལ་	-11.6604
▁ཀ་ར	-11.6621
▁ཀྲྀཏ་	-11.6621
▁གཙིགས་པ	-11.6638
▁དཔུང་རྒྱན་	-11.6638
▁དམ་བཅའ་	-11.6638
▁བློན་པོ	-11.6638
▁འོངས	-11.6638
▁ཡང་ཕྱི་	-11.6638
▁རིག་མ	-11.6638
▁སྔ་ལྟས་	-11.6638
▁གཅན་གཟན་	-11.6656
▁གྱུར་བ	-11.6656
▁དེས་པ་	-11.6656
▁འགུལ་	-11.6656
▁འདུད་	-11.6656
▁རི་ལུ་	-11.6656
▁སྙུན་	-11.6656
▁ཎཾ་	-11.6673
▁དུས་ཕྱིས་	-11.6673
▁ཕེབས་པ	-11.6673
▁བརྒལ་བ	-11.6673
▁མཐོལ་	-11.6673
▁འབྲིང་པོ	-11.6673
▁རྩིག་པ	-11.6673
▁རྩིབ་ལོགས་	-11.6673
▁སྟི་	-11.6673
▁བྲག་ཅ་	-11.669
▁ཚངས་རིས་	-11.669
▁ནེམ་ནུར་	-11.6707
▁མཉམ་མེད་	-11.6707
▁མཛེས་མ་	-11.6707
▁རིམ་གྲོ་པ་	-11.6707
▁ཅི་རིགས་	-11.6724
▁བཅོས་མ་	-11.6724
▁བརྐུས་	-11.6724
▁བརྩམ	-11.6724
▁འཇིགས་མེད་	-11.6724
▁འདི་འདྲ་བ་	-11.6724
▁ལོ་ཀ་	-11.6724
▁སྙིང་བརྩེ་བ་	-11.6724
▁སྟོན་ཀ	-11.6724
▁ཕལ་པ་	-11.6741
▁བྱད་	-11.6741
▁སྦྲང་བུ་	-11.6741
▁འདོམ་གང་	-11.6758
▁ལྡོང་རོས་	-11.6758
▁ཤ་པ་	-11.6758
▁གཡང་ས་	-11.6776
▁ཅང་ཏེའུ་	-11.6776
▁འདུས་མ་བྱས་པ	-11.6776
▁ཡི་ག་	-11.6776
▁ལུས་འཕགས་	-11.6776
▁ཤིས་པ་	-11.6776
▁གཙིགས་	-11.6793
▁ཕྱི་མོ་	-11.6793
▁མཐུ་སྟོབས་	-11.6793
▁མོན་སྲན་	-11.6793
▁ལྷ་ཁང་	-11.6793
▁གཉིད་ལོག་	-11.681
▁བཅུ་བཞི	-11.681
▁འཁྲུག་	-11.681
▁སྣབས་	-11.681
▁ཞན་པ་	-11.6828
▁རྣམ་འཕྲུལ་	-11.6828
▁ལྐོག་མ་	-11.6828
▁ཐགས་	-11.6845
▁དར་བ་	-11.6845
▁བརྐོས་	-11.6845
▁ཟ་མ་ཏོག་	-11.6845
▁འཕགས	-11.6845
▁འབབ	-11.6845
▁ཡང་སྲིད་པ་	-11.6845
▁སྣུམ་པ་	-11.6845
▁ཧ་ས་	-11.6845
▁བཛྲ	-11.6862
▁མཁས	-11.6862
▁ལ་རྩེ་	-11.6862
▁སུམ་བརྒྱ་	-11.6862
▁སྟེགས་བུ་	-11.6862
▁ན་སོ་	-11.688
▁དབྱི་	-11.6897
▁ས་གཞི	-11.6897
▁བཀབ་	-11.6915
▁བཅབས་པ	-11.6915
▁བཅུ་གསུམ་པ	-11.6915
▁བཅོས་པ་	-11.6915
▁མྱང་བ	-11.6915
▁རྒྱས	-11.6915
▁བརྒྱལ་	-11.6932
▁བརྙས་	-11.6932
▁མིང་མེད་	-11.6932
▁ལྷགས་པ	-11.6932
▁སྨྱོ་	-11.6932
▁ཁྲོན་པ་	-11.695
▁གྱོན་པ	-11.695
▁ནི་གུ	-11.6968
▁མཛེ་ནད་	-11.6968
▁ཀླན་ཀ་	-11.6985
▁ཁོང་སྟོང་	-11.6985
▁ངོམས་པ	-11.6985
▁བསྐུ་	-11.6985
▁འོད་འཕྲོ་	-11.6985
▁གྲུབ་པོ་	-11.7003
▁ཉིད་པ	-11.7003
▁རིལ་བ་	-11.7003
▁བརྩལ་	-11.702
▁ཟློས་པ་	-11.702
▁འདི་འདྲ་བ	-11.702
▁ལཿ	-11.702
▁གར་མཁན་	-11.7038
▁དལ་བུ	-11.7038
▁མུ་གེ་	-11.7038
▁རི་བོ	-11.7038
▁ཤིང་བལ་	-11.7038
▁དྲིང་	-11.7056
▁བཅུག	-11.7056
▁བརྐུས་པ་	-11.7056
▁རུ་རྟ་	-11.7056
▁གཏུམ་མོ	-11.7074
▁ཆེས་པ	-11.7074
▁བཅབས་པ་	-11.7074
▁རྗེའུ་རིགས་	-11.7074
▁དུས་ཚིགས་	-11.7092
▁སྐྱུར་བ་	-11.7092
▁ཏེའོ	-11.7109
▁སོལ་བ་	-11.7109
▁དགེ་སློབ་མ་	-11.7127
▁མཐའ	-11.7127
▁ཚུགས་པ	-11.7127
▁ཡོ་ག་	-11.7127
▁ལཾ	-11.7127
▁གདུག་	-11.7145
▁ཐོར་ཚུགས་	-11.7145
▁མཐའ་མེད་	-11.7145
▁ཡུ་བ་	-11.7145
▁སུམ་ཅུ	-11.7145
▁ཡུམ	-11.7163
▁རེངས་	-11.7163
▁ཡན་	-11.7181
▁བསྐྱང་བ	-11.7199
▁བསྡམ་པ	-11.7199
▁རིགས་གསུམ་	-11.7199
▁ས་བཅུ་པ་	-11.7199
▁སྲོག་གཅོད་པ	-11.7199
▁ཀུན་དགའ་ར་བ	-11.7217
▁ཎཱི	-11.7217
▁འདོད་མ་	-11.7217
▁རྩྭ	-11.7217
▁ཞབས་བསིལ་	-11.7235
▁གོང་བུ	-11.7253
▁ཏྲེ་	-11.7253
▁བཞད་	-11.7253
▁བསྐུ་བ་	-11.7253
▁མད	-11.7253
▁རྗེས་འགྲོ་	-11.7253
▁སྟེང་འོག་	-11.7253
▁བརྟན	-11.729
▁བཤེས་	-11.729
▁སྟུ་	-11.729
▁བདུགས་	-11.7308
▁ཁོང་ཁྲོ་བ	-11.7326
▁ནད་མེད་པ	-11.7326
▁རྡོ་བ་	-11.7326
▁སྨད་གཡོགས་	-11.7326
▁གསེབ་	-11.7344
▁དཀྲུགས་	-11.7344
▁མཉེས་པ་	-11.7344
▁གནོན	-11.7363
▁ཉམ་ང་བ་	-11.7363
▁དེ་ནས	-11.7363
▁ཚོན་རྩི་	-11.7363
▁འཆི་མེད་	-11.7363
▁འཐུངས་པ་	-11.7363
▁སྩོགས་པ་	-11.7363
▁ཏུཏྟཱ་	-11.7381
▁བཅུ་བཞི་པ	-11.7381
▁བཟའ	-11.7381
▁གཾ་	-11.7399
▁མཆིད་	-11.7399
▁ཐང་ཤིང་	-11.7418
▁ས་གོང་	-11.7418
▁ཧཱ་བ་	-11.7418
▁གཡེངས་པ་	-11.7436
▁དགའ་བོ	-11.7436
▁བཞི་པོ	-11.7436
▁མིག་དམར་	-11.7436
▁འཆལ་བ	-11.7436
▁འདུས་བྱས་པ	-11.7436
▁སོ་མ་	-11.7436
▁ཀེ	-11.7455
▁ཐུང་བ་	-11.7455
▁བཅའ་སྒ་	-11.7455
▁བསྒྲེང་བ	-11.7455
▁རབ་གསལ་	-11.7455
▁ས་ག་	-11.7455
▁པང་	-11.7473
▁མཐུ་ཆེན་པོ་	-11.7473
▁ཁམས	-11.7492
▁གཡེངས་པ	-11.7492
▁དབྱུག་པ	-11.7492
▁བཀུག་པ་	-11.7492
▁བསྒྲེང་བ་	-11.7492
▁སྐྲོད་པ	-11.751
▁གཟི་བྱིན་	-11.7529
▁རྣམ་ཀུན་	-11.7529
▁སྤུ	-11.7529
▁བརྗེད་	-11.7547
▁མཆི་མ	-11.7547
▁སྐྲ་ཤད་	-11.7547
▁ཁོ་ར་	-11.7566
▁ནོངས་པ་	-11.7566
▁བཀྲ་བ	-11.7566
▁བབས་པ	-11.7566
▁བུ་ཆེན་པོ	-11.7566
▁སྣ་སྨན་	-11.7566
▁ཕོངས་	-11.7585
▁བཞོན་པ	-11.7585
▁བསྒོས་པ་	-11.7585
▁འདྲེ་བ	-11.7585
▁སྒོ་ཁྱུད་	-11.7585
▁ཨ་མྲ་	-11.7585
▁བཙུན་པ	-11.7604
▁ཟུག་	-11.7604
▁ཤུན་པ་	-11.7604
▁ངེས་འབྱུང་	-11.7622
▁ཐོས	-11.7622
▁མ་རུངས་	-11.7622
▁རྣམ་རིག་	-11.7622
▁སྦེད་པ	-11.7622
▁བྱུགས་པ་	-11.7641
▁རཱ	-11.7641
▁ལུས་སོ	-11.7641
▁ལྷ་ཚོགས་	-11.7641
▁གླུ་དབྱངས་	-11.766
▁པུཀྐ་	-11.766
▁བཏིང་བ	-11.766
▁མི་ལ	-11.766
▁མྱ་ངན་མེད་	-11.766
▁སོས་པ	-11.766
▁གག	-11.7679
▁ནི་ལ་	-11.7679
▁བཛྲི་	-11.7679
▁བཞད་པ་	-11.7679
▁རྒུད་པ་	-11.7679
▁སྤང་བྱ་	-11.7679
▁སྨྱུང་བ	-11.7679
▁བཏུབ་	-11.7698
▁བརྟན་པོ་	-11.7698
▁སྟེན་	-11.7698
▁ཨཎ་	-11.7698
▁གདེངས་ཀ་	-11.7717
▁ཆེས་པ་	-11.7717
▁བཅོམ	-11.7717
▁མི་འཆད་པ་	-11.7717
▁འགྲམ་པ་	-11.7717
▁གཞོལ་	-11.7736
▁མི་མངོན་པ	-11.7736
▁འདི་པ་	-11.7736
▁སྐེམ་	-11.7736
▁འོང་ཞིང་	-11.7755
▁གྱོ་མོ་	-11.7774
▁ངུ་འབོད་	-11.7774
▁ངོམས་	-11.7774
▁བཾ	-11.7774
▁ལག་ནས་	-11.7774
▁སྐལ་	-11.7774
▁ཏི་ལ་	-11.7793
▁དྷྭ་	-11.7793
▁མཁྲིས་	-11.7793
▁མཚུངས་མེད་	-11.7793
▁མྱོས་བྱེད་	-11.7793
▁འཇུ་བ	-11.7793
▁རན་	-11.7793
▁རིམ་གྲོ་པ	-11.7793
▁རྫ་རྔ་	-11.7793
▁སྟོན་པ་པོ་	-11.7793
▁རྗེས་དཔག་	-11.7812
▁ཀུན་རྟོག་	-11.7831
▁གཅིག་ཚིག་	-11.7831
▁དབུ་མ་པ་	-11.7831
▁ཕོ་མཚན་	-11.7831
▁བང་	-11.7831
▁བསོད་སྙོམས་པ་	-11.7831
▁བུས་པ་	-11.7831
▁ཟླ་མཚན་	-11.7831
▁རཀྟ་	-11.7831
▁སྡིག་ཏོ་	-11.7831
▁བསྒྲིམས་	-11.785
▁བྷཱི་	-11.785
▁མུ་སྟེགས་པ་	-11.785
▁སྙིང་བརྩེ་བ	-11.785
▁བཀྲ་	-11.787
▁བྱི་རུ་	-11.787
▁མཐའ་མེད་པ	-11.787
▁ཞུམ་	-11.787
▁དཔོན་	-11.7889
▁བརླབ	-11.7889
▁གདིང་	-11.7908
▁གཞི་མེད་པ	-11.7908
▁གཞུ	-11.7908
▁མཆན་ཁུང་	-11.7908
▁མཆི་བ་	-11.7908
▁རྐུ་	-11.7908
▁རྒྱགས་	-11.7908
▁ལྗོན་པ	-11.7908
▁སྦྱིན་པ་པོ་	-11.7908
▁།།	-11.7928
▁བརྒྱལ་བ	-11.7928
▁བོང་བུ	-11.7928
▁ཆུ་ཟླ་	-11.7947
▁ཕྱིས་པ	-11.7947
▁མི་མཆོག་	-11.7947
▁ཞིང་བདག་	-11.7947
▁ཨ་མྲ	-11.7947
▁གསེར་མདོག་	-11.7966
▁གྲལ་	-11.7966
▁དགག་	-11.7966
▁དགང་བླུགས་	-11.7966
▁བཀུག་པ	-11.7966
▁བདུན	-11.7966
▁རྒས་	-11.7966
▁ཤཿ	-11.7986
▁སྡོམ་བརྩོན་	-11.7986
▁ཐ་མལ་	-11.8005
▁བསྙད་	-11.8005
▁ཙ་པ་	-11.8005
▁ལུས་ཟུངས་	-11.8005
▁ལྟ་སྟངས་	-11.8005
▁ཥཱི་	-11.8005
▁སྣམ་བུ	-11.8005
▁དགའ་མ་	-11.8025
▁མཐའ་མ	-11.8025
▁མདུང་རྩེ་	-11.8025
▁ཟློག་པ་	-11.8025
▁འབུལ་བ་	-11.8025
▁ཡོལ་བ	-11.8025
▁ལ་པ་	-11.8025
▁གསར་པ་	-11.8045
▁ཕུ་ནུ་	-11.8045
▁མཆིལ་ལྷམ་	-11.8045
▁རི་བྲགས་	-11.8045
▁ཀ་བ	-11.8064
▁གྷོ་	-11.8064
▁ཡིད་བརྟན་	-11.8064
▁རབ་དགའ་	-11.8064
▁མནན	-11.8084
▁ལུཊ་	-11.8084
▁སྔོན་མ	-11.8084
▁བཏབ་བོ	-11.8104
▁མང་ཚིག་	-11.8104
▁འཕྲོགས་པ	-11.8104
▁ནུ་མ	-11.8123
▁དཔེ་མེད་པ	-11.8143
▁ཚེ་གང་	-11.8143
▁ལྗོངས་རྒྱུ་	-11.8143
▁བཞམས་	-11.8163
▁འདུས་བྱས་པ་	-11.8163
▁འཛིན་མ་	-11.8163
▁འོད་འཕྲོ	-11.8163
▁འོད་ལྡན་	-11.8163
▁རྒྱུག་	-11.8163
▁རྣ་ཆ་	-11.8163
▁སྐུལ་བྱེད་	-11.8163
▁གཞུང་ལས་	-11.8183
▁ནྲྀ་	-11.8183
▁འཁོར	-11.8183
▁འབངས་	-11.8183
▁ཡིད	-11.8183
▁ལྕུག་མ་	-11.8183
▁དྷྲྀཀ་	-11.8203
▁བརྗེད་བྱེད་	-11.8203
▁འགྲེང་བ་	-11.8203
▁འཇིག	-11.8203
▁ལན་ཚྭ	-11.8203
▁ཤ་ཁུ་	-11.8203
▁ཏི་ལ	-11.8223
▁བཞད་གད་	-11.8223
▁འཕྱང་བ	-11.8223
▁ལྐོག་མ	-11.8223
▁སྒྲུབ་པོ	-11.8223
▁བྱང་སེམས་	-11.8243
▁ཛོ་	-11.8243
▁འཁྲུར་	-11.8243
▁ཡིད་འཕྲོག་	-11.8243
▁གཏོར་བ་	-11.8263
▁དུབ་པ་	-11.8263
▁མདོར་ན	-11.8263
▁ཟླ་ཕྱེད་	-11.8263
▁འགྲོལ་	-11.8263
▁སུཾ་	-11.8263
▁དཔྱོད་	-11.8283
▁བཀྲ་ཤིས་པ	-11.8283
▁བཞི་ཆ	-11.8283
▁བླུགས་གཟར་	-11.8283
▁རྡུལ་མེད་	-11.8283
▁ཀུན་ཤེས་པ་	-11.8303
▁ཕྲལ་	-11.8303
▁བཅུ་བཞི་པ་	-11.8303
▁བསྙད་པ	-11.8303
▁ཁྲུང་	-11.8323
▁ཆུ་ལྷ་	-11.8323
▁ཐུན་ཚོད་	-11.8323
▁ཕོ་བ	-11.8323
▁མཐོན་པོ	-11.8323
▁ཚར་གཅོད་པ	-11.8323
▁རྒྱལ་མཆོག་	-11.8323
▁བཅིངས	-11.8343
▁བརྡུང་བ	-11.8343
▁བསྐོས་པ	-11.8343
▁མཁའ་ལྡིང་	-11.8343
▁མཐོ	-11.8343
▁འཐུན་	-11.8343
▁འཚེ་	-11.8343
▁རང་དོན་	-11.8343
▁སྟོབས	-11.8343
▁གདོད་མ་	-11.8363
▁དར་ལ་	-11.8363
▁ཕྱིར་བཅོས་པ་	-11.8363
▁བཞེད	-11.8363
▁བསྣུན་པ་	-11.8363
▁སྩོགས་	-11.8363
▁ཁེངས་པ	-11.8384
▁གཏུགས་པ	-11.8384
▁དབྱར་ཟླ་	-11.8384
▁དོན་གཉེར་	-11.8384
▁བཀུར་	-11.8384
▁ཡོཿ	-11.8384
▁སྟྭཾ	-11.8384
▁ཐལ་སྨན་	-11.8404
▁བད་	-11.8404
▁བསླབ་	-11.8404
▁འཐབ་པ	-11.8404
▁ལས་ལོག་པ	-11.8404
▁དགང་བ	-11.8424
▁བརྟགས	-11.8424
▁བསྒོའོ	-11.8424
▁བུ་དཔེ	-11.8424
▁མཐའ་མེད་པ་	-11.8424
▁འཕྲོག་བྱེད་	-11.8424
▁གཏད་པ་	-11.8445
▁བསྣོལ་	-11.8445
▁ཚེས་གྲངས་	-11.8445
▁གཅེར་བུ་པ་	-11.8465
▁གཙིགས་པ་	-11.8465
▁པཿ	-11.8465
▁འབྲུག་	-11.8465
▁དམ་བཅའ་བ	-11.8486
▁འབྲོས་པ	-11.8486
▁གཞོགས་	-11.8506
▁ཉ་ཕྱིས་	-11.8506
▁ནག་པ་	-11.8506
▁བཟོའི་	-11.8506
▁སྡོད་པ་	-11.8506
▁དོན་མཐུན་	-11.8527
▁བཀུར་བ་	-11.8527
▁བཟློག	-11.8527
▁ཚིག་རྐང་	-11.8527
▁འཁྲུལ་བ	-11.8527
▁ཁྱེའུ	-11.8547
▁འཇིམ་པ	-11.8547
▁འབུལ	-11.8547
▁འཛུམ་པ	-11.8547
▁རྒན་པ་	-11.8547
▁རྟོན་པ	-11.8547
▁ཤོས་	-11.8547
▁ཀྲོལ་	-11.8568
▁ཎའོ	-11.8568
▁དྲེགས་པ	-11.8568
▁བསྒྲལ་	-11.8568
▁འཕེན་	-11.8568
▁རྒྱགས་པ	-11.8568
▁དཱུ་	-11.8589
▁བེམས་པོ་	-11.8589
▁ཤུལ་	-11.8589
▁སྣང་བྱེད་	-11.8589
▁དབྱུ་གུ་	-11.8609
▁བཅོལ་	-11.8609
▁ཚེ་རིང་	-11.8609
▁རོལ	-11.8609
▁རྒ་བ	-11.8609
▁ལྟོ་བ	-11.8609
▁སྤྱན་སྔ་	-11.8609
▁གཉིད་ལོག་པ	-11.863
▁མཁར་	-11.863
▁སོ་ཕག་	-11.863
▁སྨིན་མཚམས་	-11.863
▁གཡས་སྐོར་	-11.8651
▁དང་རུས་	-11.8651
▁མཐོ་གང་	-11.8651
▁ལྟ་བ་པོ་	-11.8651
▁དྷི་པ་	-11.8672
▁བསྒོས་	-11.8672
▁འབྱིན	-11.8672
▁སྣ་བུག་	-11.8672
▁སྤ་	-11.8672
▁གཞང་	-11.8693
▁དགང་གཟར་	-11.8693
▁བསྐུར	-11.8693
▁ཟླུམ་	-11.8693
▁སྔ་ཕྱི	-11.8693
▁བྱ་ན	-11.8714
▁འཇལ་བ	-11.8735
▁ཡུལ	-11.8735
▁མི་དགེ	-11.8756
▁ཡུལ་མི་	-11.8756
▁ས་བ་	-11.8756
▁དཀོན་	-11.8777
▁བ	-11.8777
▁མཐའ་མི་	-11.8777
▁རྡོ	-11.8777
▁ལ་ཆེན་པོ་	-11.8777
▁ཤིས་པ	-11.8777
▁སྒྲུབ་པོ་	-11.8777
▁སྨྱོས་པ་	-11.8777
▁སྲུང་མ་	-11.8777
▁ཀཱ་ལི	-11.8798
▁ཁ་རུ་	-11.8798
▁གླེང་བ་	-11.8798
▁ན་མ	-11.8798
▁མུ་མེད་པ་	-11.8798
▁བསོད་པ་	-11.8819
▁བཙས་པ	-11.884
▁མནར་སེམས་	-11.884
▁རི་དྭགས་	-11.884
▁བམ	-11.8861
▁བརླན་པ	-11.8861
▁བསྡིགས་པ	-11.8861
▁གཏུན་ཤིང་	-11.8883
▁གསེར་དངུལ་	-11.8883
▁ཉམས་མྱོང་	-11.8883
▁བསམ་གཏན་པ་	-11.8883
▁བིད་	-11.8883
▁ལེགས་བྱས་	-11.8883
▁གཏང་བ་	-11.8925
▁དར་དཔྱངས་	-11.8925
▁ནི་བ་	-11.8925
▁མ་ཚང་བ	-11.8925
▁མུ་མེད་པ	-11.8925
▁མྱང་བ་	-11.8925
▁སུམྦྷ་	-11.8925
▁ཆུ་སྲང་	-11.8947
▁དབྱིངས	-11.8947
▁བཀྲམ་པ་	-11.8947
▁བར་བར་	-11.8947
▁ཀླད་པ་	-11.8968
▁དཿ	-11.8968
▁དྲི་ཞིམ་པོ་	-11.8968
▁བཛྲེ་	-11.8968
▁འབྲི་བ་	-11.8968
▁རྒྱུད	-11.8968
▁ལྲྀང་	-11.8968
▁སྦེད་པ་	-11.8968
▁སླན་ཆད་	-11.8968
▁གཤེར་བ་	-11.899
▁ནམ་ཕྱེད་	-11.899
▁པྲེ་	-11.899
▁མཉྫུ་	-11.899
▁ཚང་ཚིང་	-11.899
▁འགྲུབ་པོ་	-11.899
▁ཤཱནྟིཾ་	-11.899
▁ཨུད་པ་	-11.899
▁གདམས་	-11.9011
▁འཐུངས་པ	-11.9011
▁འཐོར་བ	-11.9011
▁རྒོད་པ	-11.9011
▁གཞོན་	-11.9033
▁གྲུ	-11.9033
▁ངོགས་	-11.9033
▁ཉམ་ཆུང་བ་	-11.9033
▁བཀླགས་	-11.9033
▁བརྒལ་བ་	-11.9033
▁རྙིང་	-11.9033
▁སྦ་བ་	-11.9033
▁ཀུ་མུ་ད་	-11.9055
▁གཡོན་ཅན་	-11.9055
▁གྲོ་	-11.9055
▁མགྱོགས་པ	-11.9055
▁རྩ་ལག་	-11.9055
▁སྟུག་པོ	-11.9055
▁སྲས	-11.9055
▁ཎཾ	-11.9076
▁དོག་པ་	-11.9076
▁མཐེ་	-11.9076
▁སྐར་ཁུང་	-11.9076
▁སྣོད	-11.9076
▁བསྡད་	-11.9098
▁རློབ་	-11.9098
▁དཔངས་	-11.912
▁བརྡེག་པ	-11.912
▁བིལ་བ་	-11.912
▁འགྱུར་མེད་	-11.912
▁འདུད་པ་	-11.912
▁འདེབས	-11.912
▁རངས་པ་	-11.912
▁གཅོད	-11.9142
▁ངོམས་པ་	-11.9142
▁འབད་རྩོལ་	-11.9142
▁རྗེའི་	-11.9142
▁གྲག་པ	-11.9164
▁གྲོས་	-11.9164
▁ཆ་མཉམ་	-11.9164
▁དཀྱིལ་འཁོར	-11.9164
▁དགྲ་བོ	-11.9164
▁བཙིར་	-11.9164
▁བརྡུང་	-11.9164
▁རྔོན་པ་	-11.9164
▁སྙིང་བརྩེ་	-11.9164
▁ཧི་ཧི་	-11.9164
▁གཟིངས་	-11.9186
▁དགའ་སྟོན་	-11.9186
▁མཛོད་སྤུ་	-11.9186
▁མིག	-11.9186
▁རལ་	-11.9186
▁ངོ་ཚ་བ་	-11.9208
▁ཐིམ	-11.9208
▁མདུད་པ	-11.9208
▁ཞིང་ལས་	-11.9208
▁འཕྱང་བ་	-11.9208
▁བསྣན་པ་	-11.923
▁རུ་རུ་	-11.923
▁ལ་བཏགས་	-11.923
▁སྐྱ་རྦབ་	-11.923
▁ཆུ་ཚགས་	-11.9252
▁སྐམས་	-11.9252
▁གསུམ་པོ	-11.9274
▁བར་གནས་པ	-11.9274
▁བསྡུས	-11.9274
▁མདོ་སྡེ་པ་	-11.9274
▁མཚན་གཞི་	-11.9274
▁མི་འགལ་བ་	-11.9274
▁འབའ་ཞིག་པ་	-11.9274
▁ཤ་ཟ	-11.9274
▁བྲོ་བ་	-11.9296
▁ཛྱ་	-11.9296
▁ཞི་བྱེད་	-11.9296
▁སེང་ཕྲོམ་	-11.9296
▁སྒྲོ་འདོགས་	-11.9296
▁གཡོན་ཕྱོགས་	-11.9319
▁པད་མོ་	-11.9319
▁བྱ་དེ་	-11.9319
▁འཕྲོགས་པ་	-11.9319
▁སྒྲུབ	-11.9319
▁སྙོམས་པ་	-11.9319
▁ཨུད་	-11.9319
▁རཱུ་པ་	-11.9341
▁ཉིད་རང་	-11.9363
▁བསྐོལ	-11.9363
▁འགུགས་	-11.9363
▁རླན་	-11.9363
▁ལས་སྣ་ཚོགས་	-11.9363
▁གཞིག་	-11.9386
▁ཇི་བཞིན་པ་	-11.9386
▁དཔེ་མེད་པ་	-11.9386
▁བཏབ	-11.9386
▁ཡམ་	-11.9386
▁རྒས་པ	-11.9386
▁སྒྲོགས	-11.9386
▁དྲུ་	-11.9408
▁མགྱོགས་	-11.9408
▁ང་རོ	-11.943
▁བསྒྲག་པ	-11.943
▁བྱི་བ་	-11.943
▁འཛུད་པ	-11.943
▁སླེ་ཏྲེས་	-11.943
▁ཀུན་སྤྱོད་	-11.9453
▁དྲང་པོ་	-11.9453
▁ལུས་པོ་	-11.9453
▁གཞོག་	-11.9476
▁གསོན་པ	-11.9476
▁ཉི་ཟླ	-11.9476
▁དཀྲུགས་པ	-11.9476
▁བཅུ་དྲུག་པོ་	-11.9476
▁མི་འདའ་	-11.9476
▁ལྷུར་ལེན་པ་	-11.9476
▁ཤིགས་པ	-11.9476
▁ཁུར་བ་	-11.9498
▁གསུས་པ་	-11.9498
▁གསོབ་	-11.9498
▁ཐུགས་ལས་	-11.9498
▁འདྲེན་མ་	-11.9498
▁རྡོར་	-11.9498
▁སུམ་འགྱུར་	-11.9498
▁གཡོས་པ་	-11.9521
▁འཁྱིལ་	-11.9521
▁ལྷུན་པོ	-11.9521
▁སྒྱུ་རྩལ་	-11.9521
▁དབུ	-11.9544
▁ཟག་པ	-11.9544
▁ས་བཅུ་པ	-11.9544
▁སྐེ་ཚེ་	-11.9544
▁ཨཙ་	-11.9544
▁ཨརྷ་	-11.9544
▁ཁྲིད་པ	-11.9567
▁ཆེ་གེ་མོ	-11.9567
▁ཉམས་སྟོབས་	-11.9567
▁ཉི་ཤུ་རྩ་གཉིས་	-11.9567
▁དྲལ་བ	-11.9567
▁མཆོད་ནས	-11.9567
▁ཞོ	-11.9567
▁འཁོར་བཅས་	-11.9567
▁འཕྱ་བ་	-11.9567
▁འབྲི་བ	-11.9567
▁རྐེད་པ	-11.9567
▁ཉེས་བྱས	-11.9589
▁ད་ར་	-11.9589
▁འཛེགས་	-11.9589
▁ལྐུགས་པ་	-11.9589
▁ཤ་བ་	-11.9589
▁སེའུ་	-11.9589
▁སྙན་དངགས་	-11.9589
▁ཧྲཱི་	-11.9589
▁ཏ་བ་	-11.9612
▁དུ་ཞག་	-11.9612
▁དེ་བཞིན་ཉིད	-11.9612
▁པུས་མོ	-11.9612
▁ཟ་མ་	-11.9612
▁གཅེར་བུ	-11.9635
▁དཔྱིད་ཟླ་	-11.9635
▁བཀའ་ལུང་	-11.9635
▁སྒྲ་དོན་	-11.9635
▁བཀྲེས་	-11.9658
▁བག་ཚ་བ་	-11.9658
▁འདི་རུ་	-11.9658
▁རིགས་ངན་	-11.9658
▁རྟུལ་པོ་	-11.9658
▁སྐལ་བཟང་	-11.9658
▁དབུ་བ་	-11.9681
▁ནིམ་པ་	-11.9681
▁བུ་ཆུང་	-11.9681
▁ཚྭ་	-11.9681
▁འགྲོ་དོན་	-11.9681
▁འདི་རང་	-11.9681
▁ཤོད་	-11.9681
▁གསལ་པོ	-11.9704
▁པ་ཕ་	-11.9704
▁རིངས་པ	-11.9704
▁སྒྲོལ་བ་	-11.9704
▁ཁྱཱ་	-11.9728
▁ནིའོ	-11.9728
▁འཆག་	-11.9728
▁འཇིགས	-11.9728
▁འཛམ་བུ་	-11.9728
▁ཤར་ལྷོ	-11.9728
▁ཥུ	-11.9728
▁གདོང་པ་	-11.9751
▁ནད	-11.9751
▁བསྲེག་པ་	-11.9751
▁བྲཧྨ་	-11.9751
▁ཡང་སློབ་	-11.9751
▁རེས་	-11.9751
▁ཤད་	-11.9751
▁སྦྱིན་གནས་	-11.9751
▁གྱ་ནོམ་པ	-11.9774
▁བསྙད་པ་	-11.9774
▁མི་ལྟ་བ་	-11.9774
▁ཡུལ་ཕྱོགས་	-11.9774
▁རང་གཞན་	-11.9774
▁ལྷ་དབང་	-11.9774
▁ག་བུར་	-11.9798
▁གསར་བུ་	-11.9798
▁དུད་པ	-11.9798
▁མདུང་ཐུང་	-11.9798
▁གྲིབ་མ	-11.9821
▁ཏཱིའི་	-11.9821
▁ཐེམ་སྐས་	-11.9821
▁བསྐུལ	-11.9821
▁བསླབས་པ་	-11.9821
▁མཐའ་འཁོབ་པ	-11.9821
▁འཆགས་པ་	-11.9821
▁འཇུ་	-11.9821
▁ཡང་ཐོག་	-11.9821
▁ཧ་ལ	-11.9821
▁གནམ་སྟོང་	-11.9844
▁ཆོམ་རྐུན་པ་	-11.9844
▁དུང་ཕྱུར་	-11.9844
▁པུཥྤེ་	-11.9844
▁བྲོས་	-11.9844
▁གཅི་བ	-11.9868
▁བསྐོན་	-11.9868
▁བསྟབས་	-11.9868
▁མ་པ	-11.9868
▁མི་ཚེ་	-11.9868
▁མོ་མཚན་	-11.9868
▁འཐོར་བ་	-11.9868
▁འཛིན་མ	-11.9868
▁སྙིམ་པ་	-11.9868
▁སྡོད་པ	-11.9868
▁དག་ཅི	-11.9891
▁དབུགས་དབྱུང་	-11.9891
▁བསླུས་པ	-11.9891
▁བྱེད་རྒྱུ་	-11.9891
▁མ་ཆགས་པ	-11.9891
▁མགུལ་པ་	-11.9891
▁མངག་གཞུག་	-11.9891
▁མདའ་གཞུ་	-11.9891
▁ཞིབ་མོ་	-11.9891
▁འགུགས་པ་	-11.9891
▁སྤོངས་	-11.9891
▁དྷི	-11.9915
▁བརླབས	-11.9915
▁བེ	-11.9915
▁བྱེ་བྲག་པ་	-11.9915
▁མཾ	-11.9915
▁ཛྭཱ་	-11.9915
▁རྩེ	-11.9915
▁གི་བ་	-11.9939
▁ཡོངས་རྫོགས་	-11.9939
▁ཐ་ག་པ་	-11.9962
▁དྲེགས་	-11.9962
▁བདེ་བྱེད་	-11.9962
▁མ་ཟིན་པ	-11.9962
▁རས་ཆེན་	-11.9962
▁ཀི	-11.9986
▁བསྐང་བ	-11.9986
▁འཁྲུལ་བ་	-11.9986
▁ལུང་སྟོན་པ་	-11.9986
▁ཁྲ་བོ་	-12.001
▁དམྱལ་བ་པ་	-12.001
▁ལུ་གུ་རྒྱུད་	-12.001
▁ཀྱ་	-12.0034
▁ཏྲཱཾ་	-12.0034
▁མ་པ་	-12.0034
▁མ་སྐྱེས་དགྲ	-12.0034
▁མུངྒ་	-12.0034
▁འཆའ་བ	-12.0034
▁དྱཱ་	-12.0058
▁ཕབ་པ་	-12.0058
▁བཅུད་ལེན་	-12.0058
▁འཁྲུ་	-12.0058
▁ཡུལ་དབུས་	-12.0058
▁ལོང་བ	-12.0058
▁གངས་	-12.0082
▁གཡུང་དྲུང་	-12.0082
▁གཿ	-12.0082
▁བསླད་པ་	-12.0082
▁མདོམས་	-12.0082
▁ཁོང་ཁྲོ་	-12.0106
▁ཉམ་ཐག་	-12.0106
▁ཐུར་མ་	-12.0106
▁བཙུད་	-12.0106
▁བཱ་རཱ་ཎ་སཱི་	-12.0106
▁ཤ་ཆེན་	-12.0106
▁གཞི་མཐུན་པ་	-12.013
▁ཐོ་བ	-12.013
▁དགྲོལ་	-12.013
▁དབུགས་དབྱུང་བ་	-12.013
▁ཕྱི་རོལ་པ	-12.013
▁བཞེངས་པ	-12.013
▁འཇུད་	-12.013
▁རྐང་མཐིལ་	-12.013
▁ཀུ་རུ	-12.0154
▁ཏི་ཀ་	-12.0154
▁ན་པ་	-12.0154
▁བསེ་རུ་	-12.0154
▁ཙོ་	-12.0154
▁ཞིམ་པ་	-12.0154
▁འོབས་	-12.0154
▁ཆུ་རྒྱུན་	-12.0178
▁ཆོག་ཤེས་པ་	-12.0178
▁དབྱིག་གཉེན་	-12.0178
▁བཏུས་པ	-12.0178
▁བཙས་པ་	-12.0178
▁བཙོད་	-12.0178
▁ཟབས་	-12.0178
▁འཁོན་	-12.0178
▁འདི་ག་	-12.0178
▁རློམ་པ་	-12.0178
▁ཤེད་	-12.0178
▁སྦར་བ	-12.0178
▁གྲུ་བཞི	-12.0203
▁ཊའི་	-12.0203
▁ཐུང་བ	-12.0203
▁མིག་ཅན་	-12.0203
▁ཉམ་ང་	-12.0227
▁བཞི་མདོ་	-12.0227
▁བོང་བ་	-12.0227
▁མེ་དབལ་	-12.0227
▁འཐག་	-12.0227
▁འབོད་	-12.0227
▁གདན	-12.0252
▁ཏི་པ་	-12.0252
▁དྲག་མོ་	-12.0252
▁བཙིར་བ	-12.0252
▁བསྲེག	-12.0252
▁མཇུག་མ་	-12.0252
▁འཁྲུག་ལོང་	-12.0252
▁འགུལ་བ་	-12.0252
▁འཆག་པ་	-12.0252
▁རྔུལ་	-12.0252
▁གཟུད་པ	-12.0276
▁ཅ་ཅོ་	-12.0276
▁དུད་	-12.0276
▁བག་མ་	-12.0276
▁ཚིག་རྩུབ་པོ་	-12.0276
▁སྔས་	-12.0276
▁ཀླས་པ	-12.0301
▁ཁ་ཆེ	-12.0301
▁གླིང་བཞི་	-12.0301
▁ལ་ཁ	-12.0301
▁སྒོ་བ་	-12.0301
▁སྲོག་ཤིང་	-12.0301
▁དང་ལ་	-12.0325
▁དུབ་པ	-12.0325
▁འཆའ་	-12.0325
▁རཱྀ་	-12.0325
▁གཏུམ་པ	-12.035
▁ཐར་བ་	-12.035
▁ཟུག་རྔུ	-12.035
▁སྤྲིང་ཡིག་	-12.035
▁གཉའ་ཤིང་	-12.0375
▁དཔུང་པ	-12.0375
▁དེ་ག་	-12.0375
▁མཆོག་རབ་	-12.0375
▁འོད་ཅན་	-12.0375
▁སྒོ་ང	-12.0375
▁གཟིམས་	-12.0399
▁མཛའ་	-12.0399
▁ཙ་ན་	-12.0399
▁རྒན་པ	-12.0399
▁ལ་ཏ་	-12.0399
▁སྟོབས་པ	-12.0399
▁ཁང་བུ་	-12.0424
▁དུར་	-12.0424
▁དུར་བྱིད་	-12.0424
▁བཀྲེས་པ	-12.0424
▁བརྡེག་པ་	-12.0424
▁བཤིག་པ	-12.0424
▁མདུན་རོལ་	-12.0424
▁འདུལ	-12.0424
▁ལྷུམས་	-12.0424
▁ཀྱིར་	-12.0449
▁གང་ལ་ལ	-12.0449
▁དྭེ་	-12.0449
▁བབས་པ་	-12.0449
▁བརྙེས	-12.0449
▁བསྐ་བ་	-12.0449
▁བུ་རྒྱུད་	-12.0449
▁འཕྱས་	-12.0449
▁རྟོག་གེ	-12.0449
▁སེམས་སྐྱེས་	-12.0449
▁བཀྲེན་པ་	-12.0474
▁འགུལ་བ	-12.0474
▁འུག་པ་	-12.0474
▁ཡང་འཇུག་པ	-12.0474
▁སྐ་	-12.0474
▁ཐལ་སྦྱར་	-12.0499
▁ན་ལེ་ཤམ་	-12.0499
▁ནིམ་པ	-12.0499
▁འཆོལ་བ	-12.0499
▁ལ་སྟོང་	-12.0499
▁ཀ་ལི་	-12.0524
▁གཏར་ག་	-12.0524
▁གནག་པ	-12.0524
▁ཐལ་མོ	-12.0524
▁ནོད་པ	-12.0524
▁བསྟི་གནས་	-12.0524
▁མཛུབ་	-12.0524
▁ཚགས་	-12.0524
▁སྐྱེལ་བ	-12.0524
▁སྙོམས་འཇུག་	-12.0524
▁ཕྱར་ཀ་	-12.0549
▁བགོམ་པ་	-12.0549
▁མཛོད་སྤུ	-12.0549
▁མྱ་ངན་མེད་པ	-12.0549
▁འགྲེས་	-12.0549
▁འཆབ་པ་	-12.0549
▁ལིངྒ་	-12.0549
▁གཟུངས	-12.0575
▁དབུལ་པོ	-12.0575
▁པ་རུ་	-12.0575
▁བརྡུང་བ་	-12.0575
▁འཁྱུད	-12.0575
▁འཇོམས་བྱེད་	-12.0575
▁གྲོ་བཞིན་	-12.06
▁གླིང་བཞི་པ་	-12.06
▁ངད་	-12.06
▁པུཥྤ་	-12.06
▁བཤང་	-12.06
▁མཐོན་	-12.06
▁ཞན་པ	-12.06
▁འཇམ་པོ	-12.06
▁རྡོལ་	-12.06
▁ཤིང་ཏོག་	-12.06
▁ཁྲེལ་ཡོད་པ་	-12.0625
▁གྱ་ནོམ་	-12.0625
▁ཏཱི	-12.0625
▁ནི་པ་	-12.0625
▁བཀྱེ་	-12.0625
▁མི་ལྕོགས་པ་	-12.0625
▁འཁྱིལ་བ་	-12.0625
▁འགེངས་པ	-12.0625
▁འཕྱ་བ	-12.0625
▁རབ་བྱུང་	-12.0625
▁སྦྲེལ་	-12.0625
▁ངུ་བ	-12.0651
▁དཀྱུས་	-12.0651
▁དྲི་ཆུ་	-12.0651
▁བཅད	-12.0651
▁བླ་མེད་པ	-12.0651
▁མཐུ་རྩལ་	-12.0651
▁མཛའ་བ	-12.0651
▁ཚེག་དྲག་	-12.0651
▁རྒུད་པ	-12.0651
▁ཥི	-12.0651
▁སྟོན་པ་པོ	-12.0651
▁སྲུ་	-12.0651
▁སློང་མོ་	-12.0651
▁དབབ་	-12.0676
▁བཅུ་བདུན་པ	-12.0676
▁མཁོ་བ	-12.0676
▁རྟགས	-12.0676
▁ལ་དུག་	-12.0676
▁ལྷུན་གྲུབ་	-12.0676
▁བཀྲུ་	-12.0702
▁བིདྱཱ་	-12.0702
▁མཚན་ཉིད	-12.0702
▁འབྲས་བུ་འབྱུང་	-12.0702
▁ཁྱི	-12.0727
▁ཅིས་ཀྱང་	-12.0727
▁ཕུང་བ	-12.0727
▁བཀྲ་བ་	-12.0727
▁མི་སྨྲ་བ་	-12.0727
▁མེ་ཏོག་ཕྲེང་བ་	-12.0727
▁ཞིབ་པ	-12.0727
▁སྐམ་པ	-12.0727
▁སྤྲུལ	-12.0727
▁ཐེ་	-12.0753
▁བཟའ་བཏུང་	-12.0753
▁བསྐུམ་པ་	-12.0753
▁ཛི་ན་	-12.0753
▁རྗེས་དྲན་	-12.0753
▁གཅེས་པ	-12.0779
▁དལ་བ་	-12.0779
▁དེ་དག	-12.0779
▁བཙོས་པ	-12.0779
▁འདོད་ཡོན་	-12.0779
▁འཛིན་བྱེད་	-12.0779
▁རྟེན	-12.0779
▁སཔྟ་	-12.0779
▁ཨམ་	-12.0779
▁ཀྲུ་	-12.0804
▁གསེག་མ་	-12.0804
▁དཀར་དམར་	-12.0804
▁ཡོན་གནས་	-12.0804
▁རཱི	-12.0804
▁བྱུག	-12.083
▁འགྱོད་	-12.083
▁ཡུལ་མེད་པ	-12.083
▁རྒྱུག་པ	-12.083
▁ཛམྦྷ་	-12.0856
▁འབོགས་པ་	-12.0856
▁སྟེགས་	-12.0856
▁གླ་རྩི་	-12.0882
▁བཀྲུས་པ	-12.0882
▁མ་སྐྱེས་དགྲ་	-12.0882
▁ཛི་ན་མི་ཏྲ་	-12.0882
▁འདུག་སྟངས་	-12.0882
▁སཱིར་	-12.0882
▁སྒེག་	-12.0882
▁སྔོན་འགྲོ་	-12.0882
▁ཀླས་པ་	-12.0908
▁གང་ཡོད་པ་	-12.0908
▁གཟོད་	-12.0908
▁ཐུན་མོང་བ	-12.0908
▁མགྱོགས་པ་	-12.0908
▁འོ་ཐུག་	-12.0908
▁རྒྱུ་གཉིས་	-12.0908
▁གསོན་པ་	-12.0935
▁ཆོས་རྗེ	-12.0935
▁ཎུ་	-12.0935
▁བང་རིམ་	-12.0935
▁བསུ་བ	-12.0935
▁བུག་པ་	-12.0935
▁མེ་མཚམས་	-12.0935
▁ཤར་ལྷོ་	-12.0935
▁ཨེང་	-12.0935
▁ཁེངས་	-12.0961
▁གས་པ་	-12.0961
▁ཆུད	-12.0961
▁ནོད་པ་	-12.0961
▁འབྲུག་སྒྲ་	-12.0961
▁ལྟེང་	-12.0961
▁ཤུགས་ཅན་	-12.0961
▁སྟོན་མོ་	-12.0961
▁སྤྲས་པ་	-12.0961
▁ཁང་ཁྱིམ་	-12.0987
▁ནྱཱ་	-12.0987
▁འགྲེང་བ	-12.0987
▁འཆབ་པ	-12.0987
▁འདྲིས་པ་	-12.0987
▁རྡེའུ་	-12.0987
▁ལཱུ་	-12.0987
▁བསླངས་པ་	-12.1013
▁བྷ	-12.1013
▁རྔ་མོ	-12.1013
▁རྣ་རྒྱན་	-12.1013
▁ལ་རྫས་	-12.1013
▁སྒོག་	-12.1013
▁སྤགས་པ་	-12.1013
▁སྲི་	-12.1013
▁ཨང་	-12.1013
▁ངུས་	-12.104
▁ཆ་གསུམ་	-12.104
▁བརྡ་སྤྲོད་པ་	-12.104
▁བྱེ་མ	-12.104
▁མད་	-12.104
▁ཚོམས་	-12.104
▁འཇམ་པོ་	-12.104
▁ཎེ	-12.1066
▁དཔང་	-12.1066
▁བུང་བ	-12.1066
▁མཆོག་དགའ་	-12.1066
▁ཤ་ར་	-12.1066
▁སོ་སོ་བ་	-12.1066
▁སྲད་བུ	-12.1066
▁གཉེན་བཤེས་	-12.1093
▁གྲུབ་མཐའ་	-12.1093
▁དགེ་རྒྱས་	-12.1093
▁བོས་པ	-12.1093
▁མི་ལྟུང་	-12.1093
▁འཐོར་	-12.1093
▁ཨ་ར་	-12.1093
▁ཐོག་མཐའ་	-12.1119
▁ད་ལྟར་བ	-12.1119
▁བཀོད	-12.1119
▁བསྐུ	-12.1119
▁འཕྲུལ་དགའ་	-12.1119
▁ཁྱོ་	-12.1146
▁ཏྱེ་	-12.1146
▁བཏགས	-12.1146
▁བསྣན་	-12.1146
▁མ་རབས་	-12.1146
▁ཚོང་	-12.1146
▁ལ་དུ་	-12.1146
▁སྡེབ་སྦྱོར་	-12.1146
▁སྤྱོད་པ་པ་	-12.1146
▁ཧྱེ་	-12.1146
▁གཡན་པ་	-12.1173
▁གཤིབས་	-12.1173
▁ཇི་ལྟར	-12.1173
▁དཱུརྱ་	-12.1173
▁ནས་བསོད་	-12.1173
▁བླངས	-12.1173
▁གཡོ་སྒྱུ་	-12.12
▁གློ་བུར་བ་	-12.12
▁དེང་ནས་	-12.12
▁དྷྱཱ་	-12.12
▁བགོ་བཤའ་	-12.12
▁བཱན	-12.12
▁ཇོ་བོ་	-12.1227
▁ཐམས་ཅད	-12.1227
▁ཐེར་འབུམ་	-12.1227
▁མ་དད་པ	-12.1227
▁ཚ་བོ་	-12.1227
▁འདུས	-12.1227
▁ལྲྀཊ་	-12.1227
▁ཤ་ལ	-12.1227
▁ཤིང་བྱང་	-12.1227
▁སྐུ་རྡོ་རྗེ	-12.1227
▁དཔའ་མོ	-12.1254
▁ནུར་ནུར་པོ་	-12.1254
▁བཞི་མདོ	-12.1254
▁བརྟུལ་	-12.1254
▁ཚིག་དོན་	-12.1254
▁ཚོ་	-12.1254
▁ཟོ་	-12.1254
▁ཡང་སྙིང་	-12.1254
▁ལྱ་	-12.1254
▁སྒོ་ཁང་	-12.1254
▁སྒྲོག་	-12.1254
▁གཟོ་བ་	-12.1281
▁ཐབས་ཤེས་	-12.1281
▁འབྱོར་བ	-12.1281
▁རེད་	-12.1281
▁རོ་ཙ་	-12.1281
▁ལྕང་ལོ་	-12.1281
▁ལྟག་	-12.1281
▁སར་པ	-12.1281
▁སྒོམས་	-12.1281
▁སྙོམ་ལས་	-12.1281
▁ཆིག་སྟོང་	-12.1308
▁ཐིབས་པོ་	-12.1308
▁དེ་ཉིད	-12.1308
▁བརྩི་བ	-12.1308
▁མ་ཏི	-12.1308
▁མཱཾ	-12.1308
▁འབྱང་བ	-12.1308
▁ཀཱི	-12.1335
▁གདབ་པོ	-12.1335
▁ཏོན་	-12.1335
▁བཙུགས་པ་	-12.1335
▁བླུགས་པར་	-12.1335
▁སྐྱུ་རུ་ར	-12.1335
▁སྔ་དྲོ	-12.1335
▁སྙོམས་པ	-12.1335
▁གདོལ་པ	-12.1362
▁ཐོབ་བོ་	-12.1362
▁ཕྱི་ས་	-12.1362
▁བཅོལ་བ	-12.1362
▁མུ་ཁ་	-12.1362
▁ཚིག་རྩུབ་	-12.1362
▁འཁོར་ལོ་ཅན་	-12.1362
▁ཡ་བ་	-12.1362
▁རིགས་བཞི་	-12.1362
▁སྐྱུགས་པ་	-12.1362
▁ཧྲིཾ་	-12.1362
▁ཐེ	-12.139
▁དག་ཅི་	-12.139
▁དྲི་ཞིམ་པ་	-12.139
▁ཕུཿ	-12.139
▁མ་རྡོ་	-12.139
▁ཚིག་ཀྱལ་པ་	-12.139
▁ཞིམ་པོ་	-12.139
▁ལུས་སེམས་	-12.139
▁ཀལྤ་	-12.1417
▁ཐེག་	-12.1417
▁དུས་ཚོད་	-12.1417
▁ཚིག་མ་	-12.1417
▁ཞིང་སྐྱོང་	-12.1417
▁འདི་པ	-12.1417
▁འབིགས་པ	-12.1417
▁འོད་འཕྲོ་བ་	-12.1417
▁ཡམས་	-12.1417
▁སྔོན་མོ་	-12.1417
▁སྟོད་པ	-12.1417
▁ཀུནྡ་	-12.1445
▁གཞོམ་པ་	-12.1445
▁ཡིན་གྲང་	-12.1445
▁ལུས་མེད་	-12.1445
▁ས་འཛིན་	-12.1445
▁སྐམ་པ་	-12.1445
▁སྤྲད་པ	-12.1445
▁དགྲོལ་བ་	-12.1472
▁མཆོད་བསྟོད་	-12.1472
▁ཡ་ལ་	-12.1472
▁རྐུན་པོ	-12.1472
▁རྒྱུན་ཆགས་	-12.1472
▁སྐུར་བ་	-12.1472
▁གཏོར	-12.15
▁གདགས	-12.15
▁གུར་ཀུམ་	-12.15
▁ཆུ་སེར་	-12.15
▁དགུག	-12.15
▁བརྡེགས་	-12.15
▁འགྱེལ་	-12.15
▁འདུན་	-12.15
▁འཕོས་པ	-12.15
▁རྐུ་སེམས་	-12.15
▁ལེགས་ལྡན་	-12.15
▁གྲུ་བཞི་པ	-12.1528
▁ནོར་སྦྱིན་	-12.1528
▁འགེགས་པ	-12.1528
▁རྒྱུན་ལས་	-12.1528
▁རྒྱུས་པ་	-12.1528
▁ལཱ	-12.1528
▁ཤུད་	-12.1528
▁ཨོཾ	-12.1528
▁ཐོབ་པོ	-12.1556
▁དམག་དཔོན་	-12.1556
▁ནིར་	-12.1556
▁བདོག་	-12.1556
▁ངེས་ཚིག་	-12.1583
▁ཇི་ཙམ་པ་	-12.1583
▁དམྱལ་	-12.1583
▁བཟོད	-12.1583
▁བསྐམས་	-12.1583
▁འདུ	-12.1583
▁སྐྲངས་པ་	-12.1583
▁སྦལ་	-12.1583
▁སྲེག་རྫས་	-12.1583
▁ཆུ་ཞེང་	-12.1611
▁དམིགས་མེད་	-12.1611
▁མཉེན་	-12.1611
▁འཕོས་པ་	-12.1611
▁ཡཱུ་	-12.1611
▁སྤྱན	-12.1611
▁སྲུལ་པོ་	-12.1611
▁ཁྱོགས་	-12.1639
▁གཡེངས་	-12.1639
▁ཆེན་པོ་པ་	-12.1639
▁ཉི་ཤུ་པ	-12.1639
▁དཀུ	-12.1639
▁དམག་ཚོགས་	-12.1639
▁ཕུལ	-12.1639
▁བཟང་མོ	-12.1639
▁བསྙེན་གནས་	-12.1639
▁བསླུ་བ	-12.1639
▁མི་ཁོམ་པ་	-12.1639
▁འགྲེལ་བཤད་	-12.1639
▁ཤ་ན་	-12.1639
▁ཁུ་བྱུག་	-12.1668
▁པྱ་	-12.1668
▁བཅག་	-12.1668
▁བཏུ་བ	-12.1668
▁བླུགས་པ	-12.1668
▁མཆེད་པ	-12.1668
▁འགའ་ཙམ་	-12.1668
▁ལོཊ་	-12.1668
▁ཐུབ་དབང་	-12.1696
▁དར་བ	-12.1696
▁པཱ་པ་	-12.1696
▁རྒྱུག་པ་	-12.1696
▁རྩིག་	-12.1696
▁རྫི་	-12.1696
▁ལྕག་	-12.1696
▁ཥེ	-12.1696
▁སྱེ་	-12.1696
▁ཧྃ་	-12.1696
▁ཧྭ་	-12.1696
▁ཉུང་ངུ	-12.1724
▁ཉེན་པ	-12.1724
▁དཀྱིལ་འཁོར་པ	-12.1724
▁དབུགས་ཕྱུང་	-12.1724
▁དབུས	-12.1724
▁མེར་མེར་པོ་	-12.1724
▁འཇམ་དབྱངས་	-12.1724
▁འདྲེ་	-12.1724
▁འཕོང་	-12.1724
▁ཡཽ	-12.1724
▁རྒྱ་བ	-12.1724
▁ལྟ་ཞོག་	-12.1724
▁སྨིན་མ	-12.1724
▁ཀ་པཱ་ལ་	-12.1752
▁ཁ་ཁ་	-12.1752
▁གཞིག་པ་	-12.1752
▁གྷསྨ་	-12.1752
▁ཉལ་པོ་	-12.1752
▁དང་བསྟོད་པ་	-12.1752
▁དབའ་རླབས་	-12.1752
▁དྲག་པ	-12.1752
▁ནོད་	-12.1752
▁མཚམས་མེད་	-12.1752
▁རིལ་པོ	-12.1752
▁ལྔ་པོ	-12.1752
▁ཥཿ	-12.1752
▁གློ་བ་	-12.1781
▁ཐུ་	-12.1781
▁ཐུགས	-12.1781
▁ཐུགས་དམ་	-12.1781
▁དགའས་	-12.1781
▁དོམ་	-12.1781
▁ནབ་	-12.1809
▁བརྒྱ་ལམ་	-12.1809
▁མེ་ཐབ་	-12.1809
▁ཟུག་པ་	-12.1809
▁ཤུདྡྷཿ	-12.1809
▁ཨིཏ་	-12.1809
▁ཕྱུག་པོ་	-12.1838
▁བསལ	-12.1838
▁འདྲེན་མ	-12.1838
▁འཕར་	-12.1838
▁ས་ཐམས་	-12.1838
▁སྟང་	-12.1838
▁སྲིད	-12.1838
▁གཏུབས་	-12.1867
▁ཙི་ཏྲ་	-12.1867
▁འཚེད་པ་	-12.1867
▁ཤུ་བ་	-12.1867
▁ས་སྤྱོད་	-12.1867
▁སྐས་	-12.1867
▁སྣ་མ	-12.1867
▁སྨྲ་བ་པོ	-12.1867
▁སྲིང་མོ	-12.1867
▁དགུ་སྟེ	-12.1895
▁དང་པ་	-12.1895
▁ཕྱི་དྲོ་	-12.1895
▁འཚེད་	-12.1895
▁ལས་སྒྲ་	-12.1895
▁སྡེ་པ	-12.1895
▁སྤྱོད་ཚུལ་	-12.1895
▁ཨཱཏ་	-12.1895
▁གཏོད་པ་	-12.1924
▁གཞི་མ་	-12.1924
▁གརྦྷ་	-12.1924
▁དྲག་པ་	-12.1924
▁ནགས་ཁྲོད་	-12.1924
▁ཕུབ་	-12.1924
▁ཕྱེད	-12.1924
▁ལེབ་	-12.1924
▁སྒྲུབ་བོ	-12.1924
▁སྨྱན་	-12.1924
▁ཁུ་ཆུ་	-12.1953
▁གཉེར་མ་	-12.1953
▁དྷུཊ་	-12.1953
▁བརྐྱང་བསྐུམ་	-12.1953
▁བརླག་	-12.1953
▁བསོད་པ	-12.1953
▁ཛཱ་ཏི་	-12.1953
▁འཛེམ་པ་	-12.1953
▁སྐྲ་དཀར་	-12.1953
▁ཨགྣི་	-12.1953
▁གཡུང་མོ་	-12.1982
▁གཡོན་སྐོར་	-12.1982
▁ཅི་དག	-12.1982
▁མན	-12.1982
▁ཞིམ་པ	-12.1982
▁ལྷ་ཆེན་པོ	-12.1982
▁སྨྱོན་པ	-12.1982
▁ཀཱུ་	-12.2011
▁དཱུར་བ་	-12.2011
▁དྲི་ཆེན་	-12.2011
▁ཕོ་མོ་	-12.2011
▁བྱང་ཆུབ་བོ	-12.2011
▁ཞིབ་མོ	-12.2011
▁ཞེན	-12.2011
▁འགྱེད་	-12.2011
▁རོ་སྟོད་	-12.2011
▁ལྷ་ཡུལ་	-12.2011
▁ཀ་ལ	-12.2041
▁གཞན་སེལ་བ་	-12.2041
▁ཏྲཾ	-12.2041
▁དྲི་ཞིམ་པ	-12.2041
▁བཱ	-12.2041
▁རྣམ་གཞག་	-12.2041
▁སྒོ་སྲུང་	-12.2041
▁སྤྲིན་ཆེན་	-12.2041
▁གསོག་འཇོག་	-12.207
▁ཏིང་ངེ་འཛིན	-12.207
▁དཀོན་པ་	-12.207
▁བཤིག་པ་	-12.207
▁མཆོག་སྦྱིན་པ	-12.207
▁སྣལ་མ་	-12.207
▁ཨནྟ་	-12.207
▁ཀརྨྨ་	-12.2099
▁ཁྱོན་	-12.2099
▁ཆ་མཉམ་པ	-12.2099
▁དུས་སྟོན་	-12.2099
▁ཕྲུ་གུ་	-12.2099
▁མནའ་	-12.2099
▁རྗེད་པ	-12.2099
▁སྲོད་	-12.2099
▁ཀྭ་	-12.2129
▁གན་རྐྱལ་	-12.2129
▁ཉི་ཤུ་པ་	-12.2129
▁དི	-12.2129
▁པི	-12.2129
▁ཕྱིས་པ་	-12.2129
▁གླན་	-12.2158
▁ཐ་བ་	-12.2158
▁བཞེས་པ	-12.2158
▁བསླུས་པ་	-12.2158
▁ཞིང་ཁ་	-12.2158
▁སྙད་	-12.2158
▁སྲན་མ་	-12.2158
▁ཀུན་དག	-12.2188
▁ཏན་	-12.2188
▁ཕྲེང་ལྡན་	-12.2188
▁ཟག་བཅས་	-12.2188
▁རིགས་བཞི	-12.2188
▁རྒྱང་རིང་པོ་	-12.2188
▁སྐར་	-12.2188
▁ཧཱུ་	-12.2188
▁ཉི་ཚེ་བ	-12.2218
▁དབྱར་ཁང་	-12.2218
▁དྲིས	-12.2218
▁ཕུག་རོན་	-12.2218
▁ཕྲོགས་པ་	-12.2218
▁བཀླགས་པ་	-12.2218
▁མཚོན་བྱེད་	-12.2218
▁ཟ་བ་པོ་	-12.2218
▁ཟླ་གམ་	-12.2218
▁རཿ_	-12.2218
▁གཟུགས་འཛིན་པ	-12.2247
▁གཤེ་བ་	-12.2247
▁དཔོག་	-12.2247
▁དྲོད་གཤེར་	-12.2247
▁བསྲིངས་	-12.2247
▁ཤོ	-12.2247
▁སྙམ	-12.2247
▁སྙེ་མ་	-12.2247
▁གྱ་གྱུ་	-12.2277
▁བཅག་པ	-12.2277
▁སུ་པ་	-12.2277
▁ཨུཏ་	-12.2277
▁ཉི་ཚེ	-12.2307
▁ཏཱཿ	-12.2307
▁དཀོར་	-12.2307
▁བཏོན་པ་	-12.2307
▁བསླུས་	-12.2307
▁མཐའ་འཁོབ་	-12.2307
▁ཙཱི་	-12.2307
▁འཛུད་	-12.2307
▁རུལ་	-12.2307
▁སྤྲོས་མེད་	-12.2307
▁སྲབ་	-12.2307
▁ཨིཊའོ	-12.2307
▁ཁ་ན་མ་ཐོ་བ	-12.2337
▁དྷཱིཿ	-12.2337
▁པ་ཊ་	-12.2337
▁མེ་ལྷ	-12.2337
▁འཁྲུངས་	-12.2337
▁འབབ་བོ	-12.2337
▁འབྲོ	-12.2337
▁ས་རི་	-12.2337
▁སིདྡྷ་	-12.2337
▁སྟེན་པ་	-12.2337
▁སྨྲྀ་	-12.2337
▁དབང་ཕྱུག	-12.2368
▁བཀྲམ་པ	-12.2368
▁འབྲས་ཡོས་	-12.2368
▁ལི་མ་	-12.2368
▁སྐྲང་	-12.2368
▁གཡུལ་ལས་	-12.2398
▁གྲོ་ག་	-12.2398
▁ཏིའོ	-12.2398
▁ཕེཾ་	-12.2398
▁བསྡིགས་པ་	-12.2398
▁མཐིང་ག་	-12.2398
▁རུའི་	-12.2398
▁རྒྱ་སྤོས་	-12.2398
▁རྔམ་པ	-12.2398
▁ས་མང་པོ་	-12.2398
▁སྐུལ་བ་	-12.2398
▁ཉུང་ཟད་	-12.2428
▁རྗེས་འབྲེལ་	-12.2428
▁སུག་སྨེལ་	-12.2428
▁ཨགྣ་	-12.2428
▁གཤེར་བ	-12.2459
▁ཆུ་ཤེལ་	-12.2459
▁བཅབས་	-12.2459
▁ཀིཾ་	-12.2489
▁ཁྲ་	-12.2489
▁བསྟན་མ་	-12.2489
▁བསྟབས་པ	-12.2489
▁མནར་མེད་པ་	-12.2489
▁ལག་ངར་	-12.2489
▁ཥའི་	-12.2489
▁སྒྲ་སྙན་	-12.2489
▁ཉེ་དག	-12.252
▁ཉེས་མེད	-12.252
▁ཐང་ལ་	-12.252
▁ཐཿ	-12.252
▁བཙགས་	-12.252
▁འཛུམས་པ	-12.252
▁ཡང་སོས་	-12.252
▁རིལ་པོ་	-12.252
▁སྐྲོད་	-12.252
▁གེགས་བྱེད་པ་	-12.255
▁གྲེ་	-12.255
▁ཐ་སྐར་	-12.255
▁ནང་ཚངས་	-12.255
▁ལིང་ཏོག་	-12.255
▁སྙེམས་	-12.255
▁སྟོར་	-12.255
▁སྡུད་པ་པོ	-12.255
▁ཨཊ་	-12.255
▁ཆས་པ་	-12.2581
▁ཏྭེ་	-12.2581
▁དེ་ལྟ་ན	-12.2581
▁བཏུ་བ་	-12.2581
▁བཤགས	-12.2581
▁མི་དོ	-12.2581
▁འཇོག་པོ་	-12.2581
▁འཕར་བ་	-12.2581
▁འཕོ	-12.2581
▁འཕྱ་	-12.2581
▁སེར་བ	-12.2581
▁སྐལ་པ་	-12.2581
▁ཎོ་	-12.2612
▁ཏྭཾ་	-12.2612
▁ཕྱིནད་པ་	-12.2612
▁མི་མངོན་པ་	-12.2612
▁འཐོར་འཐུང་	-12.2612
▁ཡིད་འབྱུང་	-12.2612
▁རྃ་	-12.2612
▁སྒྲུབས་	-12.2612
▁ཅི་མ་རུང་	-12.2643
▁བཅོ་ལྔ་པ	-12.2643
▁བརྡུངས་པ་	-12.2643
▁བི	-12.2643
▁མར་ཁུ་	-12.2643
▁འཚེད་པ	-12.2643
▁རྫི་མ་	-12.2643
▁དེ་སྒྲ་	-12.2674
▁ནུ་ཞོ་	-12.2674
▁མཆེད་པ་	-12.2674
▁མིང་པོ་	-12.2674
▁འགྲན་ཟླ་	-12.2674
▁འཕན་	-12.2674
▁འཕྲོས་པ་	-12.2674
▁རྒན་ཞུགས་	-12.2674
▁ཆུན་པོ་	-12.2706
▁ཉོས་	-12.2706
▁བང་མཛོད་	-12.2706
▁མགུལ་རྒྱན་	-12.2706
▁འདོང་བ་	-12.2706
▁སོལ་བ	-12.2706
▁སྐོས་	-12.2706
▁སྦུ་གུ་	-12.2706
▁གུང་མོ	-12.2737
▁བསླད་པ	-12.2737
▁འདམ་བུ	-12.2737
▁རྗེས་འཇུག་	-12.2737
▁སྟཾ་	-12.2737
▁སྦྱངས	-12.2737
▁ཀུན་རྫོབ་པ་	-12.2768
▁བཅང་བ་	-12.2768
▁བྱི་ལ་	-12.2768
▁མགུར་	-12.2768
▁ཚུགས་པ་	-12.2768
▁ཚོས་	-12.2768
▁འཕགས་མ	-12.2768
▁རི་ལུ	-12.2768
▁རུམ་	-12.2768
▁ལྷ་ཆེན་	-12.2768
▁ཤིང་ཤུན་	-12.2768
▁སྒོ་རུ་	-12.2768
▁གཡའ་	-12.28
▁གུ་རུ་	-12.28
▁གླེངས་	-12.28
▁དང་རུས་པ་	-12.28
▁དབང་མ་	-12.28
▁དྲི་ཆབ་	-12.28
▁བདེ་སྡུག་	-12.28
▁བཞེངས་པ་	-12.28
▁ཙཽ་	-12.28
▁འཚམ་པ་	-12.28
▁རྐུན་མ་	-12.28
▁ལས་ལོག་པ་	-12.28
▁ཥཾ་	-12.28
▁སོད་	-12.28
▁སྲིན་བལ་	-12.28
▁གང་གཱ་	-12.2831
▁ཊེ་	-12.2831
▁དྲོན་	-12.2831
▁ཕུ་དུད་	-12.2831
▁བཟང་ངན་	-12.2831
▁བསྒྲལ་བ་	-12.2831
▁མཆེད་	-12.2831
▁ར་པ	-12.2831
▁རྒྱལ་ཕྲན་	-12.2831
▁ལ་འོག་	-12.2831
▁སྐུ་ཚེ་	-12.2831
▁སྤོབས་	-12.2831
▁སྨིན	-12.2831
▁སྩོགས་པ	-12.2831
▁གང་སྟོང་པ་	-12.2863
▁དབྲི་བ་	-12.2863
▁དོན་གྲུབ་པ	-12.2863
▁དོར	-12.2863
▁དྷརྨཱཿ	-12.2863
▁བཙག་	-12.2863
▁བྱི་བ	-12.2863
▁རི་བ་	-12.2863
▁རྫོགས་བྱེད་	-12.2863
▁ལ་ཆུང་	-12.2863
▁གང་ཡོད་	-12.2895
▁གཅལ་	-12.2895
▁གནས་མཆོག་	-12.2895
▁དཀུ་	-12.2895
▁དཀྲི་བ	-12.2895
▁བཏོན་པ	-12.2895
▁མཉན་ཡོད	-12.2895
▁ཚེར་མ	-12.2895
▁ཡལ་ག	-12.2895
▁རྫ་	-12.2895
▁ཤུདྡྷེ་	-12.2895
▁ཉོ་ཚོང་	-12.2927
▁ནོར་རྫས་	-12.2927
▁བགོས	-12.2927
▁བརྡེག་	-12.2927
▁མ་ཟིན་པ་	-12.2927
▁མཚན་ཉིད་གསུམ་	-12.2927
▁རཉྫ་	-12.2927
▁རྒན་རབས་	-12.2927
▁ཤམ་	-12.2927
▁སྙེམས་པ་	-12.2927
▁སྦྲང་	-12.2927
▁གཤེད་པོ་	-12.2959
▁དགོན་པ་པ་	-12.2959
▁དྲགས་	-12.2959
▁བརྩལ་བ་	-12.2959
▁ཡུལ་འཁོར་སྲུང་	-12.2959
▁རྒྱས་བཏབ་པ་	-12.2959
▁རྨུགས་	-12.2959
▁སྐྱིགས་བུ་	-12.2959
▁ཨཱང་	-12.2959
▁གཟུགས་པ	-12.2991
▁གཡུལ་ངོ	-12.2991
▁བདས་	-12.2991
▁མཐིང་ནག་	-12.2991
▁ཚོས་པ་	-12.2991
▁འཇལ་	-12.2991
▁འབེབས	-12.2991
▁རྡུལ་བྲལ་	-12.2991
▁ངྷ་	-12.3023
▁ཆར་པ	-12.3023
▁ཐོར་བུ་	-12.3023
▁དྲི་ང་བ་	-12.3023
▁ཟླུམ་པ་	-12.3023
▁འདུག་གནས་	-12.3023
▁ལ་ཕུག་	-12.3023
▁ཤིང་ཐོག་	-12.3023
▁སྒོམ་པ་པོ་	-12.3023
▁ཨྃ་	-12.3023
▁ཀྱིའང་	-12.3055
▁གཟེངས་	-12.3055
▁གཡོ་མེད་	-12.3055
▁ཅི་འདྲ་བ	-12.3055
▁དཀོན་པ	-12.3055
▁དང་ལེན་པ་	-12.3055
▁དམའ་	-12.3055
▁མཁའ་དབྱིངས་	-12.3055
▁མཱུ་ལ་	-12.3055
▁ཛཱ	-12.3055
▁འཛག	-12.3055
▁ཧན་	-12.3055
▁ཨཱཾ་	-12.3055
▁ཆན་	-12.3088
▁ཕྱིར་ལོག་	-12.3088
▁བ་གླང་	-12.3088
▁ཧཱའི་	-12.3088
▁གཞོན་པ་	-12.312
▁དེ་ལྟར	-12.312
▁ཕུབ་མ་	-12.312
▁ཕྲན་	-12.312
▁བསྟིམ	-12.312
▁བསྡིགས་	-12.312
▁ཙོག་པུ	-12.312
▁ཚུལ་འཆོས་པ་	-12.312
▁འཆད་པ་པོ་	-12.312
▁སྤྲ་ཚིལ་	-12.312
▁ཁྲོ་མོ་	-12.3153
▁གསོ	-12.3153
▁ནེ་ཙོ་	-12.3153
▁པུ་ཤེལ་	-12.3153
▁བསྐུམ་	-12.3153
▁རེག	-12.3153
▁ཤངས་	-12.3153
▁སྟ་རེ་	-12.3153
▁དང་སེམས་པ་	-12.3186
▁བརྐུས་པ	-12.3186
▁མཱནྟ་	-12.3186
▁ཚེ་རིང་བ	-12.3186
▁ཞབས་འབྲིང་	-12.3186
▁འདོམ་	-12.3186
▁རྟགས་མ་	-12.3186
▁རླུང་ལྷ་	-12.3186
▁ལྤགས་	-12.3186
▁ཤྭེ་	-12.3186
▁སྡུད་པ་པོ་	-12.3186
▁ངི་	-12.3218
▁ཅ	-12.3218
▁ཆུ་མིག་	-12.3218
▁ཆོག་ཤེས་པ	-12.3218
▁བག་ཡངས་	-12.3218
▁ཡིད་ཅན་	-12.3218
▁རྒུན་འབྲུམ་	-12.3218
▁གདའ་	-12.3251
▁གོས་ཅན་	-12.3251
▁ཇི་ཞིག་	-12.3251
▁བན་དེ་	-12.3251
▁བནྡྷ	-12.3251
▁བསྐྱབ་	-12.3251
▁མཆོད་སྡོང་	-12.3251
▁ཚད་པ	-12.3251
▁ཟླ་ཚེས་	-12.3251
▁འཆོས་	-12.3251
▁འདམ་རྫབ་	-12.3251
▁ལྷོད་པ	-12.3251
▁གཅེས་པ་	-12.3284
▁གཙང་ཁང་	-12.3284
▁ཏཱ་ར་	-12.3284
▁འོར་	-12.3284
▁རྐེད་	-12.3284
▁སུམ་ཅུ་རྩ་གསུམ་པ་	-12.3284
▁སྐུར་པ	-12.3284
▁སྟེའོ	-12.3284
▁གུ	-12.3318
▁ཉམ་ཐག་པ་	-12.3318
▁བཀའ་བློ་	-12.3318
▁བརྡ་སྤྲོད་པ	-12.3318
▁བྲོ་བ	-12.3318
▁མགོན	-12.3318
▁མནོད་པ	-12.3318
▁ཙང་	-12.3318
▁རྔུབ་	-12.3318
▁གཉིས་པོ	-12.3351
▁གསོན་པོ	-12.3351
▁ད་ནི	-12.3351
▁ནག་མོ	-12.3351
▁བཟླ་	-12.3351
▁བསྐུས་པ	-12.3351
▁བསྙེམས་པ	-12.3351
▁ཟས་སྐོམ་	-12.3351
▁འདར་བ་	-12.3351
▁ཡི་དྭགས་	-12.3351
▁རྐང་སྟབས་	-12.3351
▁རྟོགས་པ་པོ་	-12.3351
▁རྩེད་མོ	-12.3351
▁རློན་པ་	-12.3351
▁ཁོང་པ	-12.3384
▁གསལ་ཤིང་	-12.3384
▁ཆོས་སྐུ	-12.3384
▁ཏཽ་	-12.3384
▁བསྒྲུབས	-12.3384
▁བླུགས	-12.3384
▁མཐོལ་བ	-12.3384
▁མུ་གེ	-12.3384
▁ཡཱཿ	-12.3384
▁རློན་	-12.3384
▁སུམ་ཆ་	-12.3384
▁སྐར་མདའ་	-12.3384
▁སྐུད་	-12.3384
▁ཀ་མ་ལ་	-12.3418
▁གཟི་མདངས་	-12.3418
▁གཤོག་པ་	-12.3418
▁བསྙེམས་པ་	-12.3418
▁ཙཱུ་	-12.3418
▁འཆག་པ	-12.3418
▁ཤ་ན	-12.3418
▁ཁྲོན་པ	-12.3451
▁གལ་ཏེ	-12.3451
▁གོས	-12.3451
▁དགོངས	-12.3451
▁དུང་སྐྱོང་	-12.3451
▁བྱིང་	-12.3451
▁བྷྲཱ་	-12.3451
▁མཿ_	-12.3451
▁ཚེ་ཚེ་	-12.3451
▁འདི་ཁོ་ན	-12.3451
▁ཡལ་འདབ་	-12.3451
▁རང་རྒྱུད་	-12.3451
▁ལ་འཇམ་	-12.3451
▁ཤྩ་	-12.3451
▁ཀློང་	-12.3485
▁གཏུམ་པ་	-12.3485
▁ཆགས་སེམས་	-12.3485
▁ཐུ་བོ་	-12.3485
▁ཕ་ལ	-12.3485
▁བསྐྱལ་	-12.3485
▁བསྟབས་པ་	-12.3485
▁མནར་མེད་	-12.3485
▁མཚན་མེད་	-12.3485
▁མཱ	-12.3485
▁ཚོགས་ཅན་	-12.3485
▁ཚོང་པ	-12.3485
▁སུཿ	-12.3485
▁སྟྲི་	-12.3485
▁གཞི་མེད་པ་	-12.3519
▁གླིང་བཞི་པ	-12.3519
▁ཉམ་ཐག་པ	-12.3519
▁དཀྲུགས་པ་	-12.3519
▁ནིརྱཱ་	-12.3519
▁བཅུ་དགུ་པ	-12.3519
▁བསླུ་བ་	-12.3519
▁ཙམ་པ་	-12.3519
▁འོད་འབར་	-12.3519
▁རྒོལ་	-12.3519
▁རྟུལ་བ་	-12.3519
▁སིད་	-12.3519
▁སྤེན་པ་	-12.3519
▁ཀྲྀཉ་	-12.3553
▁ཁྲག་མཁྲིས་	-12.3553
▁གཟུ་བོ་	-12.3553
▁ངན་ངོན་	-12.3553
▁ཕལ་པ	-12.3553
▁བཀྲུས་པ་	-12.3553
▁མཆོག་གྱུར་པ	-12.3553
▁ཙི	-12.3553
▁རྒྱན	-12.3553
▁སླུ་	-12.3553
▁གཡེང་	-12.3587
▁དེ་ལྟ་བས་ན	-12.3587
▁བབ་བོ	-12.3587
▁བཙོན་ར	-12.3587
▁བརྟས་པ	-12.3587
▁བསྒོ	-12.3587
▁ཚེ་ཚད་	-12.3587
▁ལྗོངས་རྒྱུ	-12.3587
▁ས་སྲུང་	-12.3587
▁གཏུགས་པ་	-12.3621
▁གེགས་བྱེད་པ	-12.3621
▁གྲག་པ་	-12.3621
▁ཕྲག་པ	-12.3621
▁བཅུ་བདུན་པ་	-12.3621
▁མི་རྒོད་	-12.3621
▁འཆོས་པ་	-12.3621
▁ཤི་འཕོས་པ་	-12.3621
▁སཱ་ལ	-12.3621
▁གཙུབ་ཤིང་	-12.3656
▁གསང་ཚིག་	-12.3656
▁ཕྱིར་རྒོལ་	-12.3656
▁མཚེའུ་	-12.3656
▁འབྱོར་བ་	-12.3656
▁རྩད་	-12.3656
▁ལྷུར་ལེན་པ	-12.3656
▁སྙིང་ནད་	-12.3656
▁སྟོ་	-12.3656
▁སླད་མ	-12.3656
▁ཀླེ་	-12.369
▁ཆོག་པ་	-12.369
▁ཆོས་སྤྱོད་	-12.369
▁དབང་མེད་	-12.369
▁དྱུ་	-12.369
▁ཕྱོགས་ཆ་	-12.369
▁བརྩལ་བ	-12.369
▁བསྐུས་པ་	-12.369
▁མཐུན	-12.369
▁མདུད་	-12.369
▁མཚོན་བྱ་	-12.369
▁ཡོན་པོ	-12.369
▁ས་ག	-12.369
▁ཀན་	-12.3724
▁གཏུམ་པོ	-12.3724
▁གླ་	-12.3724
▁ཆོངས་	-12.3724
▁ཐུལ་	-12.3724
▁བཅངས་པ་	-12.3724
▁བཙུན་	-12.3724
▁རྒན་པོ	-12.3724
▁ལྟད་མོ་	-12.3724
▁ཤང་	-12.3724
▁སྐམས་པ	-12.3724
▁སྤྲོར་	-12.3724
▁སྨན་དཔྱད་	-12.3724
▁སློབ་བོ	-12.3724
▁ཨརྒྷ་	-12.3724
▁ཆུ་སྣོད་	-12.3759
▁བསྐྱང་བ་	-12.3759
▁ཚེ་རིང་བ་	-12.3759
▁ཟིང་	-12.3759
▁ཨིའི་	-12.3759
▁གཡང་ས	-12.3794
▁དགའ་མགུ་	-12.3794
▁བཀླགས་པ	-12.3794
▁བདུག་	-12.3794
▁བཙོན་ར་	-12.3794
▁མཁན་མོ་	-12.3794
▁ཚོགས་ཆེན་པོ	-12.3794
▁འབྱུང་ཁུངས་	-12.3794
▁ཡ་ལ	-12.3794
▁རྣམ་མཁྱེན་	-12.3794
▁སྟཱཾ	-12.3794
▁ཀཀྐོ་	-12.3829
▁གང་རུང་	-12.3829
▁ཉ་བ་	-12.3829
▁ནམ་གྲུ་	-12.3829
▁བཅུ་དགུ་	-12.3829
▁བཏུས་	-12.3829
▁མགོར་	-12.3829
▁མཉེན་པ་	-12.3829
▁འབྲས	-12.3829
▁ཡུལ་དྲུག་	-12.3829
▁ལུས་སོ་	-12.3829
▁ལེ་བརྒན་	-12.3829
▁ལེགས་བཤད་	-12.3829
▁ལྡེམ་པོ	-12.3829
▁ས་རབ་	-12.3829
▁ཀཱིའི་	-12.3864
▁གྲོག་མཁར་	-12.3864
▁ཆོས་ཤེས་	-12.3864
▁དབྲལ་བ	-12.3864
▁བསྡོམས་	-12.3864
▁མངོན་རྟོགས་	-12.3864
▁མནྟྲ་	-12.3864
▁མཚན་ཕྱེད་	-12.3864
▁འཇའ་ཚོན་	-12.3864
▁འཛེར་	-12.3864
▁རྟུག་པ་	-12.3864
▁ཤར	-12.3864
▁སེམས་མ	-12.3864
▁ཅང་ཤེས་	-12.3899
▁བྱ་གག་	-12.3899
▁མགལ་མེ	-12.3899
▁མངོན་མཚན་	-12.3899
▁འཁྲིགས་པ	-12.3899
▁རོལད་	-12.3899
▁ལ་རྩ་	-12.3899
▁ལཊ་_	-12.3899
▁ཤ་བཀྲ་	-12.3899
▁ཤན་	-12.3899
▁ཤྲེ་	-12.3899
▁སིང་	-12.3899
▁ཨ་ཧོ་	-12.3899
▁ཀྱིའོ་	-12.3934
▁གནག	-12.3934
▁ཅོ་	-12.3934
▁དགུན་ཟླ་	-12.3934
▁ནིཿ	-12.3934
▁ཕྱིར་དུ་	-12.3934
▁མཐེབ་	-12.3934
▁མིག་སེར་	-12.3934
▁འགྱུར་པ་	-12.3934
▁སྐྱ་བོ་	-12.3934
▁སྡོང་བུ	-12.3934
▁སྤྲིང་བ་	-12.3934
▁ཁད་	-12.397
▁ཕུར་པ	-12.397
▁བསངས་	-12.397
▁བཽ་	-12.397
▁ཡལ་	-12.397
▁ཡཽ་	-12.397
▁རིམ	-12.397
▁རྣལ་	-12.397
▁ལས་དབང་	-12.397
▁ཨཱ	-12.397
▁ཐཱཾ	-12.4005
▁ཕྲ	-12.4005
▁བིལ་བ	-12.4005
▁བྷཉྫ་	-12.4005
▁མུ་ནི་	-12.4005
▁ཡུཿ	-12.4005
▁ལང་ཚོ	-12.4005
▁ཁ་བ	-12.4041
▁ཉེ་དབང་	-12.4041
▁ཎྱེ་	-12.4041
▁བསྟིམས་	-12.4041
▁མ་ཤ་ཀ་	-12.4041
▁ཚར་གཅོད་པ་	-12.4041
▁འདོད་དགུ	-12.4041
▁འཕྲོད་པ	-12.4041
▁རླག་པ	-12.4041
▁ལྷང་ངེ	-12.4041
▁སེན་	-12.4041
▁སྐུ་གཉིས་	-12.4041
▁སྔ་བ	-12.4041
▁སྣ་རྩེ	-12.4041
▁སྲོག་གཅོད་	-12.4041
▁ཀླ་ཀློ	-12.4077
▁བླང་དོར་	-12.4077
▁ཞལ་བསིལ་	-12.4077
▁ཞིང་མཆོག་	-12.4077
▁སྒོ་སྐྱོང་	-12.4077
▁གཞི་མེད་	-12.4113
▁ཉན་པ་པོ	-12.4113
▁ཏུའང་	-12.4113
▁དགྱེས	-12.4113
▁བསྲབས་པ	-12.4113
▁བྱར་རུང་	-12.4113
▁བྲེལ་བ	-12.4113
▁མིའུ་ཐུང་	-12.4113
▁ཚལ་པ་	-12.4113
▁ཟེའུ་འབྲུ་	-12.4113
▁འཐོན་པ	-12.4113
▁ལིན་	-12.4113
▁ལྟོ	-12.4113
▁སེམས་ཤེས་པ	-12.4113
▁སྐྱོ་སྔོགས་	-12.4113
▁སྤྱིར་བཏང་	-12.4113
▁སྤྱོས་	-12.4113
▁ངོ་མཚར་བ་	-12.4149
▁ཆག་པ་	-12.4149
▁དགབ་པ	-12.4149
▁དྷོ་	-12.4149
▁ཕྱི་རིམ་	-12.4149
▁བརྟོལ་	-12.4149
▁བུས	-12.4149
▁ཡོལ་བ་	-12.4149
▁རིགས་རྒྱུད་	-12.4149
▁རྨེད་པ	-12.4149
▁རྫིང་བུ	-12.4149
▁ཥྭ་	-12.4149
▁སྒྲུབ་བྱེད་པ	-12.4149
▁གང་པོ	-12.4185
▁གཟོ་བ	-12.4185
▁ཆོས་སྤྱོད་པ་	-12.4185
▁ཉམ་	-12.4185
▁བགོ་	-12.4185
▁བསྐོ་བ་	-12.4185
▁བསྙེམས་	-12.4185
▁མདོག་དམར་	-12.4185
▁མནོས་པ་	-12.4185
▁འཁྲུངས་པ	-12.4185
▁རང་གནས་	-12.4185
▁རྡེག་པ	-12.4185
▁ལཱཾ་	-12.4185
▁སྤྲེའུ	-12.4185
▁ཁེབས་	-12.4221
▁ཁྱད་འཕགས་	-12.4221
▁གྱ་	-12.4221
▁ཐུཿ	-12.4221
▁བརྙན་	-12.4221
▁རྣ	-12.4221
▁ཀུན་རྫོབ་པ	-12.4257
▁ཁེབས་པ་	-12.4257
▁ཊའོ	-12.4257
▁ཏནྟྲ་	-12.4257
▁དྲོ་འཇམ་	-12.4257
▁པོ་ཏི་	-12.4257
▁ཕྱག	-12.4257
▁བབ	-12.4257
▁བཟང་ལྡན་	-12.4257
▁བཟླ	-12.4257
▁བསྙིལ་བ	-12.4257
▁ཞན་	-12.4257
▁ཞལ་ལ་	-12.4257
▁འབྲས་བུ་ཆེ་བ་	-12.4257
▁ཡས	-12.4257
▁ལིང་_	-12.4257
▁སོག་	-12.4257
▁ཁམ་པ་	-12.4294
▁གཟུགས་བཟང་བ་	-12.4294
▁དགེ་བསྙེན་མ	-12.4294
▁བསྙེན་སྒྲུབ་	-12.4294
▁མེ་ཏོག་མ་	-12.4294
▁མེ་སྟག་	-12.4294
▁ཚོལ	-12.4294
▁ཟག་	-12.4294
▁རྟུག་	-12.4294
▁ལག་བརྡ་	-12.4294
▁ས་ར	-12.4294
▁སྐྱེས་པོ་	-12.4294
▁སྐྲངས་	-12.4294
▁དཔེ་ཙམ་	-12.4331
▁ཕྲོགས་པ	-12.4331
▁བཙན་	-12.4331
▁བཙིར་བ་	-12.4331
▁ཟིན	-12.4331
▁རྡོལ་བ་	-12.4331
▁ལྔ་ཆ	-12.4331
▁ཥཱཾ་	-12.4331
▁སྦྲེལ་བ	-12.4331
▁སྩོལ་བ་	-12.4331
▁ཨ་ཡ་	-12.4331
▁ཨུཏྟ་	-12.4331
▁_།_	-12.4368
▁གདིང་བ	-12.4368
▁གོ་བགོ	-12.4368
▁གྲགས་ཆེན་	-12.4368
▁ཇི་ལྟ	-12.4368
▁ཐོན་	-12.4368
▁དགེ་ལེགས་	-12.4368
▁དེས་པ	-12.4368
▁བསྐང་	-12.4368
▁མདོས་	-12.4368
▁ཛྙ་	-12.4368
▁ཟས	-12.4368
▁འདར་བ	-12.4368
▁འཛེག་པ	-12.4368
▁ཡཱི་	-12.4368
▁རྒྱུ་སྤུན་	-12.4368
▁ལུ	-12.4368
▁ལྡེ་མིག་	-12.4368
▁སྨད་འཚོང་མ་	-12.4368
▁སློངས་	-12.4368
▁ཧལ་	-12.4368
▁བརྟ་བ	-12.4405
▁བརྩམ་པ་	-12.4405
▁བསྐྱོད	-12.4405
▁བྲིས	-12.4405
▁མཛའ་བོ	-12.4405
▁མར	-12.4405
▁འདི་དག	-12.4405
▁འདུ་འཛི	-12.4405
▁ཡིད་འཕྲོག་པ	-12.4405
▁ཡུལ་མེད་པ་	-12.4405
▁རེ་ལྡེ་	-12.4405
▁རྫས	-12.4405
▁སྤྲིན་ཆེན་པོ་	-12.4405
▁པ་ལ་ཤ་	-12.4442
▁པྲི་ཡང་ཀུ་	-12.4442
▁བརྡུངས་པ	-12.4442
▁མཆོག་གྱུར་	-12.4442
▁མཉམ་པོ	-12.4442
▁རྟོན་	-12.4442
▁རྡེག་	-12.4442
▁ལྟེང་ཀ་	-12.4442
▁ཤ་ཁྲག་	-12.4442
▁ཥོ་	-12.4442
▁སྲེག་ཤིང་	-12.4442
▁ཨི	-12.4442
▁ཨུ་བ་	-12.4442
▁ཀླ་ཀློ་	-12.4479
▁གཤེར་	-12.4479
▁ཊཀྐི་	-12.4479
▁ཏཱིར་	-12.4479
▁ཐོབ་པོ་	-12.4479
▁པན་	-12.4479
▁བརྡ་ཙམ་	-12.4479
▁བེམས་པོ	-12.4479
▁མཚོན	-12.4479
▁ཙི་ཏྲ་ཀ་	-12.4479
▁འགྲོ་འོང་	-12.4479
▁ཡཏ་	-12.4479
▁ལ་ཆ	-12.4479
▁ལམ་མཆོག་	-12.4479
▁ལས་ཚིག་	-12.4479
▁སྙིམ་པ	-12.4479
▁སྡུག	-12.4479
▁ཀྲཱྀ་	-12.4516
▁པོ	-12.4516
▁བསྩལ་བ	-12.4516
▁འཕུར་	-12.4516
▁ལུན་	-12.4516
▁ས་སྐྱོང་	-12.4516
▁སྐོར་བ	-12.4516
▁སྣོད་བཅུད་	-12.4516
▁སྨྲོས	-12.4516
▁དཱ	-12.4554
▁ནེ་པ་	-12.4554
▁བཏུབ་པ་	-12.4554
▁བླངས་ཀྱང་	-12.4554
▁འོར་ནད་	-12.4554
▁ལྕི	-12.4554
▁སྐྱེས་མཆོག་	-12.4554
▁སྤྲྀ་	-12.4554
▁ཀ་པ་	-12.4591
▁ཀོ་ཊ་	-12.4591
▁གཤེ་	-12.4591
▁གློ་བུར་བ	-12.4591
▁དད	-12.4591
▁དྷེ	-12.4591
▁བསམ་གཏན་པ	-12.4591
▁བི་མ་ལ་	-12.4591
▁བྱིང་བ	-12.4591
▁མཁུར་བ་	-12.4591
▁ལམ་པོ་ཆེ	-12.4591
▁ལས་མ	-12.4591
▁ཀུན་དགའ་བོ	-12.4629
▁ཅི་སླད་	-12.4629
▁ཊི	-12.4629
▁དཔག་མེད་པ	-12.4629
▁དུས་ཡུན་	-12.4629
▁བཀླག་པ་	-12.4629
▁བག་མ	-12.4629
▁བར་མཚམས་	-12.4629
▁བསྒྱིངས་པ་	-12.4629
▁རང་འདོད་	-12.4629
▁རྙིལ་	-12.4629
▁བཏུལ་བ་	-12.4667
▁འདྲུ་བ་	-12.4667
▁ཡུན་རིངས་	-12.4667
▁ལྡོག	-12.4667
▁སེང་	-12.4667
▁གཙགས་	-12.4705
▁གོར་མ་ཆག་	-12.4705
▁ངུ་བ་	-12.4705
▁ཆག་པ	-12.4705
▁ཕོལ་མིག་	-12.4705
▁བསྙམས་	-12.4705
▁ཞགས་	-12.4705
▁ཞལ་ལ	-12.4705
▁འཁྲུགས	-12.4705
▁འཕྱར་བ	-12.4705
▁སྩལ	-12.4705
▁ཀུན་རིག་	-12.4744
▁ཆོག་ཤེས་	-12.4744
▁དྲངས	-12.4744
▁བཀན་	-12.4744
▁བྱེའུ་	-12.4744
▁མི་འད	-12.4744
▁མེ་བ་	-12.4744
▁འགྱིང་	-12.4744
▁ཡཏ	-12.4744
▁ཡུངས་མར་	-12.4744
▁རང་བཞིན་པ	-12.4744
▁རྟ་ཐུལ་	-12.4744
▁རྫ་མ་	-12.4744
▁སཱིའི་	-12.4744
▁གཡེར་	-12.4782
▁གཡོན་ལོགས་	-12.4782
▁གསར་པ	-12.4782
▁གོ་བྱེད་	-12.4782
▁མཆེ་	-12.4782
▁མཆོག་ཐོབ་པ	-12.4782
▁འབུ	-12.4782
▁རློམ་པ	-12.4782
▁ལི་ཡུལ་	-12.4782
▁ཤྭཱ་	-12.4782
▁སྒོ་གླེགས་	-12.4782
▁སྨིག་རྒྱུ	-12.4782
▁ཁོ་	-12.482
▁གང་ཡོད་པ	-12.482
▁ཉེ་དུ	-12.482
▁དགྲམ་པ	-12.482
▁དོང་བ	-12.482
▁མངར་བ	-12.482
▁མཉེན་པ	-12.482
▁ཚར་གཅོད་	-12.482
▁འོད་མ་	-12.482
▁ལཱྀ་	-12.482
▁ལོག	-12.482
▁ལྡ་ལྡི་	-12.482
▁ཤིག་པ་	-12.482
▁སྦྲང་མ་	-12.482
▁གླན་པ	-12.4859
▁བསྒྱིངས་པ	-12.4859
▁འདོད་ཁམས་	-12.4859
▁འདོད་ཆགས་པ་	-12.4859
▁རྒྱུ་གསུམ་	-12.4859
▁ལ་ག་	-12.4859
▁གྲུབ་བོ་	-12.4898
▁ཆོ་ངེ	-12.4898
▁བསྐམ་པ	-12.4898
▁ཛེ	-12.4898
▁ཡིད་གཞུངས་པ་	-12.4898
▁རྩི	-12.4898
▁ལམ་ཤེས་པ	-12.4898
▁ལུང་_	-12.4898
▁ལྐུགས་པ	-12.4898
▁ཤེས་བྱེད་	-12.4898
▁སུམ་མདོ་	-12.4898
▁སྐྱུག་	-12.4898
▁སྤར་	-12.4898
▁གཟུགས་ཅན	-12.4937
▁ཏི་བ་	-12.4937
▁ཐུལ་བ	-12.4937
▁ཐེབས་	-12.4937
▁དྷིཿ	-12.4937
▁ཕྱིར་བཅོས་པ	-12.4937
▁བསོ	-12.4937
▁བསྙེན་བཀུར་བ་	-12.4937
▁བྱི་ལ	-12.4937
▁ཚངས་ཆེན་	-12.4937
▁སྦངས་	-12.4937
▁གནས་འགྱུ	-12.4976
▁གཡོན	-12.4976
▁གར་མ་	-12.4976
▁ཅིའི་ཕྱིར	-12.4976
▁ཎར་	-12.4976
▁དྷྲྀ་	-12.4976
▁བྱད་གཟུགས་	-12.4976
▁བྱར་མེད་པ	-12.4976
▁བྲེས་	-12.4976
▁ཛྷལ་	-12.4976
▁འཇོག	-12.4976
▁ལྷག་ཆད་	-12.4976
▁སྣག་	-12.4976
▁ཁལ་	-12.5015
▁གཟུགས་སྐུ་	-12.5015
▁གོར་	-12.5015
▁ཉེར་ལེན་	-12.5015
▁དུབ་	-12.5015
▁མགོན་མེད་པ་	-12.5015
▁མན་ཤེལ་	-12.5015
▁མི་རོ་	-12.5015
▁ཟབ	-12.5015
▁ཟེ་འབྲུ་	-12.5015
▁འདམ་བུ་	-12.5015
▁འབྲུ་མང་པོ་	-12.5015
▁རགས་	-12.5015
▁རྨ་བྱ་ཆེན་མོ་	-12.5015
▁སྣུམ་བག་	-12.5015
▁ཀུན་འགྲོ་	-12.5055
▁ཁྲོད་པ་	-12.5055
▁གཏད	-12.5055
▁ཆེས	-12.5055
▁ཉལ	-12.5055
▁པུཾ་	-12.5055
▁བསྐལ་བ་	-12.5055
▁བསྐུམ་པ	-12.5055
▁མ་མཆུ་	-12.5055
▁མཚོ་སྐྱེས་	-12.5055
▁མེ་ཁྱེར་	-12.5055
▁མྱང་	-12.5055
▁འཁར་བ་	-12.5055
▁འཆལ་བ་	-12.5055
▁རྗེ་བོ་	-12.5055
▁རྨས་པ	-12.5055
▁རྩེར་	-12.5055
▁གཞལ་བྱ	-12.5094
▁ཆོས་སྐྱོང་	-12.5094
▁དམྱལ་བ་པ	-12.5094
▁དུས་བཞི་	-12.5094
▁ཕྲུགས་	-12.5094
▁བཀྲ་ཤིས་པ་	-12.5094
▁བགྲངས་	-12.5094
▁བཏུལ་བ	-12.5094
▁འགས་པ	-12.5094
▁འགོ་བ	-12.5094
▁འཆོས་པ	-12.5094
▁འདེགས་པ	-12.5094
▁ཡིན་མོད	-12.5094
▁ཤུན་	-12.5094
▁སྒྲོན་	-12.5094
▁སྟམྦྷ་	-12.5094
▁སྦྱིན་བྱེད་	-12.5094
▁ཏིང་	-12.5134
▁དཏྟ་	-12.5134
▁བརྒྱུས་	-12.5134
▁བསྣན་པ	-12.5134
▁མི་མོ	-12.5134
▁འགྲན་པ་	-12.5134
▁འཕྲོགས་	-12.5134
▁འཚོ་སྐྱོང་བ་	-12.5134
▁རྟོག་གེ་པ་	-12.5134
▁རྫས་གཅིག་	-12.5134
▁རླུང་མཚམས་	-12.5134
▁སཱ	-12.5134
▁སིཾ་	-12.5134
▁གཡའ་བ་	-12.5174
▁བརླ	-12.5174
▁ཞོ་ཤས་འཚོ་བ་	-12.5174
▁ཟིལ་གནོན་	-12.5174
▁འདོམས་	-12.5174
▁འཕྲོག་མ་	-12.5174
▁ཡེངས་པ	-12.5174
▁རྒྱུན	-12.5174
▁ལ་རྩ་བ	-12.5174
▁ལ་སྨན་པ་	-12.5174
▁ལྷང་	-12.5174
▁།།_	-12.5214
▁གནོད	-12.5214
▁ཕྱུག་པོ	-12.5214
▁ཕྱོགས་ཆོས་	-12.5214
▁བརྡབས་	-12.5214
▁བྱོན	-12.5214
▁མཆོད་འོས་	-12.5214
▁མཚལ་	-12.5214
▁འཇིགས་རུང་	-12.5214
▁འཛུད་པ་	-12.5214
▁ཡིད་གཞུངས་	-12.5214
▁རྒྱལ་བུ	-12.5214
▁རྟེན་བྱེད་པ	-12.5214
▁རྡེག་པ་	-12.5214
▁ཤིགས་	-12.5214
▁སྦོམ་པ་	-12.5214
▁སྲབ་པ་	-12.5214
▁གཡས་ལོགས་	-12.5254
▁གྷི་	-12.5254
▁ཆར་སྤྲིན་	-12.5254
▁ཉིང་	-12.5254
▁དུའམ	-12.5254
▁ཕྱི་བ	-12.5254
▁བརྟན་མ་	-12.5254
▁བལྟམས་པ་	-12.5254
▁བཤམ་པ་	-12.5254
▁བས་པ	-12.5254
▁བྲིས་སྐུ་	-12.5254
▁ཞིམ་	-12.5254
▁ཡཱཏ	-12.5254
▁རྗེ་ངར་	-12.5254
▁སིམ་པ་	-12.5254
▁སྐལ་བ	-12.5254
▁སྐེ་	-12.5254
▁སྒྲོམ་	-12.5254
▁སྦྲུམ་མ་	-12.5254
▁ཧིཾ་	-12.5254
▁གནྡྷེ་	-12.5295
▁བརྗེད་ངས་པ་	-12.5295
▁ཚིག་སྡུད་	-12.5295
▁ཟུག་པ	-12.5295
▁འཕང་བ	-12.5295
▁འི་བ་	-12.5295
▁འུག་	-12.5295
▁ཡ་པ་	-12.5295
▁ཡུངས་	-12.5295
▁རྟིང་	-12.5295
▁ལྷགས	-12.5295
▁ཀྟ་	-12.5335
▁གདེངས་ཅན་	-12.5335
▁ཆོས་ལྡན་	-12.5335
▁ཉི་ཚེ་བ་	-12.5335
▁ཏྲཱི་	-12.5335
▁དམ་པོ	-12.5335
▁བྲིམ་པ	-12.5335
▁འགྲིབ་	-12.5335
▁སྤུངས་	-12.5335
▁ཁྱུ་	-12.5376
▁ཉེ་རེག་	-12.5376
▁མཚོ་ཆེན་པོ་	-12.5376
▁མིད་	-12.5376
▁ཟུར་ཕུད་	-12.5376
▁འཚོང་བ	-12.5376
▁ལོ་རྒྱུས་	-12.5376
▁ཥུཿ	-12.5376
▁སྟོབས་པ་	-12.5376
▁གཏོད་	-12.5417
▁ཆུ་སྟོད་	-12.5417
▁དཾ	-12.5417
▁བདེ་ཆེན་པོ	-12.5417
▁བསྐ་བ	-12.5417
▁མ་གཞན་	-12.5417
▁མ་ལ་ཡ་	-12.5417
▁རྐང་གདུབ་	-12.5417
▁རྗེས་ཆགས་	-12.5417
▁རྦ་	-12.5417
▁སྐུལ་	-12.5417
▁ཁོང་འབྲས་	-12.5458
▁ག་གེ་མོ་	-12.5458
▁གང་སྔ	-12.5458
▁གཡུལ་འགྱེད་པ	-12.5458
▁ཐ་སྙད་པ	-12.5458
▁འདའ	-12.5458
▁ཡུང་བ་	-12.5458
▁ཡོན་ཆབ་	-12.5458
▁རྩུབ་པོ་	-12.5458
▁ལྷོགས་	-12.5458
▁སྐད་ཅིག་པ	-12.5458
▁སྐམ་པོ	-12.5458
▁ཧ་པ་	-12.5458
▁ཏཿ_	-12.5499
▁དཔལ་མོ་	-12.5499
▁ཕྲ་མ	-12.5499
▁བཀྲི་བ	-12.5499
▁བསུང་	-12.5499
▁མཐང་གོས་	-12.5499
▁རཽ	-12.5499
▁ལས་རྒྱ	-12.5499
▁སྔོན	-12.5499
▁ཧྨ་	-12.5499
▁ཧྲཱིཾ་	-12.5499
▁ཀིཏ་	-12.5541
▁ཁྱབ་བོ	-12.5541
▁ཁྲི་སྟན་	-12.5541
▁གངས་ཅན་	-12.5541
▁ཎཱ	-12.5541
▁ནོངས་པ	-12.5541
▁བཅོ་བརྒྱད་པ་	-12.5541
▁བཛྲཱི་	-12.5541
▁བསླངས་པ	-12.5541
▁མ་ཟིན་	-12.5541
▁འགྱིང་བག་	-12.5541
▁འོད་འཕྲོ་བ	-12.5541
▁སྐམ་ས	-12.5541
▁སློང་བ་པོ་	-12.5541
▁གཙུག་ཏོར་ཅན་	-12.5582
▁གླིང་ཆེན་པོ་	-12.5582
▁ཆུ་སོ་	-12.5582
▁དྲན་མེད་	-12.5582
▁ཕལ་ཆེན་	-12.5582
▁བློ་ངན་	-12.5582
▁ཞོན	-12.5582
▁ཟམ་པ་	-12.5582
▁རི་སུལ་	-12.5582
▁ལས་ལམ་	-12.5582
▁ལིཊ་_	-12.5582
▁སརྦཱ་	-12.5582
▁གཞོན་པ	-12.5624
▁ཏད་	-12.5624
▁ཏྲའི་	-12.5624
▁ཐིབས་པོ	-12.5624
▁དྭཱ་	-12.5624
▁བཀྲུ	-12.5624
▁བསམས	-12.5624
▁ཚོས་པ	-12.5624
▁འཁྱིལ་བ	-12.5624
▁འཆར	-12.5624
▁འབྲངས་པ	-12.5624
▁ལུགས་མ་	-12.5624
▁སྐུ་ལུས་	-12.5624
▁སྡོང་པོ	-12.5624
▁སྨ	-12.5624
▁ཁྲ་བོ་ལ་	-12.5666
▁དངོས་གྲུབ་བོ	-12.5666
▁དབྱིབས	-12.5666
▁དཾ་བ་	-12.5666
▁ན་རོ་	-12.5666
▁ཕངས་པ	-12.5666
▁བྷཾ་	-12.5666
▁མ་ཡིག་	-12.5666
▁མཐར་བྱེད་པ	-12.5666
▁མི་གུ	-12.5666
▁འགྱུར་པ	-12.5666
▁འདག་	-12.5666
▁ཡུངས་འབྲུ་	-12.5666
▁སྒོ་མ་	-12.5666
▁གདའ	-12.5708
▁ཆུ་འགྲམ་	-12.5708
▁ཆོས་སྦྱིན་	-12.5708
▁དཔག་མེད	-12.5708
▁དྲོས་པ་	-12.5708
▁བྷུ་བ་	-12.5708
▁ཙིནྟ་	-12.5708
▁ཙྱ་	-12.5708
▁འཆའ་བ་	-12.5708
▁འཚོང་བ་	-12.5708
▁རྐུབ་	-12.5708
▁སྤྱན་མ	-12.5708
▁སྤྲུལ་སྐུ་	-12.5708
▁སྲིང་	-12.5708
▁ཨ་ར་པ་	-12.5708
▁གདུགས་དཀར་	-12.575
▁ཆེན་མ་	-12.575
▁དོན་འགལ་བ་	-12.575
▁ནུཏྟ་	-12.575
▁ཕྱུག་པ་	-12.575
▁བཅོལ་བ་	-12.575
▁བཙོ་བླག་	-12.575
▁བླགས་	-12.575
▁མིད་པ	-12.575
▁ཛྱཱ་	-12.575
▁འཁྱམ་	-12.575
▁ཡེ་ཤེས	-12.575
▁རིགས་ཆེན་	-12.575
▁རོ་སྨད་	-12.575
▁རྐང་རྗེས་	-12.575
▁ལོ་ལེགས་པ་	-12.575
▁ཤིང་བུ་	-12.575
▁སོ་བ་	-12.575
▁སྃ་	-12.575
▁སྐབས་མེད་	-12.575
▁སྔོན་ཚེ་	-12.575
▁སྣུ་	-12.575
▁_	-12.5793
▁ཁྲིད་པ་	-12.5793
▁གཏམས་པ་	-12.5793
▁གཟེངས་བསྟོད	-12.5793
▁ཅི་ཞིག	-12.5793
▁དམིགས་བསལ་	-12.5793
▁བ་བླ་	-12.5793
▁བསྡད་པ	-12.5793
▁མཉམ་བཞག་	-12.5793
▁མི་སྨྲ་བ	-12.5793
▁ཚངས་སྤྱོད་	-12.5793
▁འཆི་ཀ	-12.5793
▁འུག་པ	-12.5793
▁རྣོན་	-12.5793
▁ལམ་པ་	-12.5793
▁ལམ་པོ་ཆེ་	-12.5793
▁ལམ་བསྟན་	-12.5793
▁ས་ལེ་སྦྲམ་	-12.5793
▁ཆིངས་	-12.5836
▁ཆུ་བ་	-12.5836
▁དཀར་ནག་	-12.5836
▁དངོས་མེད་པ	-12.5836
▁དཔལ་ལྷ་	-12.5836
▁བཙའ་བ	-12.5836
▁བརླན་	-12.5836
▁བསྣོལ་བ་	-12.5836
▁བྷྱོ	-12.5836
▁ཡོངས་ཤེས་	-12.5836
▁ཡོལ་	-12.5836
▁རུལ་བ	-12.5836
▁རྔ་སྒྲ་	-12.5836
▁ལས་འཕྲོ	-12.5836
▁སོ་ག་	-12.5836
▁སོལ་	-12.5836
▁སྒྲ་མེད་པ་	-12.5836
▁ཨཽ	-12.5836
▁ངོ་མཚར་བ	-12.5878
▁དབྱངས	-12.5878
▁ཕངས་པ་	-12.5878
▁བཙུགས་པ	-12.5878
▁བརྗེས་	-12.5878
▁བཤང་ལམ་	-12.5878
▁བསྙེལ་བ་	-12.5878
▁མི་ཆེ་བ་	-12.5878
▁འདུ་ཤེས	-12.5878
▁འཕྲོད་	-12.5878
▁རེས་འགའ་བ་	-12.5878
▁སྙན་ངག་	-12.5878
▁སྲི་ཞུ་	-12.5878
▁གཟུགས་བཟང་བ	-12.5921
▁དང་ཁ	-12.5921
▁དུས་མཉམ་པ་	-12.5921
▁དེ་མིན་	-12.5921
▁བགོ་སྐལ་	-12.5921
▁བུདྡྷ་བོ་	-12.5921
▁མི་རིགས	-12.5921
▁ཚོང་འདུས་	-12.5921
▁ཞིང་པ་	-12.5921
▁རྔ	-12.5921
▁རྟུལ་བ	-12.5921
▁ལྃ་	-12.5921
▁སྟེགས་བུ	-12.5921
▁ཀུན་འཛིན་	-12.5965
▁གཞན་སེལ་བ	-12.5965
▁གྷ	-12.5965
▁ཏཱ་ལ་	-12.5965
▁ཐ་སྙད་པ་	-12.5965
▁དཱི་པ་	-12.5965
▁ཕྲ་མེན་	-12.5965
▁བཅོས་མ	-12.5965
▁བརྐོ་བ	-12.5965
▁བྲིམས་	-12.5965
▁མངར་གསུམ་	-12.5965
▁ཞིང་ས་	-12.5965
▁འདོར	-12.5965
▁རྩེ་དགའ་	-12.5965
▁ལོང་བུ་	-12.5965
▁སོམས་	-12.5965
▁སྒོ་བ	-12.5965
▁སྙིང་ལས་	-12.5965
▁སྟེ་ཁ་	-12.5965
▁ཀུ་མཱ་ར་	-12.6008
▁ཏི་ས་	-12.6008
▁དོན་གྲུབ་པ་	-12.6008
▁ཟུག་གཟེར་	-12.6008
▁ཟླུམ་པ	-12.6008
▁འགེངས་པ་	-12.6008
▁འབོགས་པ	-12.6008
▁འིའོ་	-12.6008
▁ཡིག་འབྲུ	-12.6008
▁རྫོང་	-12.6008
▁ལམ་བསྟན་པ	-12.6008
▁ཤིང་གནས་	-12.6008
▁སུག་པ་	-12.6008
▁སྤྱོ་བ་	-12.6008
▁གཙེས་	-12.6052
▁གསུས་པོ་	-12.6052
▁གསོང་པོ	-12.6052
▁གསོས་པ་	-12.6052
▁ཆ་སྤྱད་	-12.6052
▁ཆུ་ལྷ	-12.6052
▁དཀོན	-12.6052
▁དྲི་མེད་པ	-12.6052
▁ནང་མི་	-12.6052
▁ཕོ་བ་	-12.6052
▁ཕྱི་ཕྱིར་	-12.6052
▁བགས་	-12.6052
▁བཅའ་	-12.6052
▁བློ་བཟང་	-12.6052
▁མགོ་རེག་	-12.6052
▁མནའ་མ་	-12.6052
▁མུ་བཞི་	-12.6052
▁ཙ་རི་	-12.6052
▁འཆག་ས་	-12.6052
▁འདྲེན	-12.6052
▁འོད་ཆུང་	-12.6052
▁ཡཎ་	-12.6052
▁ཤིང་ཚ་	-12.6052
▁སྐུ་བཞི་	-12.6052
▁སྨྱོས་པ	-12.6052
▁ཀུ་རུ་ཀུལླེ་	-12.6095
▁ཁོམ་	-12.6095
▁གཙེས་པ	-12.6095
▁དྲས་	-12.6095
▁ཕྱེ་མ་ལེབ་	-12.6095
▁བཙོན་	-12.6095
▁བརྟུལ་བ	-12.6095
▁བས་མཐ	-12.6095
▁མིང་ཐོ	-12.6095
▁འགུལ	-12.6095
▁འདུལ་ཞིང་	-12.6095
▁རང་བདག་	-12.6095
▁རོ་མྱང་	-12.6095
▁ལ་བཏགས་པ	-12.6095
▁ཤིང་ཁ་	-12.6095
▁ཀླག་པ་	-12.6139
▁གཅན་	-12.6139
▁གཅེས་	-12.6139
▁གསེར་ཐུབ་	-12.6139
▁དབབ	-12.6139
▁བག་ཙམ་	-12.6139
▁བོན་	-12.6139
▁མངོན་སུམ་པ་	-12.6139
▁འདུས་བཟང་	-12.6139
▁འཛམ་བུ་གླིང་	-12.6139
▁ར་ར་	-12.6139
▁ལས་རྒྱ་	-12.6139
▁ཤེད་བུ་	-12.6139
▁ཁ་ཆུ་	-12.6183
▁ཁཾ	-12.6183
▁གཞོལ	-12.6183
▁ཊེ	-12.6183
▁ཐག	-12.6183
▁དབུགས་དབྱུང་བ	-12.6183
▁ནིང་	-12.6183
▁བསྲེ་བ	-12.6183
▁ཡིད་འོང་བ	-12.6183
▁ཡེངས་	-12.6183
▁རྒུན་འབྲུ་	-12.6183
▁ཥྱཱ་	-12.6183
▁སྐུར་བ	-12.6183
▁སྣས་	-12.6183
▁སྦལ་པ་	-12.6183
▁སྨན	-12.6183
▁ཀཱཿ	-12.6228
▁ཀུན་ལྡན་	-12.6228
▁ཁ་ཚར་	-12.6228
▁གསོད་བྱེད་	-12.6228
▁ཅི་འདྲ	-12.6228
▁ཆད	-12.6228
▁ཉེའུ་	-12.6228
▁ཐུན་ཕྱེད་	-12.6228
▁དྲི་བཟང་	-12.6228
▁བསིལ་ཡབ་	-12.6228
▁ཙུན་	-12.6228
▁ཚིག་ལྷག་	-12.6228
▁འགྲུབ་བོ་	-12.6228
▁འབྲི་	-12.6228
▁ཡོག་པ	-12.6228
▁རྟིང་པ་	-12.6228
▁རྣ་ལམ་	-12.6228
▁ཤྭི་	-12.6228
▁གཅུགས་པ	-12.6272
▁གཏམས་	-12.6272
▁གྲྭར་	-12.6272
▁ཆེ་ཞེ་	-12.6272
▁དགབ་པ་	-12.6272
▁བསྲེག་བྱ་	-12.6272
▁མེ་མདག་	-12.6272
▁ཟབ་བོ	-12.6272
▁ཡུལ་མེད་	-12.6272
▁ཡོན་པོ་	-12.6272
▁རུལ་པ་	-12.6272
▁རྣམ་གྲོལ་བ	-12.6272
▁ཤ་སྦྲང་	-12.6272
▁ཤུག་པ་	-12.6272
▁སྐྱེ་འགག་	-12.6272
▁སྔོན་བྱུང་བ	-12.6272
▁ཨུ་མ་	-12.6272
▁ཐམས་	-12.6317
▁པཱུརྦ་	-12.6317
▁ཕུགས་	-12.6317
▁ཕུར་མ་	-12.6317
▁བཀུམ་	-12.6317
▁མཆོད་སྟོན་	-12.6317
▁མིད་པ་	-12.6317
▁ཙི་ཏ་	-12.6317
▁ཚོགས་བདག་	-12.6317
▁འདྲིམ་པ	-12.6317
▁འབྱེད	-12.6317
▁འབྲེལ	-12.6317
▁ལྟག་ཆོད་	-12.6317
▁སྐེམས་པ	-12.6317
▁སྐྱུགས་	-12.6317
▁ཧྲ་	-12.6317
▁ཉེར་ཞི་	-12.6362
▁ནོར	-12.6362
▁བསྩགས་པ་	-12.6362
▁མ་བ་	-12.6362
▁མཐུ་བོ་	-12.6362
▁མིག་ལམ་	-12.6362
▁ཚམ་ངམ་	-12.6362
▁ཟ་བྱེད་	-12.6362
▁འཁོད	-12.6362
▁འགྲས་པ་	-12.6362
▁འོད་བྱེད་པ་	-12.6362
▁ཡང་འཇུག་	-12.6362
▁ལནྡྷ་	-12.6362
▁ཁྱ་	-12.6407
▁གཉེར	-12.6407
▁གད་མོ་	-12.6407
▁གནམ་ལྕགས་	-12.6407
▁ཆུ་བདག་	-12.6407
▁དཱུར་བ	-12.6407
▁བཀབ་པ	-12.6407
▁བསྲེགས	-12.6407
▁བྱིས་	-12.6407
▁བྲེལ་བ་	-12.6407
▁བྷྱཿ_	-12.6407
▁མཆོག་ལྡན་པ	-12.6407
▁མེ་དཔུང་	-12.6407
▁འགེངས་	-12.6407
▁འབྱེར་	-12.6407
▁རབ་གནས་པ	-12.6407
▁རཱཿ	-12.6407
▁རྒན་མོ་	-12.6407
▁སྒྲོལ	-12.6407
▁ཁྲེལ་མེད་པ་	-12.6452
▁ཇི་སྲིད་པ་	-12.6452
▁ཐར	-12.6452
▁ནག་པ	-12.6452
▁ནཱ་པ་	-12.6452
▁ཕན་དོན་	-12.6452
▁ཕྱེད་ཙམ་	-12.6452
▁བཙོ་མ	-12.6452
▁མེ་ལྕེ	-12.6452
▁མེ་ཤེལ་	-12.6452
▁ཙོག་ཙོག་པོ	-12.6452
▁ཚོགས་ཆེན་	-12.6452
▁ཞིང་མིག་	-12.6452
▁འཕར་བ	-12.6452
▁འཚམས་པ	-12.6452
▁ཨཎའོ	-12.6452
▁ཀླུ་ཆེན་པོ་	-12.6498
▁གཅོད་བྱེད་	-12.6498
▁གཡར་	-12.6498
▁བདེར་གཤེགས་	-12.6498
▁བརྟུལ་བ་	-12.6498
▁བསྒོམས	-12.6498
▁མཐར་གྱིས་པ	-12.6498
▁མུ་སྟེགས་པ	-12.6498
▁ཙཾ་	-12.6498
▁རྐུན་	-12.6498
▁ལྐོག་ཤལ་	-12.6498
▁ཥྱོ་	-12.6498
▁སིནྡྷུ་	-12.6498
▁སིམ་པ	-12.6498
▁སྙོམས་འཇུག་པ	-12.6498
▁སྤང་བྱ	-12.6498
▁ཧར་	-12.6498
▁ཨད་	-12.6498
▁གཅུགས་	-12.6544
▁གྲང་མོ་	-12.6544
▁ཆམ་པ་	-12.6544
▁ཆོས་འབྱུང་བ	-12.6544
▁ཏུཿ_	-12.6544
▁ཐེབས་པ	-12.6544
▁དུག་སེལ་	-12.6544
▁དེ་དག་པ	-12.6544
▁དྲལ་བ་	-12.6544
▁ནནྟ་	-12.6544
▁ནུ་བོ་	-12.6544
▁ཕ་གུ་	-12.6544
▁ཕྱི་དྲོ	-12.6544
▁ཚངས་ཐིག་	-12.6544
▁འགུམ་པ	-12.6544
▁འབུ་	-12.6544
▁རཽ་	-12.6544
▁རློམ་	-12.6544
▁ཤྱཱ་	-12.6544
▁སྙེམས་པ	-12.6544
▁སྣག་ཚ་	-12.6544
▁ཨ་ཧ་	-12.6544
▁ཨཱརྱཱ་བ་	-12.6544
▁གལ་	-12.659
▁གིའོ་	-12.659
▁ཐིག་ནག་	-12.659
▁དྲགས་པ་	-12.659
▁བདེ་ལྡན་	-12.659
▁བསྟིམ་པ	-12.659
▁མཚན་ལྡན་	-12.659
▁མྱ་ངན་མེད་པ་	-12.659
▁ཙླི་	-12.659
▁ཡི་ག	-12.659
▁རོ་མཆོག་	-12.659
▁ཤིགས་པ་	-12.659
▁སོར་གདུབ་	-12.659
▁སྒྱུར	-12.659
▁གཏམ་རྒྱུད་	-12.6636
▁ཐུར་མ	-12.6636
▁དབྲོག་པ	-12.6636
▁པད་མོ	-12.6636
▁བཞེས་པ་	-12.6636
▁བྱུགས	-12.6636
▁མཆིའོ་	-12.6636
▁རྒྱལ་མོ	-12.6636
▁ལྔ་ལྡན་	-12.6636
▁ལྕུག་མ	-12.6636
▁སྐྱེ་འགྲོ་	-12.6636
▁སྙེགས་	-12.6636
▁སྤྲིན་ཆེན་པོ	-12.6636
▁ཀཿ_	-12.6682
▁ཁ་ཤ	-12.6682
▁གང་ལྟར་	-12.6682
▁གནས་ལུགས་	-12.6682
▁གཤེ་བ	-12.6682
▁གསིལ་	-12.6682
▁གསོད	-12.6682
▁གྲེའུ་	-12.6682
▁གྷྲ་	-12.6682
▁ཅི་དགའ་	-12.6682
▁ཇི་བཞིན	-12.6682
▁ཐུབ་ཆེན་	-12.6682
▁ཐོག་མེད་	-12.6682
▁པཾ	-12.6682
▁བཀའ་སྩོལ་	-12.6682
▁བརྩིས་	-12.6682
▁མ་ཆེན་	-12.6682
▁རུའོ	-12.6682
▁ལས་ཚོགས་	-12.6682
▁སེར་མོ	-12.6682
▁གཡོས	-12.6729
▁ཆུ་འཛིན་	-12.6729
▁ཕྱུག་པ	-12.6729
▁བཙོ་བ	-12.6729
▁བྱང་གྲོལ་	-12.6729
▁མ་ཕམ་པ་	-12.6729
▁ཛ་བ་	-12.6729
▁ཛྙཱ་པ་	-12.6729
▁འགྱིང་བ	-12.6729
▁འགྲོ་བ་པོ	-12.6729
▁འདེགས་པ་	-12.6729
▁རོ་བརྒྱ་	-12.6729
▁རྨོངས	-12.6729
▁སྐམས་པ་	-12.6729
▁དེ་ལས	-12.6776
▁བཀྲོལ་བ	-12.6776
▁བཅོ་བརྒྱད་པ	-12.6776
▁བལ་པོ་	-12.6776
▁བྷྱཱཾ་	-12.6776
▁མུར་འདུག་	-12.6776
▁ཙཿ	-12.6776
▁འགྱེལ་བ	-12.6776
▁འཐོབ་པོ་	-12.6776
▁རལ་བ་	-12.6776
▁རློན་པ	-12.6776
▁ལུད་	-12.6776
▁ལུས་མེད་པ	-12.6776
▁ཥཊ་	-12.6776
▁སྤོ་བ	-12.6776
▁ཁབ་རལ་	-12.6823
▁ཕེག་	-12.6823
▁བཀྲེས་སྐོམ་	-12.6823
▁བར་གནས་པ་	-12.6823
▁བྱར་མེད་པ་	-12.6823
▁བྲཱ་	-12.6823
▁ཚ་ལ་	-12.6823
▁ཟངས་མ	-12.6823
▁འགྲངས་པ་	-12.6823
▁ཡིད་བརྟན་པ	-12.6823
▁ལང་བ	-12.6823
▁ལྷན་པ་	-12.6823
▁སྤྲོའོ	-12.6823
▁སྦྱར་མ་	-12.6823
▁ཧེ་མ་	-12.6823
▁གཞོག་པ་	-12.687
▁ཉི་ཤུ་པོ་	-12.687
▁ནོར་པ་	-12.687
▁པོག་	-12.687
▁བརྟས་	-12.687
▁བསྟིམ་	-12.687
▁མི་མགོ་	-12.687
▁ཙམ་པ	-12.687
▁ཟེ་བ་	-12.687
▁འཐབ་བྲལ་བ་	-12.687
▁རབ་འབྱམས་	-12.687
▁རི་བ	-12.687
▁རིད་	-12.687
▁རྡུང་བ	-12.687
▁རྩེག་	-12.687
▁ལྷབ་ལྷུབ་	-12.687
▁ས་ཡ	-12.687
▁སྙིང་ཁ	-12.687
▁སྤྲད་པ་	-12.687
▁ཁ་ཕྱེ་	-12.6918
▁གཞལ་བ་	-12.6918
▁གྷུཊ་	-12.6918
▁ཅན་པ	-12.6918
▁ཉེད་པ་	-12.6918
▁ཏཱམ	-12.6918
▁དཀར་སེར་	-12.6918
▁དོན་ལྡན་	-12.6918
▁ནང་རྗེ་	-12.6918
▁ཕེ་	-12.6918
▁ཕྱི་རུ་	-12.6918
▁ཕྱིར་ལོག་པ	-12.6918
▁ཕྱོགས་ཕྱོགས་	-12.6918
▁བཀའ་མ་	-12.6918
▁བྱེད་རྒྱུ	-12.6918
▁མདོངས་	-12.6918
▁ཚིགས་མ་	-12.6918
▁ཞིང་གཤེགས་པ་	-12.6918
▁ཞུས	-12.6918
▁འགྲོལ	-12.6918
▁འདྲིས་	-12.6918
▁འབྲས་བུ་ཆེ་བ	-12.6918
▁རྒྱང་རིང་	-12.6918
▁རྒྱུད་སྡེ་	-12.6918
▁རྟ་རྣ་	-12.6918
▁ལིག་	-12.6918
▁ལྷོད་པ་	-12.6918
▁ཤ་ལྔ་	-12.6918
▁སྐུ་གསུང་ཐུགས	-12.6918
▁སྐྱོད་པ	-12.6918
▁སྔན་	-12.6918
▁སྤུ་གྲི་	-12.6918
▁ཆུན་	-12.6965
▁དག་སྣང་	-12.6965
▁དོང་ཙེ་	-12.6965
▁ཕུག་པ་	-12.6965
▁བླུན་པ་	-12.6965
▁འོན་	-12.6965
▁ཡྃ་	-12.6965
▁རང་སྣང་	-12.6965
▁རེའུ་	-12.6965
▁རྒྱུ་མ	-12.6965
▁རྨིས་	-12.6965
▁ཀུན་སྤངས་	-12.7013
▁ཀོ་ཤ་	-12.7013
▁གཅེར་བུ་པ	-12.7013
▁ཐབ་མོ་	-12.7013
▁ཐམ་པ	-12.7013
▁དེང་སང་	-12.7013
▁པ་ཏྲ་	-12.7013
▁བརླན་པ་	-12.7013
▁རྗེས་གནང་	-12.7013
▁ཤུ་ཏི་	-12.7013
▁སྐྱེས་མ	-12.7013
▁སྒྲོན་མེ་	-12.7013
▁སྦ་	-12.7013
▁ངེས་དོན་	-12.7062
▁ཅ་	-12.7062
▁བརྩད་པ་	-12.7062
▁མཐས་གཏུགས་པ	-12.7062
▁ཙམ་པ་ཀ་	-12.7062
▁འགོག	-12.7062
▁འདམ་སྐྱེས་	-12.7062
▁འབོད་པ	-12.7062
▁ཡ་རབས་	-12.7062
▁རློབས་	-12.7062
▁ཤིང་ལོ་	-12.7062
▁སྐཱ་	-12.7062
▁སྐེ་རགས་	-12.7062
▁སྔོན་བྱུང་	-12.7062
▁སྟོང་པོ་	-12.7062
▁སྲན་ཆུང་	-12.7062
▁ཉུག་པ	-12.711
▁དགྱེ་བ	-12.711
▁པལ་	-12.711
▁བཞུད་པ་	-12.711
▁བརླབ་བོ	-12.711
▁མེ་འོད་	-12.711
▁ཛི	-12.711
▁འཚོལ་	-12.711
▁ཡབ	-12.711
▁རོ་ཧི་ཏ་	-12.711
▁རྀཏ་	-12.711
▁ཤོང་	-12.711
▁སྐོར་བ་	-12.711
▁སྐྱིད་པ་	-12.711
▁སླད་རོལ་	-12.711
▁ཨརྐའི་	-12.711
▁གཟོ་	-12.7159
▁ཆུ་མ་	-12.7159
▁ཐ་ཆད་	-12.7159
▁ཐལ་ཏྲེས་	-12.7159
▁པུར་	-12.7159
▁བཏ	-12.7159
▁བཤམས་པ	-12.7159
▁ཙན་	-12.7159
▁འགྲོ་མགྱོགས་	-12.7159
▁རྨུགས་པ	-12.7159
▁ལུད་པ	-12.7159
▁སཾ	-12.7159
▁།_།།	-12.7208
▁ཆགས་སྡང་	-12.7208
▁དྲ	-12.7208
▁བརྣན་	-12.7208
▁མཆོག་ཐོབ་	-12.7208
▁མས	-12.7208
▁འབའ་ཞིག་པ	-12.7208
▁རན་པ་	-12.7208
▁ལམ་གཉིས་	-12.7208
▁ལྐུགས་	-12.7208
▁སྐྱོ་མ་	-12.7208
▁སྒོ་གཏན་	-12.7208
▁སྲེག་བྱེད་	-12.7208
▁ཀ་དག་	-12.7257
▁གཟོན་པ	-12.7257
▁ཆེན་པོ་པ	-12.7257
▁ཎ་པ་	-12.7257
▁དྲན་བཞིན་	-12.7257
▁པྲ་བ་	-12.7257
▁པྲཱི་	-12.7257
▁བཏུབ་པ	-12.7257
▁བསྐོ་	-12.7257
▁བསྙུངས་པ་	-12.7257
▁མི་མོ་	-12.7257
▁རས་མ་	-12.7257
▁རྒྱལ་མ་	-12.7257
▁རྙིང་པ	-12.7257
▁རྭ་ཅན་	-12.7257
▁ལཱི	-12.7257
▁སྐྱེས་པོ	-12.7257
▁སྟྲཱི་	-12.7257
▁སྤུ་གྲི	-12.7257
▁ཨརྒྷཾ་	-12.7257
▁ཨཱདྱ་	-12.7257
▁གཅེས་སྤྲས་	-12.7306
▁ཐམ་པ་	-12.7306
▁དེ་ལྡན་	-12.7306
▁ནས་ཆུ	-12.7306
▁ཕལ་ཆེ་བ་	-12.7306
▁བརྩམས	-12.7306
▁བརྫེས་	-12.7306
▁མ་དྲུག་	-12.7306
▁ཟོས	-12.7306
▁འཇིགས་སྐྲག་	-12.7306
▁འཐག་པ་	-12.7306
▁འབོད་པ་	-12.7306
▁རྭ	-12.7306
▁ཥིཉྩཱ་	-12.7306
▁སྟཱ་	-12.7306
▁སྣ་རྩེ་	-12.7306
▁སྤུག་	-12.7306
▁སྦུ་གུ	-12.7306
▁ཀུ་བ་	-12.7356
▁གདངས་པ	-12.7356
▁ཉོ་བ	-12.7356
▁ཐལ་འགྱུར་	-12.7356
▁དག་བྱེད་པ་	-12.7356
▁དུས་མཉམ་	-12.7356
▁མཆོངས་	-12.7356
▁མེས་པོ་	-12.7356
▁ཚུལ་འཆོས་	-12.7356
▁ཛིཀ་	-12.7356
▁རྡོ་ལེབ་	-12.7356
▁སྦར་བ་	-12.7356
▁སྦྲིད་པ་	-12.7356
▁སླས་	-12.7356
▁གཤེད	-12.7406
▁ཏྲཿ	-12.7406
▁པ་ལ་ཤ	-12.7406
▁ཕུར་	-12.7406
▁བདེ་སྟོང་	-12.7406
▁བཞེངས	-12.7406
▁བརྩད་པ	-12.7406
▁བརྫེས་པ	-12.7406
▁མཛེས་མ	-12.7406
▁ཡཱཾ	-12.7406
▁ར་རོ་བ་	-12.7406
▁རྔུབ་པ	-12.7406
▁སྟོངས་པ	-12.7406
▁སྡོང་དུམ་	-12.7406
▁ཀུན་ད་	-12.7456
▁གདུགས་དཀར་པོ་	-12.7456
▁གཟུགས་ཁམས་	-12.7456
▁ཐིགས་པ	-12.7456
▁དགུག་གཞུག་	-12.7456
▁ནནྡ་	-12.7456
▁ནོངས་	-12.7456
▁ནོར་བདག་	-12.7456
▁པགས་	-12.7456
▁ཕེབས་	-12.7456
▁ཕྱོགས་མེད་པ	-12.7456
▁བཟོ་བོ་	-12.7456
▁བླུན་	-12.7456
▁མཚན་གཉིས་པ་	-12.7456
▁མིག་འབྲས་	-12.7456
▁འོལ་	-12.7456
▁རྐྱེན་སྨན་	-12.7456
▁རྡུང་	-12.7456
▁ཤུན་ལྤགས་	-12.7456
▁སྐྱེས་བུ་མཆོག་	-12.7456
▁སྒྲ་འཇུག་པ	-12.7456
▁སྨེ་བ་	-12.7456
▁ཨཱམ་	-12.7456
▁གཙེས་པ་	-12.7506
▁གྲང་མོ	-12.7506
▁གྲོགས་མོ་	-12.7506
▁གླུ་གར་	-12.7506
▁ནན་ཏུར་	-12.7506
▁ནཱིའི་	-12.7506
▁བརྐམ་པ་	-12.7506
▁བྱེ་བྲག་པ	-12.7506
▁བྷིནྡ་	-12.7506
▁བྷྱས་	-12.7506
▁མཆོད་གནས་	-12.7506
▁འཇུད་པ	-12.7506
▁འཕར་མ་	-12.7506
▁ལག་གི་བླ་	-12.7506
▁ཁུ	-12.7557
▁ཁྲག	-12.7557
▁གྱེས་པ་	-12.7557
▁གྲངས	-12.7557
▁གྲོ་ག	-12.7557
▁ཐབས་མཁས་	-12.7557
▁ད་ལྟ	-12.7557
▁དཀྲུག་པ	-12.7557
▁དགག་དབྱེ	-12.7557
▁དམར་མོ	-12.7557
▁བརྐྱང་པ་	-12.7557
▁བསྐྱེད་རིམ་	-12.7557
▁བློ་སྐྱེ་བ	-12.7557
▁མཐོ་དམན་	-12.7557
▁ཙརྩི་	-12.7557
▁ཤྩ	-12.7557
▁སྡེའུ་	-12.7557
▁སྨན་སྣ་	-12.7557
▁སྨེ་ཤ་ཅན་	-12.7557
▁ཀུན་སྣང་	-12.7608
▁ཀླུ་མོ་	-12.7608
▁གཏུན་	-12.7608
▁གཤོལ་	-12.7608
▁ཉག་གཅིག་	-12.7608
▁ཎིའི་	-12.7608
▁ཐུབ	-12.7608
▁དུང་ཆོས་	-12.7608
▁ཕུལ་བྱུང་	-12.7608
▁ཕྱིར་རྒོལ་བ	-12.7608
▁བཀབ་པ་	-12.7608
▁བཅབ་པ	-12.7608
▁བརྐོས་པ	-12.7608
▁བསྣོལ་བ	-12.7608
▁མཽ་	-12.7608
▁ཚོང་ཁང་	-12.7608
▁འུ་སུ་	-12.7608
▁རྙི	-12.7608
▁སྒོ་མོ་	-12.7608
▁སྟོར་བ	-12.7608
▁སྤུངས་པ་	-12.7608
▁སྤོངས	-12.7608
▁སླད	-12.7608
▁ཨོཾ་བ་	-12.7608
▁ཀ་ཁ་	-12.7659
▁ཊྭཱྃ་	-12.7659
▁དགའ་མ	-12.7659
▁དོན་བསྡུས་པ་	-12.7659
▁པི་པ་	-12.7659
▁པྃ་	-12.7659
▁བཙོངས་	-12.7659
▁མ་ཐོགས་པ	-12.7659
▁མུཉྩ་	-12.7659
▁འཆེ་བ	-12.7659
▁ལྷུར་ལེན་	-12.7659
▁སྒྲ་མེད་	-12.7659
▁སྒྲ་ལྡན་	-12.7659
▁སྙིགས་མ	-12.7659
▁སྟན་གཅིག་	-12.7659
▁སྦུ་	-12.7659
▁ཧོམ་ཁུང་	-12.7659
▁ཀླད་	-12.771
▁ཁྱད་མེད་	-12.771
▁ངེ་	-12.771
▁ངེས་འབྱེད་	-12.771
▁ཅེའོ	-12.771
▁ཏར་	-12.771
▁ཏོག	-12.771
▁ཏྱའི་	-12.771
▁དོང་ག་	-12.771
▁ནོར་འཛིན་	-12.771
▁ཕུ་བོ་	-12.771
▁བྱ་ཁྱུང་	-12.771
▁འགྱིང་བ་	-12.771
▁འཇུག་བྱེད་	-12.771
▁འབབ་ཆུ	-12.771
▁ཀླད་པ	-12.7762
▁གང་བུ་	-12.7762
▁གླིང་པ	-12.7762
▁ཕོད་པ་	-12.7762
▁བགེགས་བསྐྲད་	-12.7762
▁མཆོག་ལྡན་	-12.7762
▁མརྒད་	-12.7762
▁ཚོང་དུས་	-12.7762
▁ཟངས་མ་	-12.7762
▁འཆལ་	-12.7762
▁འཕྲུལ་དག	-12.7762
▁འཕྲོག	-12.7762
▁ཡང་འཇུག་པ་	-12.7762
▁ཤྲ་བ་	-12.7762
▁སིན་	-12.7762
▁སྒོམ་པ་པོ	-12.7762
▁ཁ་ཆེ་	-12.7814
▁གཞི་མཐུན་པ	-12.7814
▁གཟུགས་མཛེས་	-12.7814
▁གཤེད་མ་	-12.7814
▁གླེགས་བུ་	-12.7814
▁གྷྲཾ་	-12.7814
▁དཀར་གསུམ་	-12.7814
▁དགེ་སློབ་མ	-12.7814
▁དྷཾ་	-12.7814
▁དྷཿ	-12.7814
▁ནོ་པ་	-12.7814
▁མཚན་མཁན་	-12.7814
▁མཛེས་ལྡན་	-12.7814
▁ཙེ	-12.7814
▁ཛཱི་བ་	-12.7814
▁འདྲིའོ	-12.7814
▁འབྲུམ་ཕྲན་	-12.7814
▁ལ་ད	-12.7814
▁ལམ་ཤེས་	-12.7814
▁ཤོར་བ་	-12.7814
▁སྦོས་	-12.7814
▁སྲུལ་པོ	-12.7814
▁ཨུའི་	-12.7814
▁ཀུན་བཟང་	-12.7866
▁ཉ་ཤ་	-12.7866
▁ཉན་ཐོས་པ་	-12.7866
▁ཏྱཾ་	-12.7866
▁དགུང་	-12.7866
▁བཅོ་བརྒྱད་པོ་	-12.7866
▁བཤམ་པ	-12.7866
▁བསོ་	-12.7866
▁བསྲོ་	-12.7866
▁བླ་རེ	-12.7866
▁མོས	-12.7866
▁ཙིཏྟཾ་	-12.7866
▁ཚིག་མཐའ་	-12.7866
▁འཁོར་བ་པ་	-12.7866
▁འབགས་པ	-12.7866
▁འབིགས་བྱེད་	-12.7866
▁ལག་གདུབ་	-12.7866
▁ལྟག་པ	-12.7866
▁ལྱཱ་	-12.7866
▁སྐྱ	-12.7866
▁སྐྱུར་པོ་	-12.7866
▁སྒྱུག་	-12.7866
▁སྙེད	-12.7866
▁སྣང་སྲིད་	-12.7866
▁སྤྲིང་	-12.7866
▁སྤྲོས་བྲལ་	-12.7866
▁སྨྱོ་བ	-12.7866
▁གཟེངས་བསྟོད་པ་	-12.7918
▁ཆ་མཉམ་པ་	-12.7918
▁ཊཾ་	-12.7918
▁དོན་མཐུན་པ	-12.7918
▁བགོ	-12.7918
▁བཏུད་པ	-12.7918
▁བཙུམས་	-12.7918
▁བར་གནས་	-12.7918
▁བརྗེ་བ་	-12.7918
▁བུ་གུ་	-12.7918
▁མདེའུ་	-12.7918
▁ཟར་མ	-12.7918
▁འཁྱམ་པ	-12.7918
▁འཁྱིལ	-12.7918
▁འདོམས་པ	-12.7918
▁རིད་པ་	-12.7918
▁སམྦ་	-12.7918
▁སྤང་སྤོས་	-12.7918
▁ཁུང་བུ	-12.7971
▁གཉེན་འདུན་	-12.7971
▁ཆོས་རྒྱལ་	-12.7971
▁ཏྟ་	-12.7971
▁དུས་བཞི	-12.7971
▁བ་མེན་	-12.7971
▁བཱུ་	-12.7971
▁ཙམ་པོ་	-12.7971
▁འགྲོ་པོ་	-12.7971
▁འདུན་ས་	-12.7971
▁འཛིན་པ་པོ་	-12.7971
▁ལྦུ་བ་	-12.7971
▁ཤོར་བ	-12.7971
▁སྣད་པ	-12.7971
▁སྤོ་	-12.7971
▁སྦྲུལ་མགོ་	-12.7971
▁ཀུན་ཁྱབ་	-12.8024
▁ཀྱོ་བ་	-12.8024
▁གཉེན་མཚམས་	-12.8024
▁གཏེར	-12.8024
▁གཞོན་ཤ་	-12.8024
▁ཏུའི་	-12.8024
▁ཏྨ་	-12.8024
▁དམར་ནག་	-12.8024
▁དྷྭེ	-12.8024
▁མཉེ་བ	-12.8024
▁མཐོལ་བ་	-12.8024
▁ཙཱརྱ་	-12.8024
▁ཛྲ་	-12.8024
▁རྨིག་པ་	-12.8024
▁སྐྱུར་བ	-12.8024
▁ཁ་གསག་	-12.8078
▁ཁ་ཞེ	-12.8078
▁ཁྲོལ་	-12.8078
▁གདའ་བ་	-12.8078
▁གཙང་སྦྲ	-12.8078
▁ཆེན་མ	-12.8078
▁ཐེབས་པ་	-12.8078
▁དྷ་བ་	-12.8078
▁བསོད་	-12.8078
▁བླུད་པ་	-12.8078
▁མགལ་མེ་	-12.8078
▁འཆོལ་བ་	-12.8078
▁འབོག་པ་	-12.8078
▁ཡང་ཆ་	-12.8078
▁རྐྱལ་པ་	-12.8078
▁རྔམ་	-12.8078
▁རྟོགས་པ་པོ	-12.8078
▁ཤེ	-12.8078
▁སཱ་ལ་	-12.8078
▁སཱཾ་	-12.8078
▁ཨེ་མ་ཧོ་	-12.8078
▁གཟུངས་ཐོབ་པ	-12.8131
▁གཡེམ་པ	-12.8131
▁གུམ་	-12.8131
▁ཆུ་སྐྱར་	-12.8131
▁བྲན་མོ	-12.8131
▁བླུན་པ	-12.8131
▁མཆིན་པ་	-12.8131
▁མཆོད་རྫས་	-12.8131
▁མེད་པ་པ་	-12.8131
▁མྃ་	-12.8131
▁ཚི་	-12.8131
▁འཁྲིགས་པ་	-12.8131
▁འཁྲུལ	-12.8131
▁འཇུ་བ་	-12.8131
▁འཐོབ་བོ་	-12.8131
▁འདོན	-12.8131
▁འབྲས་བུ་འབྱིན་པ	-12.8131
▁རོ་དྲུག་	-12.8131
▁རྔོན་པ	-12.8131
▁ལྡུམ་བུ་	-12.8131
▁ཤཱནྟི་	-12.8131
▁ཤྲྀ་	-12.8131
▁སུ་ལུ	-12.8131
▁སྐྱ་བ་	-12.8131
▁སྤྱོ་བ	-12.8131
▁ཨརྐ་	-12.8131
▁ཆ་ཕྲ་བ་	-12.8185
▁ཉ་བ	-12.8185
▁དགེ་ཆུང་	-12.8185
▁དམུ་རྒོད་	-12.8185
▁དྷརྨྨཱ་	-12.8185
▁ནད་ཞི་བ	-12.8185
▁པདྨེ་	-12.8185
▁ཕྱིར་བཟློག་	-12.8185
▁བཙོ་བ་	-12.8185
▁བརྩིག་པ	-12.8185
▁བསྐྲུན་པ་	-12.8185
▁བསྒྲེངས་	-12.8185
▁མཉམ་པ་ཉིད	-12.8185
▁མཐོན་མཐིང་	-12.8185
▁ཟླ་ཟེར་	-12.8185
▁འདོད་ཆགས་པ	-12.8185
▁ལ་སྨན་པ	-12.8185
▁ལིཿ	-12.8185
▁སྟངས་	-12.8185
▁ཁེ	-12.8239
▁ཁྱབ་བྱ་	-12.8239
▁ཁྲུས་གསོལ་	-12.8239
▁གུག་	-12.8239
▁གོན་	-12.8239
▁ཅན་པ་	-12.8239
▁ཅེའམ	-12.8239
▁ནེའུ་ལེ་	-12.8239
▁པན་པ་	-12.8239
▁པར་བྱང་	-12.8239
▁བབ་ཅོལ་	-12.8239
▁བསྐྲུན་པ	-12.8239
▁མགུལ་པ	-12.8239
▁མི་གདུང་བ་	-12.8239
▁མི་ལུས་	-12.8239
▁མིག་གང་	-12.8239
▁འགྱེད	-12.8239
▁འདོད་རྒྱལ་	-12.8239
▁འབྲས་ཐུག་པོ་	-12.8239
▁རུལ་བ་	-12.8239
▁ལྟག་འོག་	-12.8239
▁སྐེམས་	-12.8239
▁སྟེའུ་	-12.8239
▁སྣར་མ་	-12.8239
▁སྤྱང་ཀི་	-12.8239
▁སྤྱིར་བཏང་བ	-12.8239
▁ཁྱོ་ཤུག་	-12.8294
▁གང་ཞིག	-12.8294
▁གདུབ་	-12.8294
▁གསོས་པ	-12.8294
▁ངམ་གྲོག་	-12.8294
▁དོན་མཐུན་པ་	-12.8294
▁དྲགས་པ	-12.8294
▁ནཽ	-12.8294
▁བསྡད་པ་	-12.8294
▁ཞིང་ལྷ་	-12.8294
▁འཐོར	-12.8294
▁འོད་གཟེར་	-12.8294
▁རིངས་པ་	-12.8294
▁རྟག་ཆད་	-12.8294
▁ལང་བ་	-12.8294
▁ལམ་ངན་པ	-12.8294
▁སཱི	-12.8294
▁སྒོམ	-12.8294
▁སྨད་འཚོང་མ	-12.8294
▁སྲུན་པ་	-12.8294
▁གསོར་བ	-12.8349
▁གཽ་ཏམ་	-12.8349
▁ན་གཞོན་	-12.8349
▁བརྩེགས་མ་	-12.8349
▁བསྩལ་	-12.8349
▁བེེ་	-12.8349
▁བློ་ལྡན་པ	-12.8349
▁མཚེ་མ་	-12.8349
▁མྱོས	-12.8349
▁ཛནྨ་	-12.8349
▁འཇུད་པ་	-12.8349
▁འཐོན་པ་	-12.8349
▁འཛུམས་པ་	-12.8349
▁རླངས་པ་	-12.8349
▁ས་མཚམས་	-12.8349
▁སུམ་ཅུ་རྩ་གཉིས་པོ་	-12.8349
▁སྐྱབས་གསུམ་	-12.8349
▁སྙིང་རྗེ་བ	-12.8349
▁ཨིང་	-12.8349
▁ཁྃ་	-12.8404
▁གདོན	-12.8404
▁གཞན་སེལ་	-12.8404
▁གེལ་པ་	-12.8404
▁གྱུར་ཅིག་པ	-12.8404
▁ཆོམ་རྐུན་པ	-12.8404
▁དགག་བྱ་	-12.8404
▁དྲག་མོ	-12.8404
▁བརྩིགས་པ་	-12.8404
▁བསྐྲུན་	-12.8404
▁བསྡོམས་པ	-12.8404
▁མ་བཅོས་པ	-12.8404
▁མ་མ	-12.8404
▁མཆེར་པ་	-12.8404
▁མདའ	-12.8404
▁ཚེ་ཟད་	-12.8404
▁ཚོམ་བུ་	-12.8404
▁འཛེག་	-12.8404
▁རྡོ་བ	-12.8404
▁ལོ་ཐོག་	-12.8404
▁ལོ་ལེགས་པ	-12.8404
▁ཤེས་རབ་པོ	-12.8404
▁ཤྲོ་	-12.8404
▁སྐྱོན་བརྗོད་པ	-12.8404
▁སྐྲོད་པ་	-12.8404
▁སྡུད	-12.8404
▁ཆ་ཙམ་	-12.8459
▁དགྲམ	-12.8459
▁དང་ཐོག་	-12.8459
▁དུང་ལ་	-12.8459
▁ན་ཁ	-12.8459
▁ཕྱིར་བཟློག་པ	-12.8459
▁བརྗེ་བ	-12.8459
▁བསྲུངས	-12.8459
▁མྲ་	-12.8459
▁ཟུངས་	-12.8459
▁འབུམ་པ་	-12.8459
▁ཡུ་བ	-12.8459
▁རྐྱང་	-12.8459
▁རྗེས་འགྲོ	-12.8459
▁སྟོར་བ་	-12.8459
▁ཧིའི་	-12.8459
▁ཀོ་ས་ལ་	-12.8515
▁ཁོལ་	-12.8515
▁གླུ་མ་	-12.8515
▁ཆུས	-12.8515
▁དགྲོལ	-12.8515
▁དངུལ་ཆུ	-12.8515
▁དུས་མཐ	-12.8515
▁བཀྲོལ་བ་	-12.8515
▁བརྩེར་	-12.8515
▁བསྡམས	-12.8515
▁ཙ་ར	-12.8515
▁ཚོད་མ	-12.8515
▁ཞེ་སྡང་བ་	-12.8515
▁རིང་ཐུང་	-12.8515
▁རིང་མོ་	-12.8515
▁རྣམ་འདྲེན་	-12.8515
▁ལྷ་གནས་	-12.8515
▁སྐྱུག་པ	-12.8515
▁སྟུག་	-12.8515
▁ཁ་ལས་	-12.8571
▁ཁྲོ་རྒྱལ་	-12.8571
▁གབ་	-12.8571
▁གཟེངས་བསྟོད་པ	-12.8571
▁ཉེར་སྤྱོད་	-12.8571
▁ཏི་མི་	-12.8571
▁དགྱེ་བ་	-12.8571
▁དགྲ་སྟ	-12.8571
▁དྲ་ཕྱེད་	-12.8571
▁བཅུ་དགུ	-12.8571
▁བཙོ་མ་	-12.8571
▁བསྙུངས་པ	-12.8571
▁མངག་གཞུག་པ་	-12.8571
▁མཆོངས་པ་	-12.8571
▁མདོ་སྡེ་པ	-12.8571
▁མནོས་པ	-12.8571
▁མེ་ཏོག་ཕྲེང་བ	-12.8571
▁ཟློས་གར་	-12.8571
▁འཁོར་འདས་	-12.8571
▁རྔམ་པ་	-12.8571
▁རྟུལ་པོ	-12.8571
▁སྨྱིན་པ	-12.8571
▁གཞི་ལྔ་	-12.8627
▁གླིང་བཞི	-12.8627
▁གླེང་བ་པོ་	-12.8627
▁ངོ་ཚ	-12.8627
▁ཉུངས་ཀར་	-12.8627
▁ཏྲུག་	-12.8627
▁ཏྲོ་	-12.8627
▁ཐོད་རྒལ་	-12.8627
▁དཀྱིལ་འཁོར་བ་	-12.8627
▁བསྒྲལ	-12.8627
▁བིཾ་	-12.8627
▁བུལ་བ་	-12.8627
▁བྱམས་མ	-12.8627
▁མཐོང་ལམ་	-12.8627
▁མཚར་	-12.8627
▁མི་མ་ཡིན་	-12.8627
▁མེ་ཏོག	-12.8627
▁ཚལ	-12.8627
▁འབྲས་བུ་འབྱུང་བ་	-12.8627
▁ཡ་ང་བ་	-12.8627
▁རང་བྱུང་བ	-12.8627
▁རྙོག་	-12.8627
▁རྙོག་པ	-12.8627
▁ལོག་རྟོག་	-12.8627
▁ཤིང་དབང་	-12.8627
▁སྤེན་པ	-12.8627
▁ཀོར་	-12.8684
▁ཁྱད་པར་ཅན	-12.8684
▁གཅགས་པ་	-12.8684
▁གསན་པ	-12.8684
▁ཏྭཱ	-12.8684
▁དལ་འབྱོར་	-12.8684
▁ཕུག་པ	-12.8684
▁བཀལ་	-12.8684
▁བཅུ་དྲུག	-12.8684
▁བརྡབས་པ	-12.8684
▁བརྩིས་པ	-12.8684
▁བསང་	-12.8684
▁བུ་ཚ་	-12.8684
▁བྲེས་པ	-12.8684
▁མོག་མོག་པོ	-12.8684
▁ཞྭ་	-12.8684
▁འཕྲུལ་བ་	-12.8684
▁འཛུམས་	-12.8684
▁རི་སྐེགས་	-12.8684
▁རྨི་	-12.8684
▁སྨྱིག་མ་	-12.8684
▁སྲོལ་	-12.8684
▁ཁ་ཕྱི	-12.8741
▁ཁུག་	-12.8741
▁གཡང་གཞི་	-12.8741
▁དཔལ་བེའུ་	-12.8741
▁དྲེ་	-12.8741
▁དྲེག་ནད་	-12.8741
▁བརྐམ་པ	-12.8741
▁བརྐུ་བ	-12.8741
▁བྱེད་པོ	-12.8741
▁བྷན་	-12.8741
▁མེ་ཏོག་སིལ་མ་	-12.8741
▁ཞོག	-12.8741
▁འོ་དོད་	-12.8741
▁རྒྱུན་ཆགས་པ	-12.8741
▁ཤན་པ་	-12.8741
▁ཤྲཱ་	-12.8741
▁སྡུམ་པ	-12.8741
▁སྲུང་མ	-12.8741
▁ཁྲ་བོ	-12.8798
▁གཟེ་མ་	-12.8798
▁དུ་ཐལ་བ	-12.8798
▁དེ་བར་	-12.8798
▁དྲི་མཆོག་	-12.8798
▁དྲེད་	-12.8798
▁ནྲྀ་པ་	-12.8798
▁ཕྲི་	-12.8798
▁བཀྱེ་བ	-12.8798
▁བགྲོ་བ་	-12.8798
▁བང་བ་	-12.8798
▁བསྐང་བ་	-12.8798
▁ཙི་ཏྲ་ཀ	-12.8798
▁འཁྲུ	-12.8798
▁འགྱུར་བྱང་	-12.8798
▁འབགས་པ་	-12.8798
▁རྣམ་འབྱེད་	-12.8798
▁ས་བླ་	-12.8798
▁སྒེག་མོ	-12.8798
▁སྒྲ་སྙན་པ་	-12.8798
▁སྡིག་སྦྲུལ་	-12.8798
▁སྨི་	-12.8798
▁ཨོས་	-12.8798
▁གཡས	-12.8856
▁གཱུ་	-12.8856
▁གི་བ	-12.8856
▁གྲུ་གསུམ་པ་	-12.8856
▁ཉ་པ་	-12.8856
▁ནད་མ་	-12.8856
▁བུདྡྷེ་	-12.8856
▁བྲཱུ་	-12.8856
▁ཚུར་སྤྱོན་	-12.8856
▁ཛ་ཡ	-12.8856
▁ཟླ་བོ་	-12.8856
▁འཁྲུངས་པ་	-12.8856
▁འགྲངས་	-12.8856
▁འཇུས་	-12.8856
▁ཡུད་	-12.8856
▁རྨེན་བུ་	-12.8856
▁ཤེས་བྱ་བ་	-12.8856
▁ཤོལ་	-12.8856
▁ཥའོ	-12.8856
▁སུམ་བརྩེགས་	-12.8856
▁སྒྲེན་མོ	-12.8856
▁སྡོམ	-12.8856
▁སྦྲན་	-12.8856
▁གྲོག་སྦུར་	-12.8914
▁ཉམ་ཆུང་བ	-12.8914
▁དབོག་པ་	-12.8914
▁དབྱིག་དུག་	-12.8914
▁དལ་བ	-12.8914
▁ནཽ་	-12.8914
▁བཏང་སྙོམས་པ	-12.8914
▁བདར་བ་	-12.8914
▁བརྫི་བ	-12.8914
▁བསྙལ་	-12.8914
▁བསྲིང་བ	-12.8914
▁བོགས་	-12.8914
▁བྷེ	-12.8914
▁མཐའ་སྐོར་	-12.8914
▁མེ་ཏོག་མ	-12.8914
▁ཚེ་སྲོག་	-12.8914
▁འཛེག་པ་	-12.8914
▁ཡས་ལ་	-12.8914
▁རང་སྣང་བ	-12.8914
▁སྒུར་	-12.8914
▁སྨན་ཟོང་	-12.8914
▁གདེངས་ཀ	-12.8972
▁གསེར་འགྱུར་	-12.8972
▁ཏེཿ	-12.8972
▁ཕོབ་	-12.8972
▁ཕོར་བུ་	-12.8972
▁བཅག་པ་	-12.8972
▁བཏེག་པ	-12.8972
▁བརྟི་	-12.8972
▁བསྐྱངས་	-12.8972
▁ཞེ་ས་	-12.8972
▁འགྱུར་བྱེད་	-12.8972
▁འབིགས་	-12.8972
▁ཡང་གསང་	-12.8972
▁རུཿ	-12.8972
▁རྟུལ་	-12.8972
▁རྡོལ་བ	-12.8972
▁ལ་ཉེ་བ	-12.8972
▁ཤ་པ	-12.8972
▁སུམ་ཅུ་པ	-12.8972
▁སྟ	-12.8972
▁སྡོང་	-12.8972
▁སྦུབ་	-12.8972
▁སློང་མོ	-12.8972
▁ཨལ་	-12.8972
▁ཀུལླེའི་	-12.9031
▁ཁམས་པ་	-12.9031
▁ཆོས་ཅན	-12.9031
▁དེངས་	-12.9031
▁བྲོ་གར་	-12.9031
▁མཁྲིག་མ་	-12.9031
▁མཆིལ་མ	-12.9031
▁མཆོང་	-12.9031
▁མཐུ་ཆེན་པོ	-12.9031
▁ཛྙཱ་ན	-12.9031
▁འོད་བྱེད་	-12.9031
▁སེམས་ཆེན་པོ	-12.9031
▁སེམས་བྱུང་	-12.9031
▁སྔར	-12.9031
▁སྤྱི་མ་	-12.9031
▁ཀ་ཤ་	-12.909
▁ཀྲེ	-12.909
▁ཀླུ་ཤིང་	-12.909
▁གསང་གནས་	-12.909
▁གེ	-12.909
▁དཀྱིལ་འཁོར་བ	-12.909
▁དུའམ་	-12.909
▁ནོར་ལྡན་	-12.909
▁བདོག་པ	-12.909
▁བསྩགས་པ	-12.909
▁བྲག་ཞུན་	-12.909
▁མཁྲེགས་པ་	-12.909
▁མཐོང་བ་པོ	-12.909
▁མྱངས་	-12.909
▁མྲི་	-12.909
▁འགྲོན་པ་	-12.909
▁འདུས་མ་བྱས	-12.909
▁འོད་འབར་བ	-12.909
▁ལྷན་ནེ་	-12.909
▁སྐྱུག་པ་	-12.909
▁སྦྱང་བྱ	-12.909
▁ཨཱ་ལི	-12.909
▁ཁོང་པ་	-12.9149
▁དབུས་པ	-12.9149
▁ནུཏྤནྣ་	-12.9149
▁པཽ་	-12.9149
▁བཀལ་བ	-12.9149
▁བཅོས་བུ་	-12.9149
▁བཙགས་པ	-12.9149
▁བཙས་མ་	-12.9149
▁མཁན	-12.9149
▁འཛིངས་པ་	-12.9149
▁འཛུགས་པ	-12.9149
▁རོལ་བ	-12.9149
▁ལིད་	-12.9149
▁ཤོམ་པ	-12.9149
▁སེམས་ཆེན་པོ་	-12.9149
▁སྙོམ་	-12.9149
▁སྣད་	-12.9149
▁ཨིཎ་	-12.9149
▁ཨུའོ	-12.9149
▁ཀཱིརྟི་	-12.9209
▁ཀཱིརྟིས་	-12.9209
▁གཏེར་ཆེན་པོ་	-12.9209
▁གད་རྒྱངས་	-12.9209
▁གོམ་པ	-12.9209
▁གྱེས་པ	-12.9209
▁གྲངས་མེད	-12.9209
▁ཏུར་	-12.9209
▁ཏྲུ་	-12.9209
▁ཐ་མ་པ་	-12.9209
▁དབྱིག་པ	-12.9209
▁བུདྡྷི་	-12.9209
▁བླུན་པོ	-12.9209
▁བློ་སྐྱེ་བ་	-12.9209
▁མངོན་དགའ་	-12.9209
▁མཆོག་དག	-12.9209
▁མཆོང་བ་	-12.9209
▁མར་ངོ	-12.9209
▁མཱི	-12.9209
▁མྱི	-12.9209
▁ཛན་	-12.9209
▁ཡོངས་རྫོགས་པ	-12.9209
▁རྔ་ཆེན་	-12.9209
▁རྔ་མ་	-12.9209
▁རྗེས་བཞིན་	-12.9209
▁སྣུམ་པ	-12.9209
▁སྦྲུས་	-12.9209
▁གཏི་མུག་པ	-12.9269
▁གཟུགས་འཛིན་པ་	-12.9269
▁གཡང་	-12.9269
▁གྲོང་མི་	-12.9269
▁གླེངས་པ་	-12.9269
▁གྷྲྀ་	-12.9269
▁ཆུ་སོ	-12.9269
▁ཏཱ་པ་	-12.9269
▁ཏྭི་	-12.9269
▁བདར་བ	-12.9269
▁བསྟུན་	-12.9269
▁བི་བ་	-12.9269
▁མངོན་འདོད་	-12.9269
▁མོ་ལ	-12.9269
▁ཙ་ན	-12.9269
▁ཚུན་	-12.9269
▁འཁྱམས་	-12.9269
▁འགལ	-12.9269
▁འཆུས་པ་	-12.9269
▁འདོད་དོན་	-12.9269
▁ཡང་མོ	-12.9269
▁ཡུར་	-12.9269
▁རོ་པ་	-12.9269
▁རྟ་ཅང་ཤེས་	-12.9269
▁སོན	-12.9269
▁སྒྱུ	-12.9269
▁སྤུངས་པ	-12.9269
▁ཨཉྫ་	-12.9269
▁ཀླས་	-12.9329
▁གདང་	-12.9329
▁ཆལ་	-12.9329
▁ཉུང་ཤས་	-12.9329
▁དགང་བ་	-12.9329
▁དངས་པ	-12.9329
▁དུར་ཁྲོད་པ་	-12.9329
▁དོ་ཧ་	-12.9329
▁ནཱུ་	-12.9329
▁བར་ཆོད་	-12.9329
▁མི་རི	-12.9329
▁མྱངས་པ་	-12.9329
▁ཚད་པ་	-12.9329
▁ཞ་ཉེ་	-12.9329
▁འཛིན་བྱེད་པ	-12.9329
▁རྒྱུས	-12.9329
▁རྗེ	-12.9329
▁རྗེད་པ་	-12.9329
▁རྨོས་	-12.9329
▁ལ་ག	-12.9329
▁སཾ་པ་	-12.9329
▁སྒྲོས་	-12.9329
▁སྣ་ལྡན་	-12.9329
▁སྤང་པ	-12.9329
▁སྨད	-12.9329
▁ཀུན་སྦྱོར་	-12.939
▁གཅིག་པོ	-12.939
▁གཙེ་བ	-12.939
▁གཡོ་མེད་པ	-12.939
▁ཆ་མེད་པ	-12.939
▁ཆང་ནད་	-12.939
▁ཉམ་པ་	-12.939
▁ཉི་ཟེར་	-12.939
▁ཎ་བ་	-12.939
▁དཔགས་	-12.939
▁དམོད་པ་	-12.939
▁དུག	-12.939
▁དཽ་	-12.939
▁ནང་རོལ་	-12.939
▁བར་འགའ་	-12.939
▁བསླད་	-12.939
▁མཉེ་བ་	-12.939
▁མཚོ་ཆེན་	-12.939
▁མར་མེ་མ་	-12.939
▁མརྡ་	-12.939
▁འཇུག་ངོགས་	-12.939
▁འབྲིམ་པ	-12.939
▁རླིག་པ་	-12.939
▁ལྷ་རྗེ	-12.939
▁ལྷག	-12.939
▁སྣྲོན་	-12.939
▁སྲབ་པ	-12.939
▁སྲེག	-12.939
▁ཀོ་བ་	-12.9451
▁གླད་པ་	-12.9451
▁དྲི་ཆུ	-12.9451
▁ནི་པ	-12.9451
▁པིད་	-12.9451
▁བ་ར	-12.9451
▁བཞེས	-12.9451
▁བིགྷྣཱཾ་	-12.9451
▁བྱིན་ཟ་	-12.9451
▁བྲུ་	-12.9451
▁བྲོས་པ	-12.9451
▁མ་ཟད་པ	-12.9451
▁མཐོན་ཀ་	-12.9451
▁མཛངས་པ་	-12.9451
▁མྱང་འདས་	-12.9451
▁འགོ་བ་	-12.9451
▁འགྱེལ་བ་	-12.9451
▁འཛུགས་པ་	-12.9451
▁རིགས་མེད་པ་	-12.9451
▁རྀའི་	-12.9451
▁ལག་འགྲོ་	-12.9451
▁ལས་ཤིང་	-12.9451
▁ལྟེ་	-12.9451
▁ཤུ་ཀྲ་	-12.9451
▁ཤེག	-12.9451
▁སྐྱོན	-12.9451
▁སྐྱོབས་	-12.9451
▁སྔངས་པ	-12.9451
▁སྣུན་པ	-12.9451
▁སྨྱིག་མ	-12.9451
▁ཀཱཾ་	-12.9513
▁གནས་མིན་	-12.9513
▁གྱོན	-12.9513
▁གྷཉ་	-12.9513
▁ཐུལ་བ་	-12.9513
▁དབྲལ་	-12.9513
▁དྲག	-12.9513
▁དྲི་བཟང་པོ	-12.9513
▁དྷྭཾ	-12.9513
▁ཕལ་ཆེ་བ	-12.9513
▁བཅུ་གཅིག་པོ་	-12.9513
▁བསྐྱོན་	-12.9513
▁བྲྀཏྟ་	-12.9513
▁བྷུར་	-12.9513
▁མེ་བཞི་	-12.9513
▁ཚུགས	-12.9513
▁འགེགས་པ་	-12.9513
▁འབབ་པོ	-12.9513
▁འབྱང་	-12.9513
▁རོ་མྱང་བ	-12.9513
▁ལག་ཆ་	-12.9513
▁ལྷ་མཚམས་	-12.9513
▁སིདྡྷྱ་	-12.9513
▁སྐྱོན་བྲལ་	-12.9513
▁སྟོངས་	-12.9513
▁སྦྱིན་པ་པོ	-12.9513
▁སློན་པ	-12.9513
▁ཧྭཱ་	-12.9513
▁ཀོ་ལྤགས་	-12.9575
▁གཙིགས	-12.9575
▁ཏྭཾ	-12.9575
▁ད་བ་	-12.9575
▁དབང་མེད་པ	-12.9575
▁ན་རིམ་	-12.9575
▁ཕྲེཾ་	-12.9575
▁བཙོང་	-12.9575
▁བསྐམས་པ	-12.9575
▁བསྙེངས་པ་	-12.9575
▁མཆན་	-12.9575
▁མི་ཁོམ་པ	-12.9575
▁འུར་འུར་	-12.9575
▁ཡོན་ཏན	-12.9575
▁རུས་གོང་	-12.9575
▁རྗེ་རིགས་	-12.9575
▁རྩོམ	-12.9575
▁རྫོགས་རིམ་	-12.9575
▁ཤེག་	-12.9575
▁སྤྱིར་བཏང་བ་	-12.9575
▁ཁྲེལ་ཡོད་པ	-12.9637
▁གདུ་བུ	-12.9637
▁གསོར་བ་	-12.9637
▁གྱ་ཚོམ་	-12.9637
▁དྲུངས་	-12.9637
▁ནང་ལོགས་	-12.9637
▁ནཱའི་	-12.9637
▁ཕྱིར་བཟློག་པ་	-12.9637
▁བརླབ་པོ	-12.9637
▁བསད	-12.9637
▁མཐིང་ག	-12.9637
▁མདའ་བོ་	-12.9637
▁མུ་པ་	-12.9637
▁མཾ་བ་	-12.9637
▁ཞིང་ཆུ་	-12.9637
▁འདག་པ	-12.9637
▁འཕྲིན་ལས་	-12.9637
▁འབྱུང་འགྱུར་བ	-12.9637
▁ཡུལ་ཁམས་	-12.9637
▁ཡུལ་འཛིན་པ	-12.9637
▁རྒྱ་དཔེ་	-12.9637
▁རྣལ་མ་	-12.9637
▁ལྷོ་སྒོ	-12.9637
▁སྒྲེགས་པ་	-12.9637
▁སྒྲོག་པ	-12.9637
▁སྟག་མོ་	-12.9637
▁སྨན་ཆེན་པོ་	-12.9637
▁ག་ག་ཚིལ་	-12.97
▁གཅུགས་པ་	-12.97
▁ངན་སྐྱུགས་	-12.97
▁ཅི་རིགས་པ་	-12.97
▁བཏེག་པ་	-12.97
▁མགོ་འཁོར་	-12.97
▁མང་ཉུང་	-12.97
▁མངོན་རྟགས་	-12.97
▁མི་བ་	-12.97
▁ཚིམ་བྱེད་	-12.97
▁ཚེ་ཟད་པ་	-12.97
▁ཟན་དྲོན་	-12.97
▁འཁར་གསིལ་	-12.97
▁རྐྱལ་	-12.97
▁ལཱ་བ་	-12.97
▁ལྟ་བ་པོ	-12.97
▁སུ་བ་	-12.97
▁སྐྱབས་འགྲོ་	-12.97
▁སྙན་ཚིག་	-12.97
▁ཀྲཱ་	-12.9763
▁ཀླ་	-12.9763
▁གཟར་བུ་	-12.9763
▁གཟེབ་	-12.9763
▁ཉེ་དགའ་བོ་	-12.9763
▁ཐཾ་	-12.9763
▁དཔག་ཚད	-12.9763
▁དྷཱར་	-12.9763
▁བཀྲུའོ	-12.9763
▁བཏང་བཟུང་	-12.9763
▁བརྗོད་དོན་	-12.9763
▁བསྒྱིངས་	-12.9763
▁བུ་སྨད་	-12.9763
▁བྷཿ	-12.9763
▁མཁྲེགས་	-12.9763
▁འགྲོན་བུ་	-12.9763
▁འབྱར་བ་	-12.9763
▁ར་གན་	-12.9763
▁རྣལ་མ	-12.9763
▁རྨིས་པ་	-12.9763
▁སྒྲ་མེད་པ	-12.9763
▁སྨན་ཆེན་པོ	-12.9763
▁ཧཱཾ་	-12.9763
▁ཨཱའི་	-12.9763
▁ཀླག་པ	-12.9826
▁ཁུགས་	-12.9826
▁གདངས་པ་	-12.9826
▁གར་ཐབས་	-12.9826
▁པུས་	-12.9826
▁པྲི་ཡང་ཀུ	-12.9826
▁པྲོ་	-12.9826
▁བགྲངས་པ་	-12.9826
▁བཅུ་གཉིས	-12.9826
▁བསྒུལ་	-12.9826
▁བཱཀ་	-12.9826
▁འཁྲུག	-12.9826
▁འཛམ་གླིང་	-12.9826
▁ཡུགས་	-12.9826
▁ཡོ་བ་	-12.9826
▁རཱ་བ་	-12.9826
▁རཱཾ་	-12.9826
▁ལྷན་ནེ	-12.9826
▁སྟེང་མ་	-12.9826
▁ཀྭའི་	-12.989
▁ཁྲུམས་སྟོད་	-12.989
▁གངས་རི་	-12.989
▁གཏམས་པ	-12.989
▁གཡེལ་བ	-12.989
▁གསེར	-12.989
▁གྲུག	-12.989
▁ངན	-12.989
▁ཆོམས་	-12.989
▁ཉན	-12.989
▁ཏྲཱཾ	-12.989
▁དོན་བསྡུས་པ	-12.989
▁དྲོས་པ	-12.989
▁བཙུམས་པ་	-12.989
▁བྱེད་ལས་	-12.989
▁བླ་བ	-12.989
▁མར་ཁུ	-12.989
▁མར་ནག་	-12.989
▁འགོས་	-12.989
▁འཕང་ལོ་	-12.989
▁ཡེ་ཤེས་པ་	-12.989
▁རང་གཟུགས་	-12.989
▁ཤ་ཟ་བ་	-12.989
▁ཥཱ	-12.989
▁སོ་རྩི་	-12.989
▁སྐྱེལ་	-12.989
▁སྨན་ཆེན་	-12.989
▁སྨཱ་	-12.989
▁སྲབ་མོ	-12.989
▁གཤོག་	-12.9954
▁གློས་	-12.9954
▁ཆུ་སྨད་	-12.9954
▁ཆེ་མཆོག་	-12.9954
▁དཀྱེལ་	-12.9954
▁དཔ	-12.9954
▁ན་རྫུ་	-12.9954
▁ན་སོ	-12.9954
▁ནས་ཟན་	-12.9954
▁ཕེབས་པ་	-12.9954
▁བདག་པ	-12.9954
▁བན་དྷ་	-12.9954
▁བཞི་བ་	-12.9954
▁བལྟས	-12.9954
▁བྱཾ	-12.9954
▁ཙམ་པ་ཀ	-12.9954
▁ཞིབ་པ་	-12.9954
▁འཁོར་ཡུག་	-12.9954
▁འཁྱོག་པོ་	-12.9954
▁འགྲན་པ	-12.9954
▁འཆུས	-12.9954
▁འཐས་པ	-12.9954
▁ཡིད་གཞུངས་པ	-12.9954
▁རབ་དག	-12.9954
▁རྩྭ་མཆོག་	-12.9954
▁ལ་རྩ་བ་	-12.9954
▁ལྐོག་གྱུར་	-12.9954
▁ཤ་རི་	-12.9954
▁སྐྲངས་པ	-12.9954
▁ཁ་ར	-13.0019
▁ཁྲོམ་	-13.0019
▁གཟེར་བ་	-13.0019
▁གཡུལ་འགྱེད་	-13.0019
▁གླེན་པ	-13.0019
▁ཅིག་པ་	-13.0019
▁ཆེམ་ཆེམ་	-13.0019
▁ཏེ་པོར་	-13.0019
▁ཐལ་བྱུང་	-13.0019
▁དགེ་ཚུལ་མ	-13.0019
▁ཕྱིས་འབྱུང་བ་	-13.0019
▁བཅུ་དགུ་པ་	-13.0019
▁བརྡྷ་	-13.0019
▁བརྩིགས་པ	-13.0019
▁བས་མཐའ་	-13.0019
▁བོང་བ	-13.0019
▁བྲེ	-13.0019
▁མཆོང་བ	-13.0019
▁ཚནྡོ་	-13.0019
▁ཞ་	-13.0019
▁འདིང་བ	-13.0019
▁འདྲེག་	-13.0019
▁འཕྱར་བ་	-13.0019
▁འཚིག་པ་	-13.0019
▁འཚེར་བ་	-13.0019
▁རེ་སྐན	-13.0019
▁རྗེས་སུ	-13.0019
▁རླབས་པོ་ཆེ་	-13.0019
▁ལྗིད་	-13.0019
▁ཤཱཾ་	-13.0019
▁ཤེལ	-13.0019
▁སུམ་བརྒྱ	-13.0019
▁སོ་བ	-13.0019
▁སྦྲང་བུ	-13.0019
▁ཀོ་ལ་	-13.0084
▁ཀླན་ཀ	-13.0084
▁ངེས་བརྗོད་	-13.0084
▁དབོ་	-13.0084
▁ནུབ	-13.0084
▁ཕོད	-13.0084
▁བརྒྱུས་པ་	-13.0084
▁བསྩལ་བ་	-13.0084
▁མཐིང་	-13.0084
▁ཚོགས་འཁོར་	-13.0084
▁འཆག་ས	-13.0084
▁ཡོངས་ཤེས་པ	-13.0084
▁རྒུན་ཆང་	-13.0084
▁རྒྱུས་པ	-13.0084
▁རྣམས་པ	-13.0084
▁ལངས	-13.0084
▁ལམ་པ	-13.0084
▁སྐག་	-13.0084
▁སྲིན་མོ	-13.0084
▁ཁྱིམ་བྱ་	-13.015
▁ཁྲིས་	-13.015
▁གཞོགས་ཕྱེད་	-13.015
▁གཡོགས	-13.015
▁གྷེ་	-13.015
▁ཅ་ཅོ	-13.015
▁ཏྱུ་	-13.015
▁ཏྲེས་	-13.015
▁དྲི་བསུང་	-13.015
▁པིར་	-13.015
▁ཕབ	-13.015
▁བརྔུབས་	-13.015
▁མགོན་མེད་པ	-13.015
▁འབིགས་པ་	-13.015
▁རང་རྒྱལ་བ་	-13.015
▁ཤགས་	-13.015
▁ས་བོན	-13.015
▁སྐོལ་བ	-13.015
▁སྒལ་ཚིགས་	-13.015
▁སྙོམ་པ་	-13.015
▁སྲུངས	-13.015
▁ཁྱུང་	-13.0216
▁ཁྱེར	-13.0216
▁ཆེན་པ་	-13.0216
▁དབང་ཐང་	-13.0216
▁དམའ	-13.0216
▁དོག་ས་	-13.0216
▁དོན་བསྡུས་	-13.0216
▁ཕྱིས་འབྱུང་བ	-13.0216
▁བཏང་སྙོམས་པ་	-13.0216
▁མནམ་	-13.0216
▁མནོད་པ་	-13.0216
▁ཚན་པོ་	-13.0216
▁ཞར་བ་	-13.0216
▁འཆེ་བ་	-13.0216
▁འབུས་	-13.0216
▁ཡིད་འབྱུང་བ་	-13.0216
▁ཡུན་རིང་བ་	-13.0216
▁རིལ་བུ	-13.0216
▁རྣམ་དབྱེ	-13.0216
▁ཤེས་བྱ་བ	-13.0216
▁སེ་རལ་	-13.0216
▁སྦགས་པ	-13.0216
▁ཨིཀ་	-13.0216
▁ཁྲེལ་	-13.0282
▁གཟུ་ལུམས་	-13.0282
▁གར	-13.0282
▁ཆ་མེད་	-13.0282
▁དགེ་མཚན་	-13.0282
▁ནད་ཁྲག་	-13.0282
▁པུད་	-13.0282
▁བཀྲ་ཤིས་ཤོག	-13.0282
▁བཏུལ	-13.0282
▁བསྡོམས་པ་	-13.0282
▁བྲོ་ནད་	-13.0282
▁མདའ་ཡབ་	-13.0282
▁འཁྱམ་པ་	-13.0282
▁འགྲོན་པོ་	-13.0282
▁འདྲི	-13.0282
▁འོག་རོལ་	-13.0282
▁ལྗང་སེར་	-13.0282
▁ལྗན་ལྗིན་	-13.0282
▁སཱུརྱ་	-13.0282
▁སྐབས་མེད་པ	-13.0282
▁སྐྲ་སེ	-13.0282
▁སྙིང་བརྩེ	-13.0282
▁སྭཿ	-13.0282
▁སྲིད་སྒྲུབ་	-13.0282
▁སློབས་	-13.0282
▁གྲ་མ་	-13.0349
▁ངོ་ཚ་བ	-13.0349
▁ངོས	-13.0349
▁ཐབས་མེད་པ	-13.0349
▁དགུམ་པ	-13.0349
▁དངངས་	-13.0349
▁དལ་བུ་	-13.0349
▁དིར་	-13.0349
▁དུས་ཤེས་པ	-13.0349
▁དེ་ཞག་	-13.0349
▁དོའི་	-13.0349
▁བསྒྲངས་པ	-13.0349
▁བུབ་	-13.0349
▁མངོན་ཞེན་	-13.0349
▁མི་ཤ་	-13.0349
▁འགྲན་	-13.0349
▁འགྲོན་	-13.0349
▁འཇམ་རྩི	-13.0349
▁རྒོད་མ་	-13.0349
▁རྔམས་	-13.0349
▁རློབ	-13.0349
▁ས་གཡོ	-13.0349
▁སུན་པ	-13.0349
▁སོ་ག	-13.0349
▁སྔོན་ལས་	-13.0349
▁སྨེ་	-13.0349
▁ཨུཏྤཱ་	-13.0349
▁ཀང་ཀ་	-13.0417
▁ཀླུ་ཆེན་	-13.0417
▁ཁོག་པ་	-13.0417
▁གཟན་	-13.0417
▁གཤིན་	-13.0417
▁གྲུ་མོ་	-13.0417
▁ངུར་པ་	-13.0417
▁ཆུ་འབེབས་	-13.0417
▁དཔྱ་	-13.0417
▁དུས་གསུམ་པ	-13.0417
▁དོག་པ	-13.0417
▁ནང་མ་	-13.0417
▁ནད་གསོ་བ	-13.0417
▁ཕྱོགས་སྐྱོང་བ་	-13.0417
▁ཕྲིན་ཡིག་	-13.0417
▁བཟླ་བ་	-13.0417
▁བརྐམ་ཆགས་	-13.0417
▁བསྒྲེ་བ	-13.0417
▁མངལ་སྐྱེས་	-13.0417
▁མངོན་བརྗོད་	-13.0417
▁མཉེས་གཤིན་	-13.0417
▁རན	-13.0417
▁རྙིངས་པ་	-13.0417
▁རྩིང་བ་	-13.0417
▁ལ་བཏགས་པ་	-13.0417
▁ལས་ངན་པ་	-13.0417
▁སེམས་ཤེས་	-13.0417
▁སྙེད་པོ་	-13.0417
▁སྟག་ལྤགས་	-13.0417
▁སྟོང་བ་	-13.0417
▁སྦྲན་པ	-13.0417
▁གདེང་	-13.0484
▁གཟེགས་	-13.0484
▁གས་པ	-13.0484
▁ཆོས་ལུགས་	-13.0484
▁དབང་མཆོག་	-13.0484
▁ནཱཿ	-13.0484
▁པོག་ཕོར་	-13.0484
▁ཕྱི་མོ	-13.0484
▁བཞུད་པ	-13.0484
▁བཟླའོ	-13.0484
▁བསང་བ	-13.0484
▁མིང་འདོགས་པ	-13.0484
▁མྨེ་	-13.0484
▁ཞང་པོ་	-13.0484
▁འཛེམ་པ	-13.0484
▁རང་རིགས་	-13.0484
▁རྐྱེན	-13.0484
▁རྩུབ་པོ	-13.0484
▁རླུང་ཡབ་	-13.0484
▁ལྒང་པ་	-13.0484
▁ས་སྐྱེས་	-13.0484
▁སྲུན་	-13.0484
▁ཧུ	-13.0484
▁ཧོཿ_	-13.0484
▁ཨ་ནེ་	-13.0484
▁ཨི་བ་	-13.0484
▁ཨུར་	-13.0484
▁གངས་རི	-13.0553
▁གཏན་པ	-13.0553
▁གཞན་སེམས་	-13.0553
▁གཞོག་པ	-13.0553
▁གིའམ	-13.0553
▁ཆུ་ཁམས་	-13.0553
▁ཇི་ཙམ་པ	-13.0553
▁ཏིག་ཏ་	-13.0553
▁ཐང་ལ	-13.0553
▁དག་བྱེད་པ	-13.0553
▁དགར་བ	-13.0553
▁དགུན་སྨད་	-13.0553
▁དཔོན་པོ་	-13.0553
▁དབྱངས་སྙན་	-13.0553
▁བཱ་བ་	-13.0553
▁བྷནྡྷ་	-13.0553
▁བྷའི་	-13.0553
▁བྷཱུ་བ་	-13.0553
▁མངག་གཞུག་པ	-13.0553
▁མི་ལྟུང་བ་	-13.0553
▁མེལ་	-13.0553
▁ཚ་ཚ་	-13.0553
▁ཞབས་དྲུང་	-13.0553
▁འདེམས་	-13.0553
▁འདོགས་ཤིང་	-13.0553
▁འདྲལ་བ	-13.0553
▁འདྲེ	-13.0553
▁འཕང་བ་	-13.0553
▁རུལ་པ	-13.0553
▁རྐྱང་པ་	-13.0553
▁ལཊའི་	-13.0553
▁ལས་དམ་	-13.0553
▁ལྷན་ཅིག	-13.0553
▁ས་མོ་	-13.0553
▁སེ་བ་	-13.0553
▁སོས་ཀ	-13.0553
▁སྒོ་ཀུན་	-13.0553
▁སྤྱི་ཕུད་	-13.0553
▁ཧ་ས	-13.0553
▁གཟོན་པ་	-13.0621
▁ཏྲེ	-13.0621
▁ཐུ་བ་	-13.0621
▁ཐེར་ཟུག་པ་	-13.0621
▁དེ་ལྟས་	-13.0621
▁ཕྱིས་གནོན་	-13.0621
▁བགྲངས་པ	-13.0621
▁བཙགས་པ་	-13.0621
▁བཟོད་ལྡན་	-13.0621
▁བརྣག་པ	-13.0621
▁བསྐོན་པ	-13.0621
▁བྲཱཧྨ་	-13.0621
▁མཁོ་	-13.0621
▁མཛེ	-13.0621
▁ཛཿ_	-13.0621
▁རྡོ་རྒྱུས་	-13.0621
▁ལྡེམ་པོ་	-13.0621
▁སིལ་བུ་	-13.0621
▁སྐྱིད་པ	-13.0621
▁ཁྱིམ	-13.0691
▁གླལ་	-13.0691
▁ཆུ་ངོགས་	-13.0691
▁ཉི་ཤུ་གཉིས་	-13.0691
▁ཏཽ	-13.0691
▁དབྱར་གནས་	-13.0691
▁དུས་འཁོར་	-13.0691
▁དྲུབས་པ་	-13.0691
▁པཱ	-13.0691
▁པེ	-13.0691
▁ཕྱི་བ་	-13.0691
▁བརྐོས་པ་	-13.0691
▁བཿ_	-13.0691
▁མཁུར་ཚོས་	-13.0691
▁མུ་ཟི་	-13.0691
▁ཞིང་ཆེན་	-13.0691
▁འཁྱམས་པ་	-13.0691
▁འགྲེལ་བ་	-13.0691
▁རྒྱན་ཆ་	-13.0691
▁ལུང་བསྟན	-13.0691
▁ལྟས་ངན་	-13.0691
▁ལྷག་པོ	-13.0691
▁ཤ་ཁ་ར་	-13.0691
▁སུཊ་	-13.0691
▁སྐོང་	-13.0691
▁སྦངས་པ་	-13.0691
▁གསུང་མཆོག་	-13.076
▁ཆ་མེད་པ་	-13.076
▁ཏསྟ་	-13.076
▁དཔྱ	-13.076
▁དམ་པོ་	-13.076
▁དལ་བར་	-13.076
▁དེ་ལྟ་བ་	-13.076
▁དྱེ་	-13.076
▁དྲོན་པོ་	-13.076
▁ན་བཟ	-13.076
▁ནུ	-13.076
▁པལླ་	-13.076
▁བགྲད་	-13.076
▁བཏོན	-13.076
▁བཙན་ཐབས་	-13.076
▁བཞུ་བ	-13.076
▁བརྗིད་	-13.076
▁བརྡབ་པ	-13.076
▁བསྐྱབས་པ་	-13.076
▁བྱད་སྟེམས་	-13.076
▁མཐར་བྱེད་པ་	-13.076
▁མི་ཡུལ་	-13.076
▁འཁུ་བ་	-13.076
▁འགེད་པ	-13.076
▁འགྲམ་པ	-13.076
▁འཇུངས་པ་	-13.076
▁རྩུབ་མོ་	-13.076
▁རླག་	-13.076
▁ཤུབས་	-13.076
▁སྒོང་སྐྱེས་	-13.076
▁སྤོས	-13.076
▁སྲན་ཚོད་	-13.076
▁ཀླད་ཀོར་	-13.083
▁ཁྱོར་	-13.083
▁གཙེ་བ་	-13.083
▁དནྟ་	-13.083
▁པི་བ་	-13.083
▁ཕབ་བོ	-13.083
▁བཀར་བ་	-13.083
▁བཞུ་	-13.083
▁བར་མ་དོ་	-13.083
▁བཱཾ་	-13.083
▁མཁའ་མཉམ་	-13.083
▁འཁྱམས་པ	-13.083
▁འཚོད་པ	-13.083
▁ཡིག་དཀར་པོ་	-13.083
▁ཡཿ_	-13.083
▁རྒལ	-13.083
▁རྒྱལ་དབང་	-13.083
▁ལས་ཉེས་པ་	-13.083
▁ལུས་མེད་པ་	-13.083
▁ལྟ་སྤྱོད་	-13.083
▁ཤཱནྟ་	-13.083
▁ཤིང་ལེབ་	-13.083
▁སྐོལ་	-13.083
▁སྒྱིད་ལུག་པ	-13.083
▁སྡིག་ལས་	-13.083
▁སྣད་པ་	-13.083
▁སྤགས་པ	-13.083
▁སྤྱོད་ཡུལ་བ	-13.083
▁སྤྲིན	-13.083
▁སྦགས་པ་	-13.083
▁ཧཱི	-13.083
▁ཨ་ན	-13.083
▁ཨ་ཕྱི	-13.083
▁གཏ	-13.0901
▁གཟས་པ་	-13.0901
▁ཅོག་ལ་	-13.0901
▁ཏྲི་ཤཱུ་ལ་	-13.0901
▁པུལླཱི་	-13.0901
▁བཀོལ་	-13.0901
▁བཏུད་པ་	-13.0901
▁བཙལ	-13.0901
▁བཞི་བ	-13.0901
▁བཞོན་	-13.0901
▁བཟའ་ཤིང་	-13.0901
▁བརྗིད་པ	-13.0901
▁མ་ཕྱི	-13.0901
▁མ་འཚལ་བ་	-13.0901
▁མཆིང་བུ་	-13.0901
▁མཆོག་སྦྱིན་པ་	-13.0901
▁མདང་	-13.0901
▁ཟི་ར་	-13.0901
▁འཇོ་	-13.0901
▁འབྱར་བ	-13.0901
▁རཀྟོ་	-13.0901
▁རྟོག་དཔྱོད་	-13.0901
▁ལ་ཐོད་པ་	-13.0901
▁ལུཊ་_	-13.0901
▁ལེགས་སྐྱེས་	-13.0901
▁ལྷན་	-13.0901
▁ཥཾ	-13.0901
▁སྐུ་བཞི	-13.0901
▁སྒྲ་སྦྱོར་བ་	-13.0901
▁སྣང་མེད་	-13.0901
▁སྤྱོན་	-13.0901
▁སྦྲེལ་བ་	-13.0901
▁ཧྲིཿ	-13.0901
▁ཀུ་བེ་ར་	-13.0972
▁གངྒཱ་	-13.0972
▁གྲ	-13.0972
▁གྲོག་མ་	-13.0972
▁ཆོམ་	-13.0972
▁ཉི་འོག་	-13.0972
▁དཀྲིས	-13.0972
▁དན	-13.0972
▁དྲོངས་	-13.0972
▁ཕྲེང་ཐོགས་	-13.0972
▁བཏ་	-13.0972
▁བརྐམ་	-13.0972
▁བལྟོས་	-13.0972
▁བཤུས་	-13.0972
▁བསྲང་	-13.0972
▁བྲ་ཉེ་	-13.0972
▁བྲེའུ་ཆུང་	-13.0972
▁མུ་བཞི	-13.0972
▁འཁྲིལ	-13.0972
▁འབྱིང་	-13.0972
▁ཡུག་	-13.0972
▁རབ་ཏུ་གཡོ་	-13.0972
▁ཤྭ	-13.0972
▁སྐར་རྒྱལ་	-13.0972
▁སྒྲིལ་	-13.0972
▁སྤགས་	-13.0972
▁སྤྲི་	-13.0972
▁སྨན་ལྔ་	-13.0972
▁ཨཱ་བ་	-13.0972
▁ཀུན་རྫོགས་པ	-13.1044
▁ཁྲག་འཛག་	-13.1044
▁ཐད་ཀ་	-13.1044
▁དགོན་པ་པ	-13.1044
▁དཏྟེ་	-13.1044
▁དབྱེས་	-13.1044
▁དུ་དུ་	-13.1044
▁ནད་གཞི	-13.1044
▁བརྟན་གཡོ་	-13.1044
▁བསྒྲིལ་བ	-13.1044
▁བསྒྲུབ་པོ	-13.1044
▁མ་ཁ་	-13.1044
▁མངོན་སུམ་པ	-13.1044
▁མཇལ་	-13.1044
▁མུན་ཁུང་	-13.1044
▁མེ་བ	-13.1044
▁ཡཱ་བ་	-13.1044
▁ཡོག་པ་	-13.1044
▁རབ	-13.1044
▁རལ་བ	-13.1044
▁རྒྱ་ལ་	-13.1044
▁ལོངས་སྐུ་	-13.1044
▁ལྷོད་	-13.1044
▁ཤྲདྡྷཱ་	-13.1044
▁ས་བཅུ་པོ་	-13.1044
▁སུམ་ཅུ་པ་	-13.1044
▁སྐྱེད་པ་པོ་	-13.1044
▁ཀུན་ཏུ་འོད་	-13.1116
▁ཉིན་ཕྱེད་	-13.1116
▁དུ་པ་	-13.1116
▁དུས་མཉམ་པ	-13.1116
▁དྲི་ང་བ	-13.1116
▁པུཥྤཾ་	-13.1116
▁ཕྱར་	-13.1116
▁བཀླག་	-13.1116
▁བཞ	-13.1116
▁བསྒྲིབས	-13.1116
▁བྱམས	-13.1116
▁བྲེགས་པ་	-13.1116
▁བྲེལ་	-13.1116
▁མཁུར་བ	-13.1116
▁ཚངས་མ་	-13.1116
▁ཚེ་སྔ་མ་	-13.1116
▁ཟླ་མེད་པ	-13.1116
▁འཇའ་	-13.1116
▁འཕུར་བ	-13.1116
▁འཛོམ་པ	-13.1116
▁རྟོགས་དཀའ་	-13.1116
▁རྣོ	-13.1116
▁ལམ་གོལ་	-13.1116
▁ལམ་སྲང་	-13.1116
▁ཤེས་པ་པོ	-13.1116
▁ས་མཆོག་	-13.1116
▁སྣ་མ་	-13.1116
▁སྣམ་	-13.1116
▁ཨ་ཡ	-13.1116
▁ཨཱ་པ་	-13.1116
▁ཨུས་	-13.1116
▁ཁྲག་ནད་	-13.1189
▁གཏུབ་	-13.1189
▁གཡུལ་འགྱེད་པ་	-13.1189
▁ངྷི་	-13.1189
▁ཆུ་ཚན་	-13.1189
▁ཆོས་འཁོར་	-13.1189
▁ཉི་ཤུ་གཅིག་	-13.1189
▁ཉེད་	-13.1189
▁ཏཱ་བ་	-13.1189
▁ཐུ་ལུམ་	-13.1189
▁ད་པ་	-13.1189
▁དཀྲོལ་བ་	-13.1189
▁དཔག་མེད་པ་	-13.1189
▁དར་མ་	-13.1189
▁དུས་སྔ་	-13.1189
▁དྲུག་པོ	-13.1189
▁ན་ཚ་	-13.1189
▁ནོས་	-13.1189
▁ཕྲེའུ་	-13.1189
▁བར་དོ	-13.1189
▁བསྡམ་པ་	-13.1189
▁བསྲུབས་པ་	-13.1189
▁བསྲེག་རྫས་	-13.1189
▁མཁོ	-13.1189
▁མུ་ཅོར་	-13.1189
▁ཛྱོ་	-13.1189
▁འཐག་པ	-13.1189
▁འཕེལ་བྱེད་	-13.1189
▁འབད	-13.1189
▁རེ་ཞིག	-13.1189
▁རྒྱུག	-13.1189
▁རྩི་ཤིང་	-13.1189
▁རླུང་ལྷ	-13.1189
▁ལན	-13.1189
▁ལས་ངན་	-13.1189
▁ལས་དབང་པོ་	-13.1189
▁ཤྩི་	-13.1189
▁ཁི	-13.1262
▁ཁཿ	-13.1262
▁གནས་མ	-13.1262
▁ཆམ་	-13.1262
▁ཆོས་སྦྱིན་པ་	-13.1262
▁ཉོ་	-13.1262
▁ཐ་མ་པ	-13.1262
▁དུ་ཐལ་བ་	-13.1262
▁དེ་སྟེ	-13.1262
▁དྷུ	-13.1262
▁ནྱོ་	-13.1262
▁པྲ་མོ་	-13.1262
▁ཕངས་	-13.1262
▁བ་སོ་	-13.1262
▁བརྟད་པ་	-13.1262
▁བརླག་པ་	-13.1262
▁བསྐུའོ	-13.1262
▁བྱུག་སྤོས་	-13.1262
▁བྱེ་བྲག	-13.1262
▁ཞེས་བ་	-13.1262
▁ཟོ་ཆུན་	-13.1262
▁འཇིགས་བྱེད་པ	-13.1262
▁འཐབ་མོ	-13.1262
▁རྗེས་ཐོབ་	-13.1262
▁ལེགས་སྦྱར་	-13.1262
▁ལྟོགས་	-13.1262
▁ཤལ་	-13.1262
▁སུཔ་	-13.1262
▁སྐྱོ	-13.1262
▁སྡུག་བསྔལ	-13.1262
▁སྣུམ	-13.1262
▁སྦོམ་པ	-13.1262
▁ཨིནའོ	-13.1262
▁ཀོ	-13.1336
▁གཞེས་པ་	-13.1336
▁གཟུགས་པ་	-13.1336
▁གུས	-13.1336
▁གྲུ་གསུམ་པ	-13.1336
▁ཊཱ	-13.1336
▁ཐལ་ལྕག་	-13.1336
▁དགེ་སྡིག་	-13.1336
▁དབེན	-13.1336
▁དབོག་པ	-13.1336
▁དུརྒ་	-13.1336
▁པད་འདབ་	-13.1336
▁ཕུ	-13.1336
▁བཤང་གཅི	-13.1336
▁མནོད་	-13.1336
▁མེལ་ཚེ་	-13.1336
▁འདྲུལ་	-13.1336
▁འབྲངས་པ་	-13.1336
▁འབྲོས་པ་	-13.1336
▁ཡུ་བུ་	-13.1336
▁ཡུལ་དུས་	-13.1336
▁ཡོངས་འདུ་	-13.1336
▁རཏྣཱ་	-13.1336
▁ལང་_	-13.1336
▁ལམ་བསྟན་པ་	-13.1336
▁སྐེམས་པ་	-13.1336
▁སྐོང་བ	-13.1336
▁སྡང་མིག་	-13.1336
▁སྲ	-13.1336
▁ཀུན་རྟོག་པ་	-13.141
▁ཀྲེ་	-13.141
▁ཁབ་ལེན་	-13.141
▁ཁྲོ་མོ	-13.141
▁གཏོར་རོ	-13.141
▁གརྫ་	-13.141
▁གླཱ་	-13.141
▁ཅི་སྙམ་	-13.141
▁ཆིག་	-13.141
▁ཏྱཾ	-13.141
▁དགྲམ་	-13.141
▁དཔོགས་པ་	-13.141
▁དི་བ་	-13.141
▁དེ་སྲིད་པ་	-13.141
▁བཀོལ་བ་	-13.141
▁བརྐྱང་པ	-13.141
▁བརྒྱ་ལ	-13.141
▁བསྒུལ་བ	-13.141
▁བེ་ཏ་	-13.141
▁མ་ནས་	-13.141
▁འདྲེས	-13.141
▁འཕགས་ལམ་	-13.141
▁འབེལ་བ	-13.141
▁འི་པ་	-13.141
▁རིག་བྱེད་པ	-13.141
▁རྟོག་བྲལ་	-13.141
▁རྣགས་པ་	-13.141
▁སནྣི་	-13.141
▁སྐྱེད་བྱེད་པ	-13.141
▁སྐྲང་བ་	-13.141
▁སྔངས་	-13.141
▁སྙིང་རྗེ་བ་	-13.141
▁སྨས་པ་	-13.141
▁སྨྱུ་གུ	-13.141
▁སྲུང་སྐུད་	-13.141
▁ཀ་པཱ་ལ	-13.1485
▁ཀཱིས་	-13.1485
▁ཀིམ་	-13.1485
▁ཀུ	-13.1485
▁ཁྲིའུ	-13.1485
▁གནས་བྱེད་	-13.1485
▁གཟེངས་བསྟོད་	-13.1485
▁གཡུང་མོ	-13.1485
▁ཆུ་ལོན་	-13.1485
▁ཊཿ	-13.1485
▁ཏཱུ་	-13.1485
▁དཱ་བ་	-13.1485
▁དྲུག་ཅུ་པ་	-13.1485
▁དྷཱ	-13.1485
▁ནེ་ཙོ	-13.1485
▁ནྭ་	-13.1485
▁ཕྱིར་ལོག་པ་	-13.1485
▁བགྲོ་བ	-13.1485
▁བསྐམས་པ་	-13.1485
▁བསྐལ་	-13.1485
▁བསྒྲུབ་བོ	-13.1485
▁བྱང་ཆུབ	-13.1485
▁བྱད་བཞིན་	-13.1485
▁བྱི་རུ	-13.1485
▁མོ་ར་	-13.1485
▁མྱེ་	-13.1485
▁འཁུས་པ	-13.1485
▁འཁྱོག་པོ	-13.1485
▁འཐུལ་བ	-13.1485
▁རླབས་པོ་ཆེ	-13.1485
▁ལཱཿ	-13.1485
▁ལྕོགས་	-13.1485
▁སྐད	-13.1485
▁སྐུ་གསུམ་པོ་	-13.1485
▁སྒྲོག་པ་	-13.1485
▁སྤུན་ཟླ་	-13.1485
▁ཆེད་འགའ་	-13.1561
▁དཔུང་མགོ་	-13.1561
▁ནངས་	-13.1561
▁ནུར་	-13.1561
▁ནུས་མཐུ་	-13.1561
▁པྲ	-13.1561
▁ཕྱིས་འབྱུང་	-13.1561
▁བ་བ་	-13.1561
▁བཛྲོད་	-13.1561
▁བརྒྱུགས་	-13.1561
▁བརྙས་ཐབས་	-13.1561
▁བརྟྟ་	-13.1561
▁བརྡེགས་པ་	-13.1561
▁བཤེས་པ	-13.1561
▁བསྲུབ་	-13.1561
▁བུལ་བ	-13.1561
▁མ་བཅོས་པ་	-13.1561
▁མཇུག་མ	-13.1561
▁མྱིན་	-13.1561
▁ཚོགས་མི་	-13.1561
▁འབྲེག་	-13.1561
▁རྙིངས་པ	-13.1561
▁རྟ་བྱ	-13.1561
▁རྫབ་	-13.1561
▁ས་འཛིན་པ་	-13.1561
▁སྒྲ་སྦྱོར་	-13.1561
▁ཨ་ཙི་	-13.1561
▁གཟུ་བོ	-13.1637
▁གཟུགས་མཆོག་	-13.1637
▁གཟུད་པ་	-13.1637
▁གིའུ་	-13.1637
▁གུང་ཐུན་	-13.1637
▁གློ	-13.1637
▁ཇི་ག་	-13.1637
▁ཉི	-13.1637
▁ཏྲས་	-13.1637
▁དྷརྨེ་	-13.1637
▁ཕན་ཕུན་	-13.1637
▁བཀླུབས	-13.1637
▁བར་སྡོམ་	-13.1637
▁བརྫེས་པ་	-13.1637
▁བཤིག	-13.1637
▁བསྐ་	-13.1637
▁བསྙོན་པ	-13.1637
▁བུག་པ	-13.1637
▁ཞིང་གཤེགས་	-13.1637
▁འགོང་	-13.1637
▁འབྲི	-13.1637
▁འཚེར་	-13.1637
▁འཚོག་	-13.1637
▁རྒྱུན་ཆགས་པ་	-13.1637
▁རྒྱུན་ཕྱོགས་	-13.1637
▁ལས་ཀ་	-13.1637
▁ལྡོངས་པ	-13.1637
▁ལྦ་བ་	-13.1637
▁ཤི་ཀྲུ་	-13.1637
▁སྐྱོན་བརྗོད་པ་	-13.1637
▁སྲ་རྩི་	-13.1637
▁ཨུ་རྒྱན་	-13.1637
▁ཨུཥྨ་	-13.1637
▁ཁྲུམས་སྨད་	-13.1713
▁གིའང་	-13.1713
▁ཆ་རུ་	-13.1713
▁ཐུན་མོང་པ་	-13.1713
▁དཔྱངས་	-13.1713
▁དེད་	-13.1713
▁བཀག	-13.1713
▁བརྒྱད་པོ	-13.1713
▁བྱུར་བུ	-13.1713
▁བྷྱཱམ་	-13.1713
▁མཚེ་མ	-13.1713
▁མུན་སེལ་	-13.1713
▁ཛཱཾ་	-13.1713
▁རྐྱང་པ	-13.1713
▁ལག	-13.1713
▁ལམ་ངན་པ་	-13.1713
▁ཤོང་བ	-13.1713
▁ས་ལས	-13.1713
▁སུལ་	-13.1713
▁སྐྱུར་པོ	-13.1713
▁སྦགས་	-13.1713
▁སྲུབས་	-13.1713
▁ཁྱིམ་བྱ	-13.1791
▁གང་ཉིད་	-13.1791
▁གསན་པ་	-13.1791
▁གླད་	-13.1791
▁ཆུ་རླབས་	-13.1791
▁དུས་གསུམ་པ་	-13.1791
▁དྲི་ལྡན་	-13.1791
▁ནུབ་བོ	-13.1791
▁ནུམ་	-13.1791
▁ནོར་ལྷ	-13.1791
▁བཞད་གད་པ་	-13.1791
▁བོལ་	-13.1791
▁བླ་འོག་	-13.1791
▁མངགས་པ་	-13.1791
▁མངོན	-13.1791
▁མཆུ་ཅན་	-13.1791
▁མཆུ་རིངས་	-13.1791
▁མི་དབང་བ་	-13.1791
▁འདྲུ་བ	-13.1791
▁ཡང་ཐ	-13.1791
▁ཡང་ན་བ་	-13.1791
▁རྟོགས་ལྡན་	-13.1791
▁ལན་ཀན་	-13.1791
▁ལས་བུམ་པ་	-13.1791
▁ལྷག་གནས་	-13.1791
▁སཽ	-13.1791
▁སྐྱེ་བ་པོ་	-13.1791
▁སྐྱེན་པ	-13.1791
▁སྒོ་དྲུང་	-13.1791
▁སྒོ་འཕར་	-13.1791
▁སྣམ་ཕྲན་	-13.1791
▁སློབ	-13.1791
▁ཨོཾ་པ་	-13.1791
▁གཟིག་	-13.1868
▁གཟུངས་མ་	-13.1868
▁ཉམས་འགྱུར་	-13.1868
▁དིའི་	-13.1868
▁ནུར་ནུར་པོ	-13.1868
▁བཅངས་པ	-13.1868
▁བཅུ་གསུམ་པོ་	-13.1868
▁བདུན་ཅུ	-13.1868
▁བལྡག་པ་	-13.1868
▁བསོགས་	-13.1868
▁བསྒྲིལ་	-13.1868
▁བསྲེ་བ་	-13.1868
▁བུ་སྡུག་	-13.1868
▁མི་འདའ་བ	-13.1868
▁མེ་རི་	-13.1868
▁ཚེ་དབང་	-13.1868
▁འཐད	-13.1868
▁འཐབ་རྩོད་	-13.1868
▁ཡང་སྲིད	-13.1868
▁རཱིའི་	-13.1868
▁རཱུ་པ	-13.1868
▁རྒུད་	-13.1868
▁རྱ་	-13.1868
▁སར་མི་	-13.1868
▁སྐེམ་པ་	-13.1868
▁སྒོས་	-13.1868
▁སྔོན་བྱས་པ	-13.1868
▁སྣ་ཚོགས	-13.1868
▁ཨརྒའི་	-13.1868
▁ཨརྫ་	-13.1868
▁གཏན་མེད་པ	-13.1947
▁གཞིབས་	-13.1947
▁གཞུང་ལས	-13.1947
▁ཅང་ཏེའུ	-13.1947
▁ཉག་མ་	-13.1947
▁ཏརྫ་	-13.1947
▁ཏིལ་འབྲུ་	-13.1947
▁ཏེ་ལོ་	-13.1947
▁ཏྭཱཏ་	-13.1947
▁དཔལ་འབྱོར་	-13.1947
▁དམན	-13.1947
▁དྱོ་	-13.1947
▁ནུབ་སྒོ	-13.1947
▁ཕྱོགས་ཆ	-13.1947
▁བརྒྱགས་	-13.1947
▁བརྗེད་ངས་པ	-13.1947
▁བརྩེགས་མ	-13.1947
▁བསེ་	-13.1947
▁བྱ་སྐྱིབས་	-13.1947
▁མཁྲེགས་པ	-13.1947
▁ཙཎ་	-13.1947
▁འགྲངས་པ	-13.1947
▁འདི་དུས་	-13.1947
▁ཡོངས་འཛིན་	-13.1947
▁རམས་	-13.1947
▁རྐུན་མ	-13.1947
▁རྒྱུད་མངས་	-13.1947
▁སུམ་ཆ	-13.1947
▁སྐྱང་ནུལ་	-13.1947
▁སྔགས་སྐྱེས་	-13.1947
▁སྲོག་རླུང་	-13.1947
▁ཀ་ལ་པིང་ཀ	-13.2026
▁ཁ་རྒྱན་	-13.2026
▁ཁྱིམ་མི་	-13.2026
▁ཁྱོར་བ་	-13.2026
▁གཏམ	-13.2026
▁གསོན་པོ་	-13.2026
▁གྲུབ་ཐོབ་	-13.2026
▁ཆོས་སྤྱོད་པ	-13.2026
▁ཉོན་མོངས	-13.2026
▁ཐོར་ཏོ་	-13.2026
▁ཕྱིར་བཅོས་	-13.2026
▁བ་བྱུང་	-13.2026
▁བརྩི་བ་	-13.2026
▁བཱི	-13.2026
▁བྲིད་	-13.2026
▁བྲེག་པ	-13.2026
▁མངགས་པ	-13.2026
▁མདོག་དམར་པོ་	-13.2026
▁མནྡཱ་	-13.2026
▁མརྒ་	-13.2026
▁ཟ་བ་པོ	-13.2026
▁འཇི་བ	-13.2026
▁རུཾ་	-13.2026
▁རྟི་	-13.2026
▁རྣམ་བཤད་	-13.2026
▁ལོ་འདབ་	-13.2026
▁སྒྲིབ་གཡོགས་	-13.2026
▁སྤེལ	-13.2026
▁སྤེལ་མ	-13.2026
▁སྦོམས་	-13.2026
▁སྲོག་མེད་པ་	-13.2026
▁ཁམ་པ	-13.2106
▁གཞིགས་	-13.2106
▁ནལ་	-13.2106
▁ནས་ཕྱེ་	-13.2106
▁ནྟ་	-13.2106
▁ཕོད་པ	-13.2106
▁བཀྲི་	-13.2106
▁བརྡབས་པ་	-13.2106
▁བརྫི་བ་	-13.2106
▁བྲོས་པ་	-13.2106
▁བྷྲུ་	-13.2106
▁མ་ལོ་	-13.2106
▁མཐའ་པ	-13.2106
▁མུཀྟ་	-13.2106
▁འཁྲིད་པ	-13.2106
▁འགྲོ་བྱེད་	-13.2106
▁འཆབ་	-13.2106
▁འཕྲལ་བ་	-13.2106
▁འབྱར་	-13.2106
▁ལམྦ་	-13.2106
▁ལྡེག་	-13.2106
▁ཤཀྟི་	-13.2106
▁ས་མཐའ་	-13.2106
▁སྐྱ་བོ	-13.2106
▁ཨཱའོ	-13.2106
▁ཁཱི་	-13.2186
▁གསང་དབང་	-13.2186
▁ཉོ་བ་	-13.2186
▁ཏྲི	-13.2186
▁དག་ས་	-13.2186
▁དངོས་གྲུབ་པོ	-13.2186
▁དན་ད་	-13.2186
▁དྲིལ་ཕྱིས་	-13.2186
▁ཕམ	-13.2186
▁བ་མོ་	-13.2186
▁བཀྱེ་བ་	-13.2186
▁བནྡུ་	-13.2186
▁བརླག	-13.2186
▁བཤེས་པ་	-13.2186
▁བསྒྲག་	-13.2186
▁མ་གནས་	-13.2186
▁མདངས	-13.2186
▁མནབས	-13.2186
▁མཛེར་པ་	-13.2186
▁མུག་	-13.2186
▁ཙུག་	-13.2186
▁འཁྲུངས	-13.2186
▁འདྲིད་པ	-13.2186
▁འདྲིམ་པ་	-13.2186
▁འབྱོན་པ	-13.2186
▁འཛིན་པ་པོ	-13.2186
▁རི་དབང་	-13.2186
▁རོང་	-13.2186
▁རྩ་རྒྱུས་	-13.2186
▁རྩིག་ངོས་	-13.2186
▁ལ་ཏ	-13.2186
▁ལྟོགས་པ	-13.2186
▁སོམ་ཉི	-13.2186
▁སྐྱེད་ཚལ་	-13.2186
▁སྟོང་ཕྲག་ཉི་ཤུ་ལྔ་པ་	-13.2186
▁སྨ་ར	-13.2186
▁ཨཀ་	-13.2186
▁ཀུན་འཁོར་	-13.2267
▁ཁང་ཐོག་	-13.2267
▁ཁུགས་པ	-13.2267
▁ག་གོན་	-13.2267
▁གཏོགས	-13.2267
▁གདོལ་	-13.2267
▁གོལ་	-13.2267
▁དཏྟཿ	-13.2267
▁དྷའོ	-13.2267
▁ནུའི་	-13.2267
▁པན་པ	-13.2267
▁པར་སྤྱི	-13.2267
▁ཕྲེང་རྒྱུད་	-13.2267
▁བདུད་དཔུང་	-13.2267
▁བིན་	-13.2267
▁བོར	-13.2267
▁བྱེད་ཚུལ་	-13.2267
▁མཁལ་མ་	-13.2267
▁མཇལ་བ	-13.2267
▁མཛད་པ་པོ	-13.2267
▁མོན་གྲུ་	-13.2267
▁ཚིག་ངན་པ་	-13.2267
▁འགེབས་པ	-13.2267
▁འཚམས་པ་	-13.2267
▁ཡཱི	-13.2267
▁ཡུལ་འཛིན་པ་	-13.2267
▁རྒན་མོ	-13.2267
▁རྡོབ་པ་	-13.2267
▁རྨ་ཁ་	-13.2267
▁ལམ་ལོག་པ	-13.2267
▁ཤིཊ་	-13.2267
▁སྐམ་ས་	-13.2267
▁སྤྱིལ་བུ་	-13.2267
▁སྤྱོད་ལམ་པ་	-13.2267
▁སྦལ་པ	-13.2267
▁སྦྱོར་ལྡན་པ	-13.2267
▁ཨེ་བ་	-13.2267
▁ཀཱིའོ	-13.2349
▁གཅད	-13.2349
▁གཟུགས་འཛིན་	-13.2349
▁གཡུལ་ངོ་	-13.2349
▁གསལ་བྱེད་པ	-13.2349
▁གོ་ལ་	-13.2349
▁ཆེམ་ཆེམ	-13.2349
▁ཏིཾ་	-13.2349
▁དང་ཁ་བ་	-13.2349
▁དངས་པ་	-13.2349
▁དྭངས་མ་	-13.2349
▁ཕྱ་	-13.2349
▁བཀའ	-13.2349
▁བཙུད་པ་	-13.2349
▁བསླབ	-13.2349
▁བྱེར་	-13.2349
▁བྲུཾ་	-13.2349
▁བྷྲཱུྃ་	-13.2349
▁མ་སྨད་པ	-13.2349
▁མཱན་	-13.2349
▁ཚུ་	-13.2349
▁ཚེ་ཟད་པ	-13.2349
▁ཟོལ་	-13.2349
▁འཐུལ་	-13.2349
▁འཛེམ་	-13.2349
▁ཡིད་བྱེད་	-13.2349
▁རུ་མ་	-13.2349
▁རྒུན་	-13.2349
▁རྒྱུ་བྱེད་པ	-13.2349
▁ལ་དུ་བ་	-13.2349
▁ལས་སྣང་བ་	-13.2349
▁སི་ཏཱ་	-13.2349
▁སུམ་ཅུ་རྩ་གཉིས་པ་	-13.2349
▁སྐྱེད་བྱེད་མ་	-13.2349
▁སྨོད	-13.2349
▁ཧཱ་བོ་	-13.2349
▁ཀུན་གྲུབ་པ	-13.2431
▁ཁུག་རྣ་	-13.2431
▁གཅིག་གྱུར་	-13.2431
▁གོ་མི	-13.2431
▁གོམ་	-13.2431
▁གྲོང་དཔོན་	-13.2431
▁གླེངས་པ	-13.2431
▁ཉི་ཤུ་ལྔ	-13.2431
▁ཉི་ཤུ་ལྔ་	-13.2431
▁ཉོས་པ་	-13.2431
▁ད་ར	-13.2431
▁དུག་སྨན་	-13.2431
▁ན་མོ	-13.2431
▁ནམ་ལངས་	-13.2431
▁ནོན	-13.2431
▁ཕྱི་ས	-13.2431
▁ཕྲིན་པ་	-13.2431
▁བགེགས་བསྐྲད་པ	-13.2431
▁བཅ	-13.2431
▁བདུག	-13.2431
▁བདུགས་པ	-13.2431
▁བརྩན་	-13.2431
▁བལ་ཡུལ་	-13.2431
▁བསང་བ་	-13.2431
▁བསྐྱང་	-13.2431
▁བསྲེག་བྱ	-13.2431
▁བྲག་ཅ	-13.2431
▁མཆིལ་	-13.2431
▁མཉེས་གཤིན་པ	-13.2431
▁མཐས་གཏུགས་པ་	-13.2431
▁མཱཿ	-13.2431
▁ཡང་སྙིང་པོ་	-13.2431
▁རྩེན་	-13.2431
▁རློབ་བོ	-13.2431
▁ལས་རིམ་	-13.2431
▁ཤྱ	-13.2431
▁ས་འཚོ་	-13.2431
▁སུམ་མདོ	-13.2431
▁སྐལ་མེད་	-13.2431
▁སྐྱེད་པ་པོ	-13.2431
▁སྔགས་འཆང་བ་	-13.2431
▁སྙན་གྲགས་	-13.2431
▁སྡེ་བརྒྱད་	-13.2431
▁སྣོམས་	-13.2431
▁ཨིར་	-13.2431
▁ཁྲག་འཛག་པ	-13.2514
▁གཏན་མེད་པ་	-13.2514
▁གཡེལ་བ་	-13.2514
▁གོ་བྱེ་	-13.2514
▁ཆོ་རིགས་	-13.2514
▁ཆོས་འབྱུང་བ་	-13.2514
▁ཉེས་མེད་པ	-13.2514
▁ཐ་ཤལ་	-13.2514
▁དཀྱུས་མ་	-13.2514
▁དྲུག་ཅུ་པ	-13.2514
▁ནོམ་པ	-13.2514
▁བ་ཤ་ཀ་	-13.2514
▁བཙུམས་པ	-13.2514
▁བསོད་སྙོམས་པ	-13.2514
▁བསྐལ་བ	-13.2514
▁བསྒྲེས་པ	-13.2514
▁བྲོ	-13.2514
▁བྷི	-13.2514
▁མ་སྨད་	-13.2514
▁མགར་བ	-13.2514
▁མགོ་འཁོར་བ་	-13.2514
▁མཚུངས་ལྡན་	-13.2514
▁ཟླུམ	-13.2514
▁འུར་འུར	-13.2514
▁འོན་པ	-13.2514
▁རྐ་	-13.2514
▁རྙི་	-13.2514
▁རྣམས་པ་	-13.2514
▁ལོཊའི་	-13.2514
▁ལྷམ་པ་	-13.2514
▁སེམས་སྐྱེས་པ	-13.2514
▁སྐྱིད་	-13.2514
▁སྙེ་མ	-13.2514
▁སྙེགས་པ	-13.2514
▁སྤྱི་དོན་	-13.2514
▁སྨྱུང་	-13.2514
▁སྨྱོ་བ་	-13.2514
▁ཧྃ	-13.2514
▁ཨག་	-13.2514
▁ཀུན་ལྡན་པ	-13.2598
▁ཁྱིམ་སོ་	-13.2598
▁གཏོས་	-13.2598
▁གར་མ	-13.2598
▁གཤིབས་པ	-13.2598
▁གོ་མ་	-13.2598
▁གླན་པ་	-13.2598
▁ཆོལ་ཟངས་	-13.2598
▁ཉེད་པ	-13.2598
▁ཐོན་པ་	-13.2598
▁དཔྱས་པ་	-13.2598
▁བརྩི་	-13.2598
▁བསྲུབས་པ	-13.2598
▁ཚལ་བུ་	-13.2598
▁ཞིལ་	-13.2598
▁འཁུམས་	-13.2598
▁འཁྲིག་	-13.2598
▁འབུགས་པ	-13.2598
▁འོད་འབར་བ་	-13.2598
▁ཡང་གསང་བ་	-13.2598
▁ཡུང་བ	-13.2598
▁ཡུས་	-13.2598
▁ལས་ལོག་	-13.2598
▁ལྟོས་མེད་	-13.2598
▁སུག་ལས་	-13.2598
▁སུམ་ཅུ་རྩ་གཉིས་པ	-13.2598
▁སྐྱུགས་པ	-13.2598
▁སྒུར་པོ་	-13.2598
▁སྲོག	-13.2598
▁ཁང་བུ	-13.2682
▁གྷའོ	-13.2682
▁ཅིའང་	-13.2682
▁དགོན་	-13.2682
▁དཔྱོད་པ་པ་	-13.2682
▁དབལ་	-13.2682
▁ནག་ནོག་	-13.2682
▁པྱཱ་	-13.2682
▁བཏབ་པོ	-13.2682
▁བརྗེད་བྱང་	-13.2682
▁བི་པ་	-13.2682
▁བུར	-13.2682
▁བྲིའོ་	-13.2682
▁བྲུས་	-13.2682
▁བྷྱེ་	-13.2682
▁མཉེ་	-13.2682
▁མཐར་གྱུར་པ་	-13.2682
▁མི་རོ	-13.2682
▁མིག་ལྡན་	-13.2682
▁མུད་	-13.2682
▁ཙུའི་	-13.2682
▁ཚུགས་ཤིང་	-13.2682
▁ཟུར་པ་	-13.2682
▁འཁུམས་པ	-13.2682
▁འཇོམས་བྱེད་པ	-13.2682
▁འཕྲེང་	-13.2682
▁འབབ་སྟེགས་	-13.2682
▁རུ་པ་	-13.2682
▁རྒྱས་བཤད་	-13.2682
▁རྡོ་ཐལ་	-13.2682
▁ལས་རྒྱུན་	-13.2682
▁ལུས་སྐྱེས་	-13.2682
▁སིདྡྷི	-13.2682
▁སྒོག་པ་	-13.2682
▁སྟོབས་ཆེན་པོ་	-13.2682
▁གདོད་པ	-13.2767
▁གཟའ་སྐར་	-13.2767
▁གྲག	-13.2767
▁ཆོམས་པ	-13.2767
▁ཉི་འོད་	-13.2767
▁ཐེག་མཆོག་	-13.2767
▁ཐོ	-13.2767
▁དཀྲིགས་	-13.2767
▁དབུག་	-13.2767
▁དྲིན་ལན་	-13.2767
▁ནིཤྩ་	-13.2767
▁ནེ་བ་	-13.2767
▁ནྱེ་	-13.2767
▁པིཾ་	-13.2767
▁ཕ་མེས་	-13.2767
▁བཀོལ་བ	-13.2767
▁བཛྲེ	-13.2767
▁བེའུ	-13.2767
▁བྷཱུ་བ	-13.2767
▁ཚཱ་	-13.2767
▁འགེངས	-13.2767
▁འཕུར་བ་	-13.2767
▁འཚམ་	-13.2767
▁འུར་	-13.2767
▁ཡར་ངོ	-13.2767
▁ཡི་གེ་པ་	-13.2767
▁རི་ཤོ་	-13.2767
▁རྒྱུ་བྱེད་	-13.2767
▁རྙིངས་	-13.2767
▁རྟིང་པ	-13.2767
▁རྣལ་འབྱོར་བ་	-13.2767
▁ལེན་པ་པོ	-13.2767
▁ལོག་ལྟ་	-13.2767
▁ལྟས་མཁན་	-13.2767
▁ལྟོ་འཕྱེ	-13.2767
▁ཤ་བ	-13.2767
▁ཤཾ	-13.2767
▁ས་བླ	-13.2767
▁ས་རྡུལ་	-13.2767
▁སྐྱེད་མ་	-13.2767
▁སྒྲོ་སྐུར་	-13.2767
▁སྙན་གསན་	-13.2767
▁སྤྲིན་ཚོགས་	-13.2767
▁སྱཱད་	-13.2767
▁སློང་མོ་པ་	-13.2767
▁ཨརྫུ་	-13.2767
▁ཨཱི	-13.2767
▁ཀུན་ཁྱབ་པ	-13.2853
▁ཁ་འོག་	-13.2853
▁ཐཱཿ	-13.2853
▁ནམ་ཚོང་	-13.2853
▁ནོར་ལྷ་	-13.2853
▁པང་པ	-13.2853
▁ཕྱི་དུས་	-13.2853
▁ཕྱིར་བ་	-13.2853
▁བཅུ་ཆ	-13.2853
▁བདེ་འབྱུང་	-13.2853
▁བརྩད་	-13.2853
▁བརྩིག་	-13.2853
▁བསིལ	-13.2853
▁བསྙོན་	-13.2853
▁བློ་གསལ་	-13.2853
▁མཁྲང་	-13.2853
▁མཐའ་པ་	-13.2853
▁ཛིའི་	-13.2853
▁འཁོར་བ་པ	-13.2853
▁འགེགས་	-13.2853
▁འགྲས་པ	-13.2853
▁འཇིགས་མེད་པ	-13.2853
▁འདོད་ལྷ་	-13.2853
▁འཕྱེ་	-13.2853
▁འཚེར་བ	-13.2853
▁རྩབས་	-13.2853
▁རྫོགས་བྱེད་པ	-13.2853
▁ལེགས་ཉེས་	-13.2853
▁ལྷུག་པ	-13.2853
▁སྐྱེས་རབས་	-13.2853
▁སྟོབས་མེད་	-13.2853
▁སྤྲུལ་སྐུ	-13.2853
▁སྤྲོད་པ་	-13.2853
▁སྦྱོར་བྱེད་	-13.2853
▁སྨྲ་བྱེད་	-13.2853
▁ཨཱར་	-13.2853
▁ཀླུ་རྒྱལ་	-13.2939
▁ཁུར་བ	-13.2939
▁ཁྲེས་	-13.2939
▁ཁྲོ་ལ་	-13.2939
▁གཏི་མུག་པ་	-13.2939
▁གཞུང་འགྲེལ་	-13.2939
▁གསོན	-13.2939
▁གྱིར་	-13.2939
▁ཆུན་པོ	-13.2939
▁དཔེ་མཁྱུད་	-13.2939
▁དབུ་བ	-13.2939
▁དཱུརྱའི་	-13.2939
▁ནམཿ	-13.2939
▁ཕྱི་ངོས་	-13.2939
▁བསྙེངས་	-13.2939
▁བསྲེ	-13.2939
▁བུལ་	-13.2939
▁བུས་པ	-13.2939
▁བྲེས་པ་	-13.2939
▁མགོན་སྐྱབས་	-13.2939
▁མཐུ་ལྡན་	-13.2939
▁ཞག་གྲངས་	-13.2939
▁འཇིབ་	-13.2939
▁འཐུལ་བ་	-13.2939
▁འདམ་ཀ་	-13.2939
▁འདྲིལ་བ	-13.2939
▁འཕེལ་འགྲིབ་	-13.2939
▁འབར་བྱེད་	-13.2939
▁ཡིད་བརྟན་པ་	-13.2939
▁ཡུལ་ཆོས་	-13.2939
▁རུངས་པ་	-13.2939
▁རྐང་རྟེན་	-13.2939
▁རླན་པ	-13.2939
▁ལག་ཉ	-13.2939
▁ལྟ་ངན་	-13.2939
▁སྔོན་མོ	-13.2939
▁ཁྲུ	-13.3027
▁གཅགས་པ	-13.3027
▁གཅེས	-13.3027
▁གདུགས	-13.3027
▁གཞན་ཕན་	-13.3027
▁གོལ་བ	-13.3027
▁གྲི	-13.3027
▁གྲིབ་	-13.3027
▁གླ་རྔན་	-13.3027
▁ཅུང་	-13.3027
▁ཉི་ཁྲི	-13.3027
▁དཱཾ་	-13.3027
▁དྲོན་པོ	-13.3027
▁ཕག་པ་	-13.3027
▁བར་པ་	-13.3027
▁བསྐྱངས་པ	-13.3027
▁བསྙེན་བཀུར་བ	-13.3027
▁བྲེ་བ	-13.3027
▁མིན་ནམ་	-13.3027
▁མུར་བ་	-13.3027
▁ཙ་སྡེ	-13.3027
▁ཚ་གྲང་	-13.3027
▁ཞུ་རྗེས་	-13.3027
▁འཆད་པ་པོ	-13.3027
▁འདུམ་པ	-13.3027
▁འབྲུ་སྣ་	-13.3027
▁འོད་པ་	-13.3027
▁རིགས་བརྒྱ	-13.3027
▁རྣགས་པ	-13.3027
▁རྣམ་དཔྱོད་	-13.3027
▁རྨེད་	-13.3027
▁ལོབས་པ་	-13.3027
▁སམྦྷ་	-13.3027
▁སྐྲྀ་	-13.3027
▁སྒྲུབ་བྱེད	-13.3027
▁སྙོལ་བ	-13.3027
▁སྟོད་པ་	-13.3027
▁སྲོ་	-13.3027
▁ཨཱིཊ་	-13.3027
▁ཀུ་མུད་	-13.3115
▁ཀྃ་	-13.3115
▁ཀླུ་དབང་	-13.3115
▁གདུབ་ཀོར་	-13.3115
▁དམར་སྐྱ་	-13.3115
▁བཀྲི་བ་	-13.3115
▁བདུགས་པ་	-13.3115
▁བརྩན་པ	-13.3115
▁བརྩེགས	-13.3115
▁མཚམས	-13.3115
▁མི་ལྟུང་བ	-13.3115
▁འགུགས	-13.3115
▁འདྲིལ་	-13.3115
▁འདྲོན་པ་	-13.3115
▁ཡན་ལག	-13.3115
▁ཡུལ་ལྗོངས་	-13.3115
▁རང་བཟོ	-13.3115
▁རྒྱུ་ལྔ	-13.3115
▁རྔུལ་གཟན་	-13.3115
▁རྙོག་མ་	-13.3115
▁རྩབ་མོ་	-13.3115
▁ལུམ་	-13.3115
▁ལུས་ངན་པོ་	-13.3115
▁ལེ་ཚེ་	-13.3115
▁ལྔ་ཕུང་	-13.3115
▁ས་བ	-13.3115
▁སོས་པ་	-13.3115
▁སྐེ་ཚེ	-13.3115
▁སྟ་ཟུར་	-13.3115
▁ཀརྐ་	-13.3204
▁ཁྭ	-13.3204
▁གཟོན་	-13.3204
▁གྱུར་ཅིག_	-13.3204
▁ངན་སོང་བ	-13.3204
▁ཉི་ཤུ་རྩ་གཉིས་པ	-13.3204
▁ཏ་སྡེ	-13.3204
▁ཏྱ	-13.3204
▁ཐལ་གོང་	-13.3204
▁ད་གདོད་	-13.3204
▁དཔྱད	-13.3204
▁དཱིཔྟ་	-13.3204
▁དྲི་རོ་	-13.3204
▁པདྨཱ་	-13.3204
▁ཕག་པ	-13.3204
▁བདག་མོ	-13.3204
▁བསྒྲུབ་པོ་	-13.3204
▁བིགྷྣཱནྟ་	-13.3204
▁བྱི་བཞིན་	-13.3204
▁མཚན་ཉིད་པ	-13.3204
▁མཱིའི་	-13.3204
▁མིང་དོན་	-13.3204
▁མུ་མེད་	-13.3204
▁འཁྱལ་པ་	-13.3204
▁འཁྲིགས	-13.3204
▁འཁྲིལ་བ	-13.3204
▁འཇུག་པ་པོ་	-13.3204
▁འཕྲོག་མ	-13.3204
▁འབུགས་པ་	-13.3204
▁ཡུང་	-13.3204
▁རིགས་མེད་པ	-13.3204
▁ལྀཀ་	-13.3204
▁ལྟོགས་པ་	-13.3204
▁སེམས་རྒྱུད་	-13.3204
▁སྟན་གཅིག་པ་	-13.3204
▁སྨས་པ	-13.3204
▁ཨཱིའི་	-13.3204
▁ཨིའོ	-13.3204
▁ཀ་རུ	-13.3293
▁ཀྭིཔ་	-13.3293
▁ཁྲེལ་ཡོད་	-13.3293
▁གདེངས་པ་	-13.3293
▁ངག་གོ	-13.3293
▁ཆ་ཕྲ་བ	-13.3293
▁ཉེ་སྡེ་	-13.3293
▁ཐང་ཆུ་	-13.3293
▁དཱི	-13.3293
▁ན་མཉམ་	-13.3293
▁ཕྱགས་	-13.3293
▁བག་ཚ་	-13.3293
▁བགྲོས་	-13.3293
▁བལྟམས་	-13.3293
▁མགོ་མཇུག་	-13.3293
▁མཆིས་འབྲང་	-13.3293
▁མཛའ་ན་མོ་	-13.3293
▁ཛམྦུའི་	-13.3293
▁ཞམ་རིང་	-13.3293
▁ཟེའུ་འབྲུ	-13.3293
▁འགྲོ་བ་པ་	-13.3293
▁འབའ་	-13.3293
▁འབྱུང་འགྱུར	-13.3293
▁འོད་བྱེད་པ	-13.3293
▁ཡང་གསང་བ	-13.3293
▁རེང་བུ་	-13.3293
▁རྐང་བཞི་	-13.3293
▁རྒྱན་པོ་	-13.3293
▁རྒྱུད་བླ་མ	-13.3293
▁རྫ་རྔ	-13.3293
▁ལིང་ཐོག་	-13.3293
▁ལུགས་བཞིན་	-13.3293
▁ལོཊ་_	-13.3293
▁ལྟག་པ་	-13.3293
▁ཤ་མ	-13.3293
▁ས་བརྟོལ་	-13.3293
▁ཨ་རོག་	-13.3293
▁ཨཱ་ནནྡ་	-13.3293
▁ྲྀ	-13.3293
▁ཁ་ཕྱེ་བ་	-13.3384
▁གཅེའུ་	-13.3384
▁གདུངས	-13.3384
▁གཤེད་མ	-13.3384
▁གསར་བུ	-13.3384
▁གྱེས་	-13.3384
▁གྱོ་མོ	-13.3384
▁གྲོང་པ	-13.3384
▁ཆམ་པ	-13.3384
▁ཆུ་རྒྱུས་	-13.3384
▁ཏྲིཾ་	-13.3384
▁ཐོབ་བྱེད་	-13.3384
▁དབྱི་མོ་	-13.3384
▁དིའོ	-13.3384
▁ཕོ་མོ	-13.3384
▁བཞིན་རས་	-13.3384
▁བརྗོད་དོན	-13.3384
▁བསགས	-13.3384
▁བསྐུ་མཉེ་	-13.3384
▁བྷིས་	-13.3384
▁མ་འཁྲུལ་བ	-13.3384
▁མཐའ་ཅན	-13.3384
▁མཛངས་	-13.3384
▁ཚེ་རིང་པོ	-13.3384
▁ཛམ་	-13.3384
▁ཞིང་བཟང་	-13.3384
▁འདྲིམ་	-13.3384
▁འཕགས་རྒྱལ་	-13.3384
▁འབྱེ་བ	-13.3384
▁འཚེད་པ་པོ་	-13.3384
▁འཚོ་སྐྱོང་	-13.3384
▁ཡན་གར་བ་	-13.3384
▁ཡར་ངོ་	-13.3384
▁ཡུཥྨ་	-13.3384
▁རིད་པ	-13.3384
▁རྐོ་བ་	-13.3384
▁རྗེས་ཆགས་པ	-13.3384
▁རྨང་	-13.3384
▁རྩ་སྦུབས་	-13.3384
▁ལ་སྟོང་པ	-13.3384
▁ལམ་ཀ	-13.3384
▁ཤཱིང་	-13.3384
▁སྣག་ཚ	-13.3384
▁སྤོགས་	-13.3384
▁སྲས་མོ་	-13.3384
▁སྲུབ་	-13.3384
▁ཨུ་མ	-13.3384
▁ཆུ་གང་	-13.3475
▁ཏེ་བ་	-13.3475
▁དབང་དོན་	-13.3475
▁དྲེ	-13.3475
▁དྲེའུ་	-13.3475
▁ནག	-13.3475
▁པུན་	-13.3475
▁ཕ་བོང་	-13.3475
▁བཅོམ་བརླག་	-13.3475
▁བདག་སྐྱེས་	-13.3475
▁བདུད་འདུལ་	-13.3475
▁བསྲོ་ཁང་	-13.3475
▁བླག་	-13.3475
▁མཛངས་པ	-13.3475
▁མེནྡྲ་	-13.3475
▁ཙཱ་རུ་	-13.3475
▁ཚེས་པ་	-13.3475
▁ཞིམ་པོ	-13.3475
▁ཞོར་	-13.3475
▁འགོ་	-13.3475
▁འགྲོ་མེད་	-13.3475
▁འཇི་བ་	-13.3475
▁འདུན་ཁང་	-13.3475
▁འཕྲུལ	-13.3475
▁འབུད་	-13.3475
▁ཡིད་ཚིམ་པ	-13.3475
▁རྐང་བཞི་པ་	-13.3475
▁རྫི་ཕྱོགས་	-13.3475
▁ལན་ལྡོན་པ	-13.3475
▁ཤུདྡྷེ	-13.3475
▁སཏྭ	-13.3475
▁སརྫ་	-13.3475
▁སིཧླ་	-13.3475
▁སྐ་བ་	-13.3475
▁སྐྱོབ	-13.3475
▁སྒྲ་འཇུག་པ་	-13.3475
▁སྔོན་འགྲོ་བ	-13.3475
▁སྙི་བ་	-13.3475
▁སླད་བཞིན་	-13.3475
▁སླེབས་	-13.3475
▁ཧོམ་	-13.3475
▁ཨ་བོ་	-13.3475
▁ཁྲུས་རས་	-13.3567
▁གང་ཟག་པ་	-13.3567
▁གཞི་མ་གྲུབ་པ་	-13.3567
▁གོ་མི་	-13.3567
▁གྲེ་བ་	-13.3567
▁གྲོགས	-13.3567
▁གླེན་	-13.3567
▁གྷཾ་	-13.3567
▁ངྷཱ་	-13.3567
▁ཏཱ་ལ	-13.3567
▁ཏིས་	-13.3567
▁ཐུ་བོ	-13.3567
▁ཐེམ་པ་	-13.3567
▁དཀྲི	-13.3567
▁དྷཱུ་པ་	-13.3567
▁དྷཾ	-13.3567
▁པཱཾ་	-13.3567
▁ཕྱོགས་མེད་པ་	-13.3567
▁ཕྲལ་བ	-13.3567
▁བམ་པ	-13.3567
▁བརྒྱུས་པ	-13.3567
▁བརྫུས་	-13.3567
▁བསོ་བ	-13.3567
▁བསྙིལ་བ་	-13.3567
▁བྱོ་	-13.3567
▁བྲག་ཕུག་	-13.3567
▁མཆོག་ཐོབ་པ་	-13.3567
▁མཉེས	-13.3567
▁མཐུར་	-13.3567
▁མདངས་ལྡན་	-13.3567
▁མནམ་པ་	-13.3567
▁མར་མེ་མ	-13.3567
▁མུ་བཞི་པ་	-13.3567
▁ཙ་ན་ཀ	-13.3567
▁འཁྱོག་	-13.3567
▁འགྲེལ་བ	-13.3567
▁འཇོ་སྒེག་	-13.3567
▁འཕྲེད་	-13.3567
▁འཚོལ་བ	-13.3567
▁ལམ་ངན་	-13.3567
▁ལེགས་སྤྱད་	-13.3567
▁ལྗང་ཁུ་	-13.3567
▁ལྲྀང་_	-13.3567
▁ལྲྀཊ་_	-13.3567
▁ཤཱ	-13.3567
▁ཤུ་བ	-13.3567
▁སནྣ་	-13.3567
▁སྐེམ་པ	-13.3567
▁སྔར་བྱུང་བ་	-13.3567
▁སྟོང་ཕྲག་ཉི་ཤུ་ལྔ་པ	-13.3567
▁སྡུམས་	-13.3567
▁སྨྱུག་མ་	-13.3567
▁ཧསྟི་	-13.3567
▁ཧཽ	-13.3567
▁གཞོང་པ་	-13.366
▁གཡོ་མེད་པ་	-13.366
▁གསང་བ་པ་	-13.366
▁གོང་བ་	-13.366
▁ཏྲཱུཾ་	-13.366
▁ཐུག་ཐུབ་	-13.366
▁ཐོས་བསམ་	-13.366
▁ད་གཟོད་	-13.366
▁དགེ་སློང་བ་	-13.366
▁དབྱུ་གུ	-13.366
▁དོད་	-13.366
▁དྲི་བྲལ་	-13.366
▁དྲུག་ཅུ་པོ་	-13.366
▁དྲུང་པ་	-13.366
▁ནོར་པ	-13.366
▁པད་དཀར་	-13.366
▁བར་ཁྱམས་	-13.366
▁བསབ་པ	-13.366
▁བསྲབས་པ་	-13.366
▁བསྲེལ་	-13.366
▁བུག་	-13.366
▁བྲིམས་པ་	-13.366
▁བྲེག་	-13.366
▁མཁུར་	-13.366
▁མནྡ་	-13.366
▁མི་ངས་	-13.366
▁ཚེ་སྔོན་	-13.366
▁འཁོར་མ་	-13.366
▁འཇིལ་བ	-13.366
▁འཐམས་	-13.366
▁འབྱུང་མོ་	-13.366
▁འཛོམ་པ་	-13.366
▁རེ་ཐག་	-13.366
▁རྒྱུ་ལྔ་	-13.366
▁རྗེན་པ་	-13.366
▁རྫ་མ	-13.366
▁ལག་རྩིས་	-13.366
▁ལུ་མ་	-13.366
▁ལོང་བུ	-13.366
▁ལྔ་བ་	-13.366
▁ལྡིང་བ	-13.366
▁སངས	-13.366
▁སུ་ཞིག	-13.366
▁སྐམ་ཞིང་	-13.366
▁སྟེང་གཡོགས་	-13.366
▁སྣང་སྟོང་	-13.366
▁སྣལ་མ	-13.366
▁སྤོས་ཕོར་	-13.366
▁སྤྲོད་པ	-13.366
▁སྦྲུལ	-13.366
▁ཧྲཿ	-13.366
▁ཀང་	-13.3754
▁ཀུན་སློང་	-13.3754
▁ཀྲི་ཡ་	-13.3754
▁ཀླྀ་	-13.3754
▁ཁ་སྐོང་	-13.3754
▁ཁྲེ་	-13.3754
▁གཅད་བྱ་	-13.3754
▁ཆ་རེ་	-13.3754
▁ཉམ་ང	-13.3754
▁ཉེར་གནས་	-13.3754
▁ཏྲཱྃ་	-13.3754
▁ཐུགས་ཆུད་	-13.3754
▁ཐུགས་བསྐྱེད་པ་	-13.3754
▁དགུང་བདུན་	-13.3754
▁དུའི་	-13.3754
▁དེད་པ་	-13.3754
▁ནཱན	-13.3754
▁པ་བ་	-13.3754
▁ཕ་གུ	-13.3754
▁ཕྲུག་	-13.3754
▁བཀར་བ	-13.3754
▁བཞིན་བཟང་	-13.3754
▁བལ་པོ	-13.3754
▁བྲིམ་	-13.3754
▁མཆོག་འཛིན་	-13.3754
▁མཐེབ་ཆེན་	-13.3754
▁མྱ་ངན་མེད	-13.3754
▁ཙནྡ་	-13.3754
▁འཇིམ་གོང་	-13.3754
▁འདུམ་པ་	-13.3754
▁འོག་པག་	-13.3754
▁ཡན	-13.3754
▁ཡིད་ལྡན་	-13.3754
▁རི་པ	-13.3754
▁རྡོས་པ་	-13.3754
▁རྨ་བྱ་ཆེན་མོ	-13.3754
▁ལོཀྱ་	-13.3754
▁སྐྱེལ་བ་	-13.3754
▁སྒྱིད་ལུག་པ་	-13.3754
▁སྣེ་	-13.3754
▁སྣོམ་པ་	-13.3754
▁ཨཱིཏ་	-13.3754
▁ཁེ་སྤོགས་	-13.3849
▁གད	-13.3849
▁གནོང་	-13.3849
▁གཟུངས་ཐོབ་པ་	-13.3849
▁གཤིབས་པ་	-13.3849
▁ཆས་པ	-13.3849
▁ཆེ་ལོང་	-13.3849
▁དགོས་འདོད་	-13.3849
▁དམུ་	-13.3849
▁དུས་འཁོར་བ་	-13.3849
▁དུས་ཤེས་	-13.3849
▁དྲང་དོན་	-13.3849
▁ནེའུ་ལེ	-13.3849
▁ནཿ_	-13.3849
▁ཕ་རོལ	-13.3849
▁ཕྲུ་བ་	-13.3849
▁བ་གམ་	-13.3849
▁བཀྲུ་བཤལ་	-13.3849
▁མ་ལ་ཡ	-13.3849
▁མྱངས་པ	-13.3849
▁ཚད་ལྡན་	-13.3849
▁འདེགས་	-13.3849
▁འཕོངས་	-13.3849
▁འབྲ་གོ་	-13.3849
▁ཡུ་བ་ཅན་	-13.3849
▁རི་རྒྱལ་	-13.3849
▁རིམ་གཉིས་	-13.3849
▁རྐོ་	-13.3849
▁རྗེ་བོ	-13.3849
▁རྣམ་བཅད་	-13.3849
▁རྩུབ	-13.3849
▁རྩྭ་སྔོན་པོ་	-13.3849
▁ལོབས་	-13.3849
▁ཤང་ཤང་ཏེའུ་	-13.3849
▁ཤི་འཕོས་པ	-13.3849
▁ཤིང་གནས་པ	-13.3849
▁སིལ་མ་	-13.3849
▁སྐྱོད་	-13.3849
▁སྡུ་གུ་	-13.3849
▁སྣྲུབས་	-13.3849
▁སྤྲོས	-13.3849
▁སྦྱོར་བ་པོ་	-13.3849
▁སློན་པ་	-13.3849
▁ཧོ་ཧོ་	-13.3849
▁ཀྲྀ	-13.3945
▁གཅོད་པ་པོ་	-13.3945
▁གོས་ཁ་	-13.3945
▁ཅུ་	-13.3945
▁ཉི་ཤུ་གཅིག་པ	-13.3945
▁ཐུན་མོང་པ	-13.3945
▁ད་རུང་	-13.3945
▁དཀྲི་	-13.3945
▁དང་པ	-13.3945
▁ནམ་གྲུ	-13.3945
▁ཕ་བི་	-13.3945
▁ཕབས་	-13.3945
▁བཀྲམ	-13.3945
▁བགྲོད་བྱ་	-13.3945
▁བཅུ་བཞི་པོ་	-13.3945
▁བདག་མེད	-13.3945
▁བདལ་	-13.3945
▁བདེན	-13.3945
▁བརྫིས་	-13.3945
▁བསྐྱལ་བ	-13.3945
▁བསྒྲངས་པ་	-13.3945
▁བསྡུས་འཇོམས་	-13.3945
▁བེའུ་རས་	-13.3945
▁མཐར་ཆགས་	-13.3945
▁མནམ་པ	-13.3945
▁མནར་བ	-13.3945
▁མི་རི་	-13.3945
▁ཚོགས་འདུ	-13.3945
▁ཟག་བྱེད་	-13.3945
▁ཟེ་འབྲུ	-13.3945
▁འགེབས་པ་	-13.3945
▁འགོད	-13.3945
▁འདྲུལ་བ	-13.3945
▁འོ་ན	-13.3945
▁ཡོ་བ	-13.3945
▁རྐང་ཐང་	-13.3945
▁རྐུར་	-13.3945
▁རྒྱལ་མཚན	-13.3945
▁རྟག	-13.3945
▁རྣག་ཁྲག་	-13.3945
▁ཤ་ཆེན་པོ་	-13.3945
▁ཤིང་ཟ	-13.3945
▁ཤིང་ཟ་བ་	-13.3945
▁ཤོང་བ་	-13.3945
▁སྐུ་སྐྱེས་	-13.3945
▁སྐྲག	-13.3945
▁སྔགས་རྒྱུད་	-13.3945
▁སྨག་	-13.3945
▁ཨཱིའོ	-13.3945
▁ཨེཏ་	-13.3945
▁ཀུ་མུ་ད	-13.4041
▁གཏོགས་འདོད་	-13.4041
▁གནས་ཆེན་པོ་	-13.4041
▁གཡོགས་མ་	-13.4041
▁གཤམ་	-13.4041
▁གསེར་མགར་	-13.4041
▁ཆོས་སྐོར་	-13.4041
▁ཏཱཏ	-13.4041
▁ཏིལ་ནག་པོ་	-13.4041
▁ཐབས་མེད་	-13.4041
▁དིཏ་	-13.4041
▁དེ་བཞིན་པ	-13.4041
▁པ་སྡེ་	-13.4041
▁པྲཱཔྟ་	-13.4041
▁ཕྱུག	-13.4041
▁ཕྲལ་བ་	-13.4041
▁བཏོད་པ་	-13.4041
▁བརྒྱབ་	-13.4041
▁བརྟས་པ་	-13.4041
▁བུདྡྷ	-13.4041
▁བྲེ་བོ་	-13.4041
▁བྷྱཱམ	-13.4041
▁བྷྲི་	-13.4041
▁ཛམྦུ་	-13.4041
▁ཛྫ་	-13.4041
▁ཞེ་སྡང་བ	-13.4041
▁ཟ་ཁུ་	-13.4041
▁འདོད་མ	-13.4041
▁འོག	-13.4041
▁ཡུཾ་	-13.4041
▁ཡེངས་པ་	-13.4041
▁ཡོག་	-13.4041
▁ར་རི་	-13.4041
▁རྗེ་དཔོན་	-13.4041
▁ལྟས་ངན་པ་	-13.4041
▁སནྟ་	-13.4041
▁སོག་ལེ་	-13.4041
▁ཨཱས་	-13.4041
▁ཨཱུ	-13.4041
▁ཁ་རོག་	-13.4139
▁ཁན་	-13.4139
▁ག་རེ་	-13.4139
▁གབ་པ་	-13.4139
▁གསལ་པོ་	-13.4139
▁གོ་སྙོད་	-13.4139
▁གོས་སྔོན་ཅན	-13.4139
▁གློང་	-13.4139
▁ཉག་	-13.4139
▁ཏཱས་	-13.4139
▁ཐན་	-13.4139
▁དུ་ཞིག	-13.4139
▁དྲུད་	-13.4139
▁ན་པ	-13.4139
▁ནར་མ་	-13.4139
▁བཀད་ས་	-13.4139
▁བཀུར	-13.4139
▁མཁན་མོ	-13.4139
▁མཚོན་བྱ	-13.4139
▁ཚོར་བ་པོ	-13.4139
▁ཛཾ	-13.4139
▁འགྱུ་བ་	-13.4139
▁འཆེ་	-13.4139
▁འཐབ་བྲལ་བ	-13.4139
▁འདྲེན་བྱེད་	-13.4139
▁འོན་ཅིག་	-13.4139
▁ཡ་ག་	-13.4139
▁ཡིག	-13.4139
▁རབ་ཏུ་ལྡེག	-13.4139
▁རྡུལ	-13.4139
▁རྩེན་པ	-13.4139
▁ལྕགས་ཕྱེ་	-13.4139
▁ལྟོ་སྦོས་	-13.4139
▁སྔོ་སྐྱ་	-13.4139
▁སྟོབས་ཆེན་པོ	-13.4139
▁སྟོར་ཁུང་	-13.4139
▁སྦྲུལ་མགོ	-13.4139
▁ཧསྟ་	-13.4139
▁ཧཱཿ	-13.4139
▁ཀྟའོ	-13.4238
▁གཏུམས་	-13.4238
▁གཟས་པ	-13.4238
▁གོང་འོག་	-13.4238
▁གྲོ	-13.4238
▁གླ་རྩི	-13.4238
▁ཆོས་རྗེ་	-13.4238
▁ཎྱཱ་	-13.4238
▁ཏུཾ་	-13.4238
▁ཏྱད་	-13.4238
▁དབུང་	-13.4238
▁དབྱར་གནས་པ་	-13.4238
▁དེ་སྲིད་པ	-13.4238
▁ནན	-13.4238
▁ཕན་གནོད་	-13.4238
▁ཕར་ཕྱིན་	-13.4238
▁ཕྱལ་	-13.4238
▁བདེ་སྐྱིད་	-13.4238
▁བརྟུན་	-13.4238
▁བརྫུན	-13.4238
▁བསྐྱེད་རྫོགས་	-13.4238
▁བཱིཏ	-13.4238
▁བྱེ	-13.4238
▁མ་གཏོགས	-13.4238
▁མར་པ་	-13.4238
▁མོན་གྲེ་	-13.4238
▁ཚི་གུ་	-13.4238
▁ཛ་པ་	-13.4238
▁འགྲོལ་བ་	-13.4238
▁འཇེབས་པ་	-13.4238
▁འདྲལ་བ་	-13.4238
▁འཕྲུལ་བ	-13.4238
▁འཚལ་མ་	-13.4238
▁ཡུན་ཐུང་	-13.4238
▁ཡུར་བ་	-13.4238
▁རང་གྲོལ་	-13.4238
▁རང་འདོད་པ	-13.4238
▁རས	-13.4238
▁རིཿ	-13.4238
▁རྒྱས་བྱེད་	-13.4238
▁རྩངས་པ་	-13.4238
▁ལམ་རྒྱགས་	-13.4238
▁སྐུ་ལྔ་	-13.4238
▁སྒེའུ་གཤེར་	-13.4238
▁སྣྲེལ་	-13.4238
▁སྦོ་	-13.4238
▁སྨེ་བ	-13.4238
▁སྲིལ་	-13.4238
▁སླར	-13.4238
▁ཨུཎ་	-13.4238
▁ཀམ་	-13.4337
▁ཀུཾ་	-13.4337
▁གཅི་	-13.4337
▁གརྦྷེ་	-13.4337
▁གྲཱྀ་	-13.4337
▁ཉི་ཤུ་གཉིས་པ	-13.4337
▁ཏིར་	-13.4337
▁དྲའི་	-13.4337
▁དྲོ	-13.4337
▁ནི་བ	-13.4337
▁ཕུན་ཚོགས་པ	-13.4337
▁བ་མོ	-13.4337
▁བག་ཚ་བ	-13.4337
▁བཛྲས་	-13.4337
▁བཟའ་མི་	-13.4337
▁བཤལ་	-13.4337
▁བྱར་རུང་བ་	-13.4337
▁མཉམ་བཞག་པ	-13.4337
▁མཛའ་མོ་	-13.4337
▁མུ་རན་	-13.4337
▁ཚིག་ངན་	-13.4337
▁ཚུལ་མིན་	-13.4337
▁ཚེ་ཆུ་	-13.4337
▁ཟ་མ་ཏོག	-13.4337
▁འདིང་	-13.4337
▁རྟེའུ་	-13.4337
▁ལ་ཉེ་བ་	-13.4337
▁ལ་མོ་	-13.4337
▁ལུས་ཚད་	-13.4337
▁ལོ་ཙཱ་བ	-13.4337
▁ཤཱམྦཱི་	-13.4337
▁ཥཿ_	-13.4337
▁སྙིང་ཁུ་	-13.4337
▁སྟི	-13.4337
▁སྦྲུལ་དུག་	-13.4337
▁ཀྲཱུ་	-13.4438
▁ཁྲ	-13.4438
▁གློ་གཅོང་	-13.4438
▁གྷྲཱ་	-13.4438
▁དཔལ་མོ	-13.4438
▁དཔྱི་	-13.4438
▁དབའ་	-13.4438
▁དེའུ་	-13.4438
▁ནུལ་	-13.4438
▁པྲཾ་	-13.4438
▁བ་མ	-13.4438
▁བཅལ་	-13.4438
▁བཛྲ་བ་	-13.4438
▁བཞུད	-13.4438
▁བཟོས་	-13.4438
▁བརྡབ་	-13.4438
▁བལྟམ་པ	-13.4438
▁བུད་པ	-13.4438
▁བྷའོ	-13.4438
▁མ་ཟད་པ་	-13.4438
▁མ་རྒྱུད་	-13.4438
▁མཧཱ་	-13.4438
▁མེ་པྲ་	-13.4438
▁མེན་	-13.4438
▁ཞིང་པ	-13.4438
▁འཁར་བ	-13.4438
▁འཁྲིལ་	-13.4438
▁འཕྲེང་བ་	-13.4438
▁འཚིག་	-13.4438
▁རྒོལ་བ་པ་	-13.4438
▁ལཿ_	-13.4438
▁ཤཱཀྱ་ཡེ་ཤེས་	-13.4438
▁ཤཱུལ་	-13.4438
▁ཤིང་གནས་པ་	-13.4438
▁ཤིང་འཕེལ་	-13.4438
▁ཤིན་ཏུ	-13.4438
▁སྲོག་མེད་	-13.4438
▁ཧུ་ཧུ་	-13.4438
▁ཀུ་ཅོ་	-13.4539
▁ཁྲག་འཛག་པ་	-13.4539
▁གཏན་མེད་	-13.4539
▁གཞིལ་བ་	-13.4539
▁གསོ་དཔྱད་	-13.4539
▁གྲངས་པ	-13.4539
▁གྲུ་འཛིན་	-13.4539
▁གྲོང་ཁྱེར་པ་	-13.4539
▁ཉི་དཀྱིལ་	-13.4539
▁ཉི་ཤུ་ལྔ་པ	-13.4539
▁ཐི	-13.4539
▁ཐོད་ཕྲེང་	-13.4539
▁དཀྲིགས་པ	-13.4539
▁དམ་རྫས་	-13.4539
▁དྷྭཾ་	-13.4539
▁ནཱ་བ་	-13.4539
▁ནུཿ	-13.4539
▁ཕྱག་བརྙན་	-13.4539
▁བགེགས་བསྐྲད་པ་	-13.4539
▁བཏོད་	-13.4539
▁བབ་པོ	-13.4539
▁བཙན་པ	-13.4539
▁བརྩིའོ	-13.4539
▁བསྙོན་པ་	-13.4539
▁བིགྷྣཱན་	-13.4539
▁བྲུད་	-13.4539
▁བློ་བུར་	-13.4539
▁མངྒ་	-13.4539
▁མཐའ་དབུས་	-13.4539
▁མར་ངོ་	-13.4539
▁མི་རྟག	-13.4539
▁མུཉྩ	-13.4539
▁མཽ	-13.4539
▁ཛྫཿ	-13.4539
▁ཞབས་འབྲིང་བ་	-13.4539
▁ཟས་དཀར་	-13.4539
▁འཁྱམ	-13.4539
▁འགྱུ་བ	-13.4539
▁འདབ	-13.4539
▁ཡང་ཚ་	-13.4539
▁ཡི་གེ་བ་	-13.4539
▁ཡོང་ཡེ་	-13.4539
▁རང་མིང་	-13.4539
▁རིགས་མེད་	-13.4539
▁རྒྱལ་ཁམས་	-13.4539
▁རྡོག་	-13.4539
▁རྨེད་པ་	-13.4539
▁ལི་བ་	-13.4539
▁ལྦ་	-13.4539
▁ཤ་བ་རི་	-13.4539
▁ཤུན་པ	-13.4539
▁སྐྱ་བསེང་	-13.4539
▁སྣུམ་པར་	-13.4539
▁སྤོས་སྣོད་	-13.4539
▁སྦྲང་མ	-13.4539
▁སྨན་ལྗོངས་	-13.4539
▁ཧཽ་	-13.4539
▁ཀླི་	-13.4642
▁གང་དག	-13.4642
▁གཏུར་བུ་	-13.4642
▁གཞིལ་བ	-13.4642
▁གརྦྷེ	-13.4642
▁གཤོག་པ	-13.4642
▁གསུང་པ	-13.4642
▁གེགས་བྱེད་	-13.4642
▁གྱ་གྱུ	-13.4642
▁ཆུབ་པ་	-13.4642
▁ཉིན་བྱེད་	-13.4642
▁ཏི་ཀ	-13.4642
▁ཏྭཱ་བ་	-13.4642
▁དགའ་བདེ་	-13.4642
▁དཔྱངས་པ	-13.4642
▁དབོ	-13.4642
▁དུས་བསྐལ་པ་	-13.4642
▁དོས་	-13.4642
▁བཏྟཱ་	-13.4642
▁བནྡ་	-13.4642
▁བསྐུམས་	-13.4642
▁བསྟིམ་པ་	-13.4642
▁བསྲུབ་པ	-13.4642
▁བིཏ་	-13.4642
▁བྲེད་	-13.4642
▁བླུག་པ	-13.4642
▁མཉེས་གཤིན་པ་	-13.4642
▁ཚང་བང་	-13.4642
▁ཞགས	-13.4642
▁ཞབས	-13.4642
▁འཁུ་བ	-13.4642
▁འདྲིད་པ་	-13.4642
▁འཕྱར་	-13.4642
▁འབྲུམ་བུ	-13.4642
▁ར་རོ་བ	-13.4642
▁རི་ཕུག་	-13.4642
▁རོ་ལས་	-13.4642
▁རོ་ལྡན་	-13.4642
▁རྟ་པ	-13.4642
▁རླངས་	-13.4642
▁ལས་མཚམས་	-13.4642
▁ཤན་པ	-13.4642
▁སེམས་སྐྱེས་པ་	-13.4642
▁སྣ་ནད་	-13.4642
▁སྦྲོན་	-13.4642
▁ཧྱསྟ་	-13.4642
▁ཨུ	-13.4642
▁ཀུན་མཐོང་	-13.4745
▁ཀྲྀཏ	-13.4745
▁གཉའ་	-13.4745
▁གཞོང་	-13.4745
▁གུཔྟ་	-13.4745
▁གྲུ་བོ་ཆེ་	-13.4745
▁གྲུབ་མཐ	-13.4745
▁གྷཿ	-13.4745
▁ཇ་	-13.4745
▁དྲས་པ་	-13.4745
▁ནད་གསོ	-13.4745
▁ནད་གསོ་བ་	-13.4745
▁ཕྱོགས་མེད་	-13.4745
▁བདོ་བ	-13.4745
▁བརྔུབ་པ	-13.4745
▁བརྣག་པ་	-13.4745
▁བཤམ་	-13.4745
▁བསླབ་བོ	-13.4745
▁བཱ་པ་	-13.4745
▁བྱ་དེ	-13.4745
▁བྷྱཾ	-13.4745
▁མཐའ་བྲལ་	-13.4745
▁མཐར་གྱུར་པ	-13.4745
▁མཐུག་	-13.4745
▁མཐོངས་	-13.4745
▁མོ་པ་	-13.4745
▁ཚིགས་པ་	-13.4745
▁འགུམ་པ་	-13.4745
▁འཕྱེན་	-13.4745
▁འབྲས་བུ་འབྱིན་པ་	-13.4745
▁འུ་བུ་ཅག་	-13.4745
▁རིམ་ཅན་	-13.4745
▁རྐང་མར་	-13.4745
▁རྨྱ་	-13.4745
▁ལག་གི་བླ	-13.4745
▁ལོངས་པ	-13.4745
▁ས་_	-13.4745
▁སུབ་	-13.4745
▁སེམས་དཔའ	-13.4745
▁སྐྱེ་གནས་པ	-13.4745
▁སྤྲིན་ཕུང་	-13.4745
▁ཨཱཊ་	-13.4745
▁ཀུན་དགའ་བ་	-13.485
▁ཁྱུད་	-13.485
▁གཤོལ་མདའ་	-13.485
▁གསེར་སྲང་	-13.485
▁གྲྭའི་	-13.485
▁ཆོད	-13.485
▁ཉིས་རིམ་	-13.485
▁ཐུལ	-13.485
▁དག་པ་པ་	-13.485
▁དགྱེས་པ་རྡོ་རྗེ	-13.485
▁དགྲམ་པ་	-13.485
▁དང་རུ་	-13.485
▁དངར་	-13.485
▁དབྱར་ཟླ་བ་	-13.485
▁དུ་ཡོད	-13.485
▁དེངས་པ	-13.485
▁དྭཱི་	-13.485
▁དྲི་བཟང་པོ་	-13.485
▁ནད་ཅན་	-13.485
▁ནཱྃ	-13.485
▁ཕྲི་བ་	-13.485
▁བཅོ་ལྔ་པོ་	-13.485
▁བཞོས་	-13.485
▁བསྐོན་པ་	-13.485
▁བྱིའུ་	-13.485
▁མགུལ་ཆིངས་	-13.485
▁མེ་ཏོག་ཅན་	-13.485
▁མེར་མེར་པོ	-13.485
▁མོ་མ་	-13.485
▁ཛྙཿ	-13.485
▁ཞམ་	-13.485
▁ཟླུམ་སྐོར་	-13.485
▁འཇུངས་པ	-13.485
▁རང་ས	-13.485
▁རི་རྩེ་	-13.485
▁རྦ་རླབས་	-13.485
▁རྨི་བ་	-13.485
▁རྩེས་	-13.485
▁རྫུན་	-13.485
▁ལེནྡྲ་བོ་	-13.485
▁ལྗང་ནག་	-13.485
▁ཤ་བ་རི	-13.485
▁ཥྱཏ	-13.485
▁སུ་པོ་	-13.485
▁སྒོ་གསུམ་པོ་	-13.485
▁སྔ་བ་	-13.485
▁སྤྱང་ཀི	-13.485
▁སྭ	-13.485
▁སྭཱཧཱ	-13.485
▁སྱཾ་	-13.485
▁སླར་བསྡུ	-13.485
▁ཧནྟི་	-13.485
▁ཧྲེཾ་	-13.485
▁ཨརྟི་	-13.485
▁ཨརྦུ་	-13.485
▁ཨིས་	-13.485
▁ཨུ་ར་	-13.485
▁ཀུན་གྲུབ་	-13.4956
▁ཀྱི་ལྕེ་	-13.4956
▁གཉེན	-13.4956
▁གཏང་རག་	-13.4956
▁གཡོ་འགུལ་	-13.4956
▁གྲིབ་གནོན་	-13.4956
▁ངག	-13.4956
▁ངུར་	-13.4956
▁ཎིཿ	-13.4956
▁ཐགས་ཐོགས་	-13.4956
▁དགའ་ལྡན་པ་	-13.4956
▁དགེ་བཤེས་	-13.4956
▁དམོད་པ	-13.4956
▁དྲུད་པ་	-13.4956
▁པ་རུ	-13.4956
▁ཕི་	-13.4956
▁བཀུག	-13.4956
▁བག་ཅན་	-13.4956
▁བདག་དབང་	-13.4956
▁བདེན་ཚིག་	-13.4956
▁བསྐུལ་མ་	-13.4956
▁བྲྀཉ་	-13.4956
▁མནོག་	-13.4956
▁མིག་ཟུར་	-13.4956
▁མིན་ནམ	-13.4956
▁ཚ་མོ་	-13.4956
▁ཛྲཱྀཾ་	-13.4956
▁འཁྲིགས་	-13.4956
▁འགྲོན་ལམ་	-13.4956
▁འདི་ཉིད	-13.4956
▁འདི་རིགས་	-13.4956
▁འབེན་	-13.4956
▁རཱིནྟི་	-13.4956
▁རྒྱུན་འབབ་པ	-13.4956
▁རྟ་རྒོད་	-13.4956
▁རྨིག་པ	-13.4956
▁རྩི་སྨན་	-13.4956
▁ལོངས་སྤྱོད	-13.4956
▁ལོས་	-13.4956
▁ལྕིད་	-13.4956
▁ལྗང་བ་	-13.4956
▁ལྟག་མ	-13.4956
▁ཤྣུ་	-13.4956
▁སིཙ་	-13.4956
▁སོག་མ་	-13.4956
▁སྐོམ	-13.4956
▁སྙེད་པ་	-13.4956
▁སྲལ་	-13.4956
▁སླེབས་པ་	-13.4956
▁ཧ་བ་	-13.4956
▁ཀཽ	-13.5063
▁ཁ་སྤུ་	-13.5063
▁ག་བྲ	-13.5063
▁གང་ཅི	-13.5063
▁གཞི་མ་གྲུབ་པ	-13.5063
▁གཞོགས་སློང་	-13.5063
▁གཟུགས་བཟང་པོ་	-13.5063
▁ཆིབས་	-13.5063
▁ཉུག་	-13.5063
▁ཏུའོ་	-13.5063
▁ཏྭ	-13.5063
▁ཐེར་ཟུག་པ	-13.5063
▁དགུང་ཟླ་	-13.5063
▁དང་རུས་པ	-13.5063
▁དཏ	-13.5063
▁དྷྱེ་	-13.5063
▁ན་ལེ་ཤམ	-13.5063
▁པདྨོར་	-13.5063
▁པཱ་བ་	-13.5063
▁བཙོང་བ	-13.5063
▁བརྟད་པ	-13.5063
▁བརྩེའི་	-13.5063
▁བསྐམས	-13.5063
▁བསྣོར་	-13.5063
▁བུཿ	-13.5063
▁བྱཾ་	-13.5063
▁བྷཽ་	-13.5063
▁མཁའ	-13.5063
▁མངོན་གྱུར་	-13.5063
▁ཛྙཱ	-13.5063
▁ཛྷི་	-13.5063
▁ཞལ་རས་	-13.5063
▁ཟོམ་	-13.5063
▁འགྲོགས་བཤེས་	-13.5063
▁འཆོར་བ	-13.5063
▁འབྲུ་མང་པོ	-13.5063
▁འཚག་	-13.5063
▁འོད་སྣང་	-13.5063
▁ཡཱཾ་བོ་	-13.5063
▁ཡོཾ་	-13.5063
▁རྔེའུ་ཆུང་	-13.5063
▁རྩ་སྔགས་	-13.5063
▁ལ་ཟུར་	-13.5063
▁ལུ་བ་	-13.5063
▁ལོབས་པ	-13.5063
▁ཤ་མདོག་	-13.5063
▁སིལ་	-13.5063
▁སྐྱེ་གནས་པ་	-13.5063
▁སྐྱོང་མ་	-13.5063
▁སྒོང་	-13.5063
▁སྟེན	-13.5063
▁སྡེ་གཉིས་	-13.5063
▁སྣང་གསལ་	-13.5063
▁སྤྱན་ལྡན་	-13.5063
▁སྦུབས་ཅན་	-13.5063
▁སྨྱོས་	-13.5063
▁ཧླ་	-13.5063
▁ཨནྡ་	-13.5063
▁ཀུན་རྟོག་པ	-13.5171
▁ཁྲིད	-13.5171
▁ཁྲོད་པ	-13.5171
▁གང་རིགས་	-13.5171
▁གཉེ་མ་	-13.5171
▁གོ་འབྱེད་པ་	-13.5171
▁གླུ་མ	-13.5171
▁ཏཏ་	-13.5171
▁ཏཱིའོ	-13.5171
▁ཐ་དད	-13.5171
▁དཀའ་སྤྱད་	-13.5171
▁དབྲི་བ	-13.5171
▁དབྲོག་	-13.5171
▁དིང་	-13.5171
▁དྲོད་ཆུང་	-13.5171
▁ནོམ་པ་	-13.5171
▁བཅུ་འགྱུར་	-13.5171
▁བཙམས་	-13.5171
▁བཛྲ་པ་	-13.5171
▁བརྩེ	-13.5171
▁བཤམ	-13.5171
▁བསྲུབས་	-13.5171
▁བྱབ་པ	-13.5171
▁བླ་བ་	-13.5171
▁མ་སྨད་པ་	-13.5171
▁མཁྱེན་རབ་	-13.5171
▁མཐའ་འཁོབ་པ་	-13.5171
▁མནབས་	-13.5171
▁མི་མགོ	-13.5171
▁མིང་མེད་པ་	-13.5171
▁ཙིནྟཱ་	-13.5171
▁ཚིམ	-13.5171
▁ཚིལ་བུ་	-13.5171
▁ཞི་བྱེད་པ	-13.5171
▁ཟེ་བ	-13.5171
▁འཁུམས་པ་	-13.5171
▁འཁོར་ལོ་ཅན	-13.5171
▁རབ་བྱེད་	-13.5171
▁རེད་པ་	-13.5171
▁ལས་རིམ་པ་	-13.5171
▁ལིཊའི་	-13.5171
▁ལྔས་རྩེན་	-13.5171
▁སྐམ	-13.5171
▁སྐྱེན་པ་	-13.5171
▁སྐྱོབས	-13.5171
▁སྡོར་	-13.5171
▁སྤྲོའམ	-13.5171
▁སྤྲོས་བཅས་	-13.5171
▁སྲུན་པ	-13.5171
▁སླར་ཞིང་	-13.5171
▁ཧཱ་པ་	-13.5171
▁ཨོཾ་བོ་	-13.5171
▁།།_།	-13.528
▁ཀངྐ་	-13.528
▁ཁང་བཟང་	-13.528
▁གཅད་བྱ	-13.528
▁གཞན་རིག་	-13.528
▁གཡའ་བ	-13.528
▁ང་རྒྱལ་བ་	-13.528
▁ཆང་པ་	-13.528
▁ཆུ་གྲི་	-13.528
▁ཏྭཱཾ་	-13.528
▁ཐན་པ་	-13.528
▁ཐལ	-13.528
▁ད་སྟེ་	-13.528
▁དགྱེས་པ་རྡོ་རྗེ་	-13.528
▁དུས་མཁྱེན་	-13.528
▁དྷས་	-13.528
▁ཕཱ་	-13.528
▁བཅགས་	-13.528
▁བཏུ་	-13.528
▁བནྡྷུ་	-13.528
▁བརྗེད་ངས་	-13.528
▁བསྲོས་	-13.528
▁བཱིརྱ་	-13.528
▁བིདྱ་	-13.528
▁བུན་	-13.528
▁བྱུང་རྒྱལ་	-13.528
▁བྷུཾ་	-13.528
▁མུཾ་	-13.528
▁མེ་བཙའ་	-13.528
▁མོཾ་	-13.528
▁ཚངས་དབང་	-13.528
▁ཛཱཿ	-13.528
▁ཞང་བློན་	-13.528
▁འཁྱོག་པ་	-13.528
▁ཡོན་བཤད་པ་	-13.528
▁རིམས	-13.528
▁རྟུན་པ་	-13.528
▁རྡོག་པ	-13.528
▁ལ་_	-13.528
▁ལོངས་སྐུ	-13.528
▁ཤུ	-13.528
▁ས་དོ་	-13.528
▁ས་སྙིང་	-13.528
▁སཾ་བོ་	-13.528
▁སྐྱོ་མ	-13.528
▁སྟར་བུ་	-13.528
▁སྟོན་མོ	-13.528
▁སྤྲིང་བ	-13.528
▁སྦྱིན་བྱེད་པ	-13.528
▁སྲིད་རྩེ	-13.528
▁སློང་བ་པོ	-13.528
▁ཨཉྩ་	-13.528
▁ཀྭི་པ	-13.5391
▁གཙུབས་པ་	-13.5391
▁གཡོབ་	-13.5391
▁གཤིས་	-13.5391
▁གསེར་ཅན་	-13.5391
▁གསོལ་འདེབས་	-13.5391
▁གྱོད་	-13.5391
▁ཆོ་	-13.5391
▁ཆོས་སྦྱིན་པ	-13.5391
▁དེང་ཕན་	-13.5391
▁དྲུབས་	-13.5391
▁ཕྱམ་	-13.5391
▁བཅུ་པོ	-13.5391
▁བཅུད	-13.5391
▁བཙོ་	-13.5391
▁བརྔོས་	-13.5391
▁བལྟོས་པ་	-13.5391
▁བསླབས	-13.5391
▁བྲུ་བ་	-13.5391
▁མགོ་ནད་	-13.5391
▁མཐོང་ཐོས་	-13.5391
▁མནབས་པ	-13.5391
▁མཛད་སྤྱོད་	-13.5391
▁ཙཀྲེ་	-13.5391
▁ཚིག་མཐ	-13.5391
▁འཆེས་པ་	-13.5391
▁འཇམ	-13.5391
▁རང་རྒྱལ་བ	-13.5391
▁རྡ་	-13.5391
▁རྣགས་	-13.5391
▁རྣམ་རྟོག་པ	-13.5391
▁རྫི	-13.5391
▁རྫུ་	-13.5391
▁ལུགས་མ	-13.5391
▁ལྷོག་པ་	-13.5391
▁ཤཱན་	-13.5391
▁ཥྱེ་	-13.5391
▁སརྦཾ་	-13.5391
▁སཱཾ	-13.5391
▁སྡོད་པ་པོ་	-13.5391
▁སྣཱ་	-13.5391
▁སྲེད	-13.5391
▁སྲོག་མེད་པ	-13.5391
▁ཧྭགས་	-13.5391
▁ཨཱཛྙཱ་པ་	-13.5391
▁ཀུན་སྤྱོད་པ	-13.5502
▁གཅོང་རོང་	-13.5502
▁གཉའ་བ་	-13.5502
▁གཡོ་སྒྱུ	-13.5502
▁གར་བབ་	-13.5502
▁ཅི་སྟེ	-13.5502
▁ཆེན་པ	-13.5502
▁ཊ་སྡེ་	-13.5502
▁ཏ་པ	-13.5502
▁ཏུ་བ་	-13.5502
▁ཐིགས་	-13.5502
▁ཐོན་པ	-13.5502
▁དགུན་སྟོད་	-13.5502
▁དང	-13.5502
▁དཔང་པོ་	-13.5502
▁དཔའ	-13.5502
▁ན་རིམ་པ་	-13.5502
▁ནྟི	-13.5502
▁པླུ་	-13.5502
▁བདོ་བ་	-13.5502
▁བཞད	-13.5502
▁བརྟ་བ་	-13.5502
▁བརྟུན་པ་	-13.5502
▁བལྟོས་པ	-13.5502
▁བསེ་རུ	-13.5502
▁མངག་པ་	-13.5502
▁མངོན་བྱང་	-13.5502
▁མཉམ་མེད་པ	-13.5502
▁མི་ཆེ་བ	-13.5502
▁མེ་ཁང་	-13.5502
▁ཚངས་སྐུད་	-13.5502
▁ཟས་སྦྱིན་པ	-13.5502
▁ཟུར་ཐིག་	-13.5502
▁འཁྲུད་པ	-13.5502
▁འདི་རིགས་པ་	-13.5502
▁འདྲིན་	-13.5502
▁ཡུ	-13.5502
▁རབ་སད་	-13.5502
▁རཱིའོ	-13.5502
▁རི་བྲགས་པ་	-13.5502
▁རྐོར་	-13.5502
▁རླུང་འབྱུང་	-13.5502
▁ལང་ཀ་	-13.5502
▁ལམ་བཟང་པོ་	-13.5502
▁ལྔ་བ	-13.5502
▁ལྕེ་མྱང་ཚ་	-13.5502
▁ཤཱ་རི་	-13.5502
▁ཥར་	-13.5502
▁སྐད་འགགས་	-13.5502
▁སྐྱབས	-13.5502
▁སྒོ་ལྕགས་	-13.5502
▁སྔོ་ནག་	-13.5502
▁སྟ་རེ	-13.5502
▁སྟོང་བ	-13.5502
▁སྤར་བ	-13.5502
▁སྨྱུ་གུ་	-13.5502
▁སྩོགས	-13.5502
▁སྲུབ་པ་	-13.5502
▁སླེབས་པ	-13.5502
▁ཨངྒ་	-13.5502
▁ཀུཉྫ་	-13.5615
▁ཁཱ	-13.5615
▁ཁྱད་པར	-13.5615
▁ཁྱབ་བྱ	-13.5615
▁གཟར་བུ	-13.5615
▁གསུམ་ཅ	-13.5615
▁གྲྀཧྣ་	-13.5615
▁ཇོ་མོ་	-13.5615
▁དང་ལེན་པ	-13.5615
▁དོགས་མེད་	-13.5615
▁ནག་ཚུར་	-13.5615
▁ནུས་ལྡན་	-13.5615
▁ནྱས་	-13.5615
▁བདུད	-13.5615
▁བནྟི་	-13.5615
▁བཛྲོ་	-13.5615
▁བལྟམ་པ་	-13.5615
▁བསྲིངས་པ	-13.5615
▁བིསྨ་	-13.5615
▁བྷུཉྫ་	-13.5615
▁མཚན་ཉིད་པ་	-13.5615
▁མི་ཆེན་པོ	-13.5615
▁མིང་འདོགས་	-13.5615
▁མུ་མེན་	-13.5615
▁ཛཱ་ཏི	-13.5615
▁ཟབ་པོ་	-13.5615
▁ཟས་མཆོག་	-13.5615
▁འགྱེས་པ	-13.5615
▁འབྲུམ་	-13.5615
▁འཚིག་པ	-13.5615
▁ཡིད་འཕྲོག་པ་	-13.5615
▁ར་པོ་	-13.5615
▁རི་པ་	-13.5615
▁རིམ་བཞིན	-13.5615
▁རེ་ཤིག་	-13.5615
▁རྒྱས་འགྲེལ་	-13.5615
▁ལི་ཤི་	-13.5615
▁ལོ་ཉེས་	-13.5615
▁ལྡུམ་	-13.5615
▁ལྷས	-13.5615
▁ཤ་ཚུགས་	-13.5615
▁ཤེས་ཉེན་	-13.5615
▁སངས་པ	-13.5615
▁སུག་པ	-13.5615
▁སྐྱིགས་བུ	-13.5615
▁སྒྲོ	-13.5615
▁སྙན	-13.5615
▁སྡུག་གུ་	-13.5615
▁སྦངས་པ	-13.5615
▁སྲུང་བྱེད་	-13.5615
▁ཨཱཿ་	-13.5615
▁ཀུ་པ་	-13.573
▁ཀྱོག་པོ་	-13.573
▁གཉན་	-13.573
▁གཞིགས་པ་	-13.573
▁གྲུ་གཟིངས་	-13.573
▁ངུ་སྐད་	-13.573
▁ཆ་ཅན་	-13.573
▁ཆོམ་པོ་	-13.573
▁ཆོས་སེམས་	-13.573
▁ཉན་ཐོས་པ	-13.573
▁ཉུག་པ་	-13.573
▁ཉྫ་	-13.573
▁ཏྱཿ	-13.573
▁ཏྲ་བ་	-13.573
▁ཏྲོན་	-13.573
▁དཀན་	-13.573
▁དཀའ་འགྲེལ	-13.573
▁དེ་ག	-13.573
▁ན་མཉམ་པ	-13.573
▁པུསྟི་	-13.573
▁ཕྱེད་པོ་	-13.573
▁བདུད་འདུལ་བ་	-13.573
▁བཟོད་གསོལ་	-13.573
▁བུར་ཤིང་	-13.573
▁བྱི་ཚེར་བ་	-13.573
▁བྲེང་	-13.573
▁བླན་	-13.573
▁བློ་སྐྱེད་པ	-13.573
▁མ་འཁྲུལ་བ་	-13.573
▁མཱྃ་	-13.573
▁ཚིག་གསལ་	-13.573
▁ཞིང་ག	-13.573
▁འགྲམ	-13.573
▁འཆོལ་	-13.573
▁འཕྲད་པ	-13.573
▁ཡུ་ཤ་	-13.573
▁རབ་གསལ་བ	-13.573
▁རིག་བྱེད་པ་	-13.573
▁རིགས་ཆེན་པོ་	-13.573
▁རིཾ་	-13.573
▁རོ་མངར་བ་	-13.573
▁རྔན་པ་	-13.573
▁རྗེད་	-13.573
▁རྡུངས་	-13.573
▁རྣམ་བྱང་	-13.573
▁རྨས་པ་	-13.573
▁རློག་པ	-13.573
▁ལག་དར་	-13.573
▁ལྒང་པ	-13.573
▁ཤལ་མ་ལི	-13.573
▁ཤེལ་སྒོང་	-13.573
▁སཏྱ་	-13.573
▁སྐྱི་	-13.573
▁སྒྱུ་ཐབས་	-13.573
▁སྒྲོན་མེ	-13.573
▁སྣམ་ལོགས་	-13.573
▁སྣོམ་པ	-13.573
▁སྤྱི་ཅེར་	-13.573
▁སྱཱཿ	-13.573
▁ཧཿ_	-13.573
▁ཀུན་འཇོམས་	-13.5845
▁ཀྟྭཱ་	-13.5845
▁ཁོམ་པ་	-13.5845
▁ཁྱུ	-13.5845
▁ཁྲེ་རྒོད་	-13.5845
▁གནས་བྱེད་པ	-13.5845
▁གཡོ་ལྡན་	-13.5845
▁གུས་ཕྱག་	-13.5845
▁གྲོང་པ་	-13.5845
▁ཇོ་བོ	-13.5845
▁ཏུད་	-13.5845
▁ཐ་ག་པ	-13.5845
▁ཐིག	-13.5845
▁ཐུག་མེད་	-13.5845
▁ཐོང་གཤོལ་	-13.5845
▁དཀར་མིན་	-13.5845
▁དངང་བ་	-13.5845
▁དབུག་པ	-13.5845
▁དམངས་	-13.5845
▁དུས་ཤེས་པ་	-13.5845
▁ནགས	-13.5845
▁པཱུརྦྦ་	-13.5845
▁བཙུགས	-13.5845
▁བར་སྟོན་པ	-13.5845
▁བལྟབ་	-13.5845
▁བསམ་ཡས་པ	-13.5845
▁བསྒུལ་བ་	-13.5845
▁བསྒྲེས་	-13.5845
▁བསྟར་བ་	-13.5845
▁བཱཿ	-13.5845
▁བོད་ཡུལ་	-13.5845
▁བྱང་ཆུབ་པོ	-13.5845
▁བྷཱུ་པ་	-13.5845
▁མ་བུ་	-13.5845
▁མགོ་སྐྱེས་	-13.5845
▁མི་འདའ་བ་	-13.5845
▁ཙིའི་	-13.5845
▁ཚུལ་འཆོས་པ	-13.5845
▁ཞ	-13.5845
▁ཟགས་པ	-13.5845
▁ཟླ་བོ	-13.5845
▁ཟླ་མཛེས་	-13.5845
▁འཁར་གཞོང་	-13.5845
▁འདོད་ལྷ	-13.5845
▁འདོམས་པ་	-13.5845
▁འབའ་ཞིག་པོ་	-13.5845
▁ཡ་མ	-13.5845
▁ཡན་མན་	-13.5845
▁ར་སྐྱེས་	-13.5845
▁རང་ཉམས་	-13.5845
▁རུས་བུ་	-13.5845
▁རྒོད་བག་	-13.5845
▁རྗེ་བ་	-13.5845
▁རྡུང་བ་	-13.5845
▁རྨད་བྱུང་བ	-13.5845
▁ལི་ཁྲི་	-13.5845
▁ལྷ་རྟེན་	-13.5845
▁སྐད་འགགས་པ་	-13.5845
▁སྐལ་ངན་	-13.5845
▁སྐྲང་པ་	-13.5845
▁སྒྲོན	-13.5845
▁སྱ་བ་	-13.5845
▁སློབ་བོ་	-13.5845
▁ཀུམ་	-13.5962
▁གླེང་བ་པོ	-13.5962
▁ཐུམ་པོ་	-13.5962
▁དཱ་པ་	-13.5962
▁དྲིལ་བ	-13.5962
▁དྷྲི་	-13.5962
▁ནས་ཞིང་	-13.5962
▁ནི་གུ་	-13.5962
▁ཕྲག	-13.5962
▁བགོམ་	-13.5962
▁བཞིན་འགྱུར་	-13.5962
▁བརྩོན་འགྲུས	-13.5962
▁བསིལ་ཁང་	-13.5962
▁བསྐངས་	-13.5962
▁བསྒྱུར་པ	-13.5962
▁བྲུད་པ	-13.5962
▁མཁའ་སྣང་	-13.5962
▁མཆན་བུ་	-13.5962
▁མིང་མེད་པ	-13.5962
▁ཚིག་རྩུབ་པོ	-13.5962
▁ཞིང་ལྷ	-13.5962
▁འཁྲོལ་	-13.5962
▁འཆུས་	-13.5962
▁འཕྲུལ་དགའ་བ་	-13.5962
▁འབྱོར་ལྡན་	-13.5962
▁རིགས་ཆེན་པོ	-13.5962
▁རིགས་བཞི་པོ་	-13.5962
▁རིམ་མིན་	-13.5962
▁རེད་པ	-13.5962
▁རྒྱལ་མ	-13.5962
▁རྡུལ་མེད་པ	-13.5962
▁རྦད་	-13.5962
▁ལ་མགོ	-13.5962
▁ལན་བུ་	-13.5962
▁ལམ་གོལ་བ་	-13.5962
▁ལཱརྐ་	-13.5962
▁ལྗང་བ	-13.5962
▁སྐོ་བ	-13.5962
▁སྐྲང་བ	-13.5962
▁སྒྱིད་ལུག་	-13.5962
▁སྟོན་ཀ་	-13.5962
▁སྡོད	-13.5962
▁ཀརྨཱ་	-13.6081
▁ཁུ་ཁྲག་	-13.6081
▁ཁྱེ་	-13.6081
▁གང་ཕྱོགས་	-13.6081
▁གཞུ་རྒྱུད་	-13.6081
▁གཟེར་བུ་	-13.6081
▁གྲམ་	-13.6081
▁ངོ་མ་	-13.6081
▁ཅིའི་སླད་དུ	-13.6081
▁ཉ་པ	-13.6081
▁ཏུས་	-13.6081
▁ཐབས་ཚུལ་	-13.6081
▁དགུང་ལོ་	-13.6081
▁དཔལ་ཡོན་	-13.6081
▁དེ་པ་	-13.6081
▁དྲུབ་པ	-13.6081
▁དྷཱ་བ་	-13.6081
▁ན་མཉམ་པ་	-13.6081
▁བ་རྒྱ་	-13.6081
▁བ་ཤ་ཀ	-13.6081
▁བཅའ	-13.6081
▁བཛྲའི་	-13.6081
▁བསྐྱུར་	-13.6081
▁བསྡམ	-13.6081
▁བསྲེས	-13.6081
▁བེམ་	-13.6081
▁བྲིས་སྐུ	-13.6081
▁བྲུྃ་	-13.6081
▁བློན་	-13.6081
▁མཁྲང་བ	-13.6081
▁ཚོང་རྡལ་	-13.6081
▁ཚོན་རྩི	-13.6081
▁ཚྭ	-13.6081
▁ཟློ་བ	-13.6081
▁འགྱུ་	-13.6081
▁འཇག་མ་	-13.6081
▁འདོགས	-13.6081
▁འཕྱོ་བ	-13.6081
▁འཛེགས་པ་	-13.6081
▁ར་ལུག་	-13.6081
▁རས་བྲིས་	-13.6081
▁རས་མ	-13.6081
▁རྐྱོང་བ	-13.6081
▁རྗེས་འཇུག་པ	-13.6081
▁ལིངྒའི་	-13.6081
▁ལྷང་ངེ་	-13.6081
▁སྐུ་ལྔ	-13.6081
▁སྒྲོག	-13.6081
▁སྔོན་དུས་	-13.6081
▁སྟོད་སྨད་	-13.6081
▁སྡིགས་པ	-13.6081
▁སྨྱོན་	-13.6081
▁སྲན་མ	-13.6081
▁ཧྱཱ་	-13.6081
▁ཨརྒ་	-13.6081
▁ཀ་ཀཱ་	-13.62
▁ཀརྐོ་ཊ་	-13.62
▁ཀོངྐ་	-13.62
▁ཁུ་བ་མ	-13.62
▁གཏུབ་པ	-13.62
▁གཞེས་པ	-13.62
▁གཟུགས་ཕུང་	-13.62
▁གོན་པ་	-13.62
▁ངར་སྣབས་	-13.62
▁ངལ་དུབ་	-13.62
▁ཆར་ཆུ་	-13.62
▁ཆུ་ཐིགས་	-13.62
▁ཉ་ལྕིབས་	-13.62
▁ཏྲཱྀ་	-13.62
▁དངོས་ཡོད་	-13.62
▁དཔྱང་	-13.62
▁དྲོན་མོ་	-13.62
▁ནད་གསོ་	-13.62
▁ནོར་མེད་	-13.62
▁ནྱཿ	-13.62
▁པ་ལོ་	-13.62
▁པཉྩི་	-13.62
▁པུ་རི་	-13.62
▁པྲཛྙཱནྟ་	-13.62
▁ཕྱོགས་མཐུན་	-13.62
▁བཙན་དུག་	-13.62
▁བཟེད་	-13.62
▁བལྟམ་	-13.62
▁བསྐྱལ་བ་	-13.62
▁བྱུར་	-13.62
▁བྲྀཏྟི་	-13.62
▁བྷྱཱས་	-13.62
▁མཱིས་	-13.62
▁ཚད་འཁྲུ་	-13.62
▁ཚིག་འཇམ་པོ	-13.62
▁ཚོད་ཟིན་པ	-13.62
▁འཕྱི་བ	-13.62
▁འཛུགས་	-13.62
▁ཡ་ཡོ་	-13.62
▁རོད་	-13.62
▁རྒྱ་ནག་	-13.62
▁རྒྱབ་ཕྱོགས་	-13.62
▁རྒྱལ་ཡུམ་	-13.62
▁རྡོ་ལས་	-13.62
▁རྨ་ཁ	-13.62
▁ལཱ་པ་	-13.62
▁ལུས་ལྡན་	-13.62
▁སཏྐཱ་	-13.62
▁སུམ་ཅུ་པོ་	-13.62
▁སྤྱི་བརྟོལ་	-13.62
▁སྨོན	-13.62
▁སྭེ་	-13.62
▁སྲིང་བ	-13.62
▁སྲོང་	-13.62
▁ཨོ	-13.62
▁ཀརྟ་	-13.6322
▁ཁང་ཆེན་པོ་	-13.6322
▁ཁྱབ་པོ	-13.6322
▁གནག་རྫི་	-13.6322
▁གཞན་རིག་པ་	-13.6322
▁གཞུས་	-13.6322
▁ང་རྒྱལ་ཅན	-13.6322
▁ངེས་མེད་	-13.6322
▁ཆོ་ངེ་	-13.6322
▁ཉམས་འགྱུར	-13.6322
▁ཏེའོ་	-13.6322
▁ཏྃ་	-13.6322
▁ཐུབ་བོ	-13.6322
▁དཀྲུག་	-13.6322
▁དགེ་རྩ་	-13.6322
▁དུས་མཐའ་	-13.6322
▁དེ་བཞིན་པ་	-13.6322
▁དྲ་བོ་	-13.6322
▁ན་བུན་	-13.6322
▁ནཉ་	-13.6322
▁ནད་བུ་	-13.6322
▁ནཱའོ	-13.6322
▁ནོཿ	-13.6322
▁ཕ་མཐའ་	-13.6322
▁བགོའོ	-13.6322
▁བཙོག་པ	-13.6322
▁བཙོག་པ་	-13.6322
▁བསྒྲངས་	-13.6322
▁བསྡམ་	-13.6322
▁བྲིམ་པ་	-13.6322
▁མཁྲང་བ་	-13.6322
▁མགར་བ་	-13.6322
▁མང་ཐོས་	-13.6322
▁མཆོག་གནས་	-13.6322
▁མཐོ་ཡོར་	-13.6322
▁མན་ངག	-13.6322
▁ཙིན་	-13.6322
▁ཞལ་ཏ་བ་	-13.6322
▁ཞོ་ཤ་	-13.6322
▁འདག་རྫས་	-13.6322
▁འདི་སྐབས་	-13.6322
▁འདྲེ་གདོན་	-13.6322
▁འབངས་མོ	-13.6322
▁འོད་ལྡན་པ	-13.6322
▁ཡལ་བ་	-13.6322
▁ཡཱ་ས་	-13.6322
▁ཡིད་འབྱུང་བ	-13.6322
▁ར་_	-13.6322
▁རང་མཚན་	-13.6322
▁རང་རྟགས་	-13.6322
▁རེ་ལྡེ	-13.6322
▁རྐང་འཐུང་	-13.6322
▁རྔ་པ་	-13.6322
▁རྟས་པ	-13.6322
▁རྣམ་གནས་པ	-13.6322
▁རྫུས་སྐྱེས་	-13.6322
▁རློག་	-13.6322
▁ལས་ཉེས་པ	-13.6322
▁སོག་པ	-13.6322
▁སྐད་གསང་	-13.6322
▁སྐུ་ཉམས་	-13.6322
▁སྐྱོགས་	-13.6322
▁སྒ་	-13.6322
▁སྔང་	-13.6322
▁སྔར་བྱུང་	-13.6322
▁སྤོབས	-13.6322
▁སྲེགས་	-13.6322
▁ཨ་བ	-13.6322
▁ཀླད་རྒྱས་	-13.6444
▁ཁ་སྦྱར་བ	-13.6444
▁གནས་བརྟན་པ	-13.6444
▁གསེར་མཆོག་	-13.6444
▁གྲངས་པ་	-13.6444
▁ངག་མ་	-13.6444
▁ཅང་ཤེས་པ	-13.6444
▁ཆོས་མ	-13.6444
▁ཉམ་ང་བ	-13.6444
▁ཎལ་	-13.6444
▁དྲག་སྔགས་	-13.6444
▁དྲུད་པ	-13.6444
▁ཕྱུགས་རྫི་	-13.6444
▁ཕྲུག་གུ་	-13.6444
▁བཙའ་	-13.6444
▁བརྐོ་	-13.6444
▁བརྔས་	-13.6444
▁བརྗེ་	-13.6444
▁བརྗེས་པ་	-13.6444
▁བརྡེགས་པ	-13.6444
▁བསག་	-13.6444
▁བསྒྲིམ་	-13.6444
[...]
